const unsigned char weight0[432] = {
    0xfb, 0xf9, 0x0d, 0xfa, 0x01, 0x0a, 0x00, 0x10, 0xf0, 0x56, 0xd0, 0xd7, 0xd3, 0x2c, 0x05, 0x85, 0x52, 0x2b, 0x47,
    0xc4, 0xed, 0xcc, 0x36, 0x0c, 0x81, 0x65, 0x23, 0x01, 0x01, 0xfb, 0xed, 0x15, 0x02, 0xff, 0x1c, 0xd4, 0xf4, 0x21,
    0x07, 0xfa, 0x15, 0xf4, 0x0e, 0xe1, 0x95, 0xfa, 0x12, 0xf3, 0x16, 0xff, 0xe3, 0x21, 0xb3, 0x81, 0x5b, 0x12, 0xb7,
    0x3c, 0xd5, 0x0c, 0x36, 0xf2, 0x23, 0x81, 0x02, 0x03, 0x57, 0x3a, 0xf2, 0x78, 0x49, 0xb2, 0xaf, 0x00, 0xf8, 0x55,
    0x0f, 0xd5, 0x72, 0x28, 0x9e, 0xf9, 0xfc, 0xfb, 0x18, 0x23, 0x0d, 0xe9, 0xe5, 0xf7, 0x07, 0x02, 0x0b, 0x57, 0x7a,
    0x33, 0xa9, 0x81, 0xc2, 0xfc, 0xef, 0x03, 0x56, 0x73, 0x31, 0xaf, 0x9d, 0xcb, 0x10, 0xc1, 0x2a, 0x20, 0xb1, 0x35,
    0x14, 0xbc, 0x2a, 0x1e, 0x9a, 0x42, 0x3c, 0x81, 0x42, 0x22, 0x93, 0x43, 0x12, 0xbf, 0x2c, 0x23, 0xad, 0x33, 0x09,
    0xbe, 0x37, 0xff, 0x04, 0x00, 0x15, 0x23, 0x06, 0x0d, 0x17, 0x02, 0xf5, 0xe3, 0xf5, 0xa6, 0x81, 0xd6, 0xb8, 0x96,
    0xde, 0x10, 0x15, 0x09, 0x41, 0x5f, 0x22, 0x3b, 0x4e, 0x1d, 0x22, 0x13, 0x00, 0xf9, 0xe5, 0x08, 0xfe, 0xd5, 0x02,
    0x40, 0x54, 0x1a, 0xa4, 0x81, 0xd9, 0xfe, 0xce, 0xe6, 0x4e, 0x4d, 0x1c, 0xbf, 0xb1, 0xe9, 0xf1, 0xc9, 0xdc, 0xfe,
    0xe9, 0xf0, 0x0e, 0xed, 0x0e, 0x06, 0xe1, 0x01, 0x12, 0x27, 0x0f, 0x5e, 0x79, 0x37, 0x5e, 0x7f, 0x3e, 0xf4, 0xf6,
    0xfc, 0x94, 0x89, 0xbf, 0x9a, 0x9b, 0xc1, 0xdd, 0x30, 0x5b, 0xc4, 0xe7, 0x4e, 0xe1, 0xc7, 0x4b, 0xd4, 0x06, 0x60,
    0xca, 0xdf, 0x31, 0xf4, 0xe1, 0x49, 0x24, 0x3d, 0x7f, 0xe0, 0x0b, 0x6f, 0xb8, 0xec, 0x01, 0xfa, 0xfe, 0x02, 0xf1,
    0xf5, 0xf4, 0x09, 0x1f, 0x02, 0x01, 0x10, 0x01, 0xc0, 0xa6, 0xe4, 0x45, 0x7f, 0x2d, 0xff, 0x08, 0xf7, 0xc8, 0xb2,
    0xeb, 0x3f, 0x57, 0x26, 0x50, 0x19, 0xcf, 0x34, 0x5a, 0xba, 0x15, 0x33, 0xe4, 0xef, 0xec, 0xbc, 0xf4, 0x15, 0x81,
    0x3e, 0x0a, 0x8b, 0x0c, 0x09, 0xcf, 0x38, 0x10, 0xe0, 0x28, 0x24, 0xbc, 0xf9, 0x05, 0xf5, 0xf9, 0xeb, 0x1b, 0xe5,
    0xc9, 0x48, 0xf8, 0x10, 0x10, 0xe0, 0x06, 0x1d, 0xb9, 0xb2, 0x0e, 0x09, 0x00, 0x14, 0x02, 0xe3, 0x02, 0xec, 0x81,
    0xd0, 0x24, 0xd4, 0x09, 0x26, 0xda, 0xfd, 0xf0, 0x17, 0xfb, 0x6c, 0x81, 0x0e, 0x3c, 0xbd, 0x07, 0xd9, 0x20, 0x08,
    0x4e, 0x9d, 0x19, 0x38, 0xc8, 0xfc, 0xdc, 0x25, 0x00, 0xf5, 0xe3, 0xf0, 0xba, 0x94, 0xda, 0xc0, 0x9c, 0xd6, 0x13,
    0x27, 0x10, 0x41, 0x7f, 0x21, 0x41, 0x76, 0x25, 0xfc, 0xf3, 0xff, 0x05, 0xeb, 0x05, 0x00, 0xe9, 0x02, 0x23, 0xe2,
    0xf9, 0xfd, 0xeb, 0x0f, 0x0c, 0x11, 0xe6, 0x16, 0xcb, 0xd7, 0x39, 0x19, 0x12, 0x60, 0x7f, 0x18, 0x17, 0xe4, 0xec,
    0x3a, 0xe7, 0x1e, 0x34, 0xdc, 0xf3, 0xf1, 0xf1, 0xfa, 0x16, 0x1b, 0x06, 0xf6, 0xf2, 0xfb, 0xb9, 0xa6, 0xdc, 0x50,
    0x7f, 0x2e, 0xfc, 0xe9, 0x03, 0xc1, 0xb5, 0xdd, 0x4b, 0x6e, 0x26, 0xf1, 0xdc, 0xfd,
};
const int32_t bias0[16] = {
    15290,       -17864, 402709,     19766,  20264, 22962, 50969,  9706,
    -2147483647, 28286,  2147483647, -16720, 1926,  15032, -21528, 10122,
};
const float scales0[16] = {
    0.00690294270718009,   0.0014553058226752659, 0.00017354735084104225, 0.0037062206841207757,
    0.0022270082756701668, 0.001969512629978621,  0.0016892292274089883,  0.006102382136525486,
    8.024835340391962e-23, 0.002114405784006765,  9.864409398533621e-23,  0.001426971573984519,
    0.008265790546278231,  0.004941430759315809,  0.0009483325204850451,  0.00862248151853877,
};
const int32_t shift0[16] = {
    -7, -9, -12, -8, -8, -8, -9, -7, 0, -8, 0, -9, -6, -7, -10, -6,
};
const int32_t multiplier0[16] = {
    1897466443, 1600125674, 1526538642, 2037516369, 1224310747, 1082751019, 1857327178, 1677410029,
    0,          1162406873, 0,          1568971838, 1136041602, 1358290144, 2085405267, 1185064836,
};
const unsigned char CHWweight1[144] = {
    0x0b, 0x28, 0xfa, 0xfe, 0x81, 0x1d, 0x05, 0x24, 0xf7, 0xfc, 0xe1, 0xfa, 0x0b, 0x7f, 0xee, 0xff, 0xf6, 0xfe,
    0xd0, 0xc1, 0xd1, 0xf6, 0x7f, 0xd8, 0xd4, 0xd6, 0xd6, 0xff, 0x14, 0xff, 0x06, 0x81, 0x0a, 0xff, 0x0e, 0xff,
    0xfe, 0xde, 0x03, 0xf0, 0x7f, 0xed, 0xf9, 0xf5, 0xff, 0xeb, 0x72, 0xef, 0xec, 0x7f, 0xf3, 0x00, 0xff, 0xfe,
    0x09, 0x24, 0xfc, 0xe5, 0x81, 0x30, 0x09, 0x18, 0xfd, 0xff, 0x0e, 0x01, 0x1c, 0x81, 0x18, 0xff, 0x0c, 0x00,
    0xf5, 0x8e, 0x00, 0x81, 0x91, 0x86, 0xcf, 0x84, 0xa1, 0xe1, 0xed, 0xff, 0x7f, 0x24, 0xf7, 0xe6, 0xf4, 0xfc,
    0xe2, 0x9e, 0xa5, 0x81, 0x86, 0x94, 0x0a, 0xe8, 0xdd, 0xfd, 0xd7, 0x0a, 0x11, 0x7f, 0xdd, 0xfa, 0xfe, 0xfa,
    0x02, 0x06, 0xc0, 0xe4, 0x00, 0x7f, 0xf7, 0x0a, 0xe3, 0xfe, 0x0f, 0xff, 0x10, 0x81, 0x08, 0x0d, 0xd6, 0x0a,
    0xf3, 0xd3, 0xfa, 0x0a, 0x7f, 0xf0, 0xfd, 0xfc, 0xff, 0x00, 0x0e, 0x0d, 0x0d, 0x81, 0xbd, 0x02, 0x0b, 0x0c,
};
const int32_t offsetBias1[16] = {
    13789, 7805, -13937, 3591, 5093, 18900, 9552, 4322, -2147483647, 10974, -2147483647, 6985, 3506, 3393, 5796, 6475,
};
const int32_t offsetRBias1[16] = {
    0, 0, 0, 0, 0, 0, 0, 0, -96384, 0, -80000, 0, 0, 0, 0, 0,
};
const float scales1[16] = {
    0.007325439713895321,   0.03534547984600067,  0.012871779501438141,   0.015226778574287891,
    0.02592112496495247,    0.014333861880004406, 0.009224595502018929,   0.008989745751023293,
    1.5454769631689337e-22, 0.011358351446688175, 2.2294072510920467e-22, 0.039988648146390915,
    0.009832199662923813,   0.008187546394765377, 0.06039275974035263,    0.006696805823594332,
};
const int32_t shift1[16] = {
    -7, -4, -6, -6, -5, -6, -6, -6, 0, -6, 0, -4, -6, -6, -4, -7,
};
const int32_t multiplier1[16] = {
    2013601536, 1214461440, 1769083904, 2092752512, 1781286144, 1970030976, 1267818752, 1235541248,
    0,          1561079936, 0,          1373999488, 1351327232, 1125287808, 2075079424, 1840803968,
};
const unsigned char weight2[128] = {
    0x81, 0xe1, 0xfb, 0x08, 0x03, 0x28, 0x07, 0x72, 0x00, 0xf7, 0x00, 0x0b, 0xab, 0xd5, 0xf0, 0xfd, 0x08, 0x13, 0x06,
    0xd7, 0x00, 0x1f, 0xe4, 0x08, 0x00, 0x81, 0x00, 0x1b, 0xfc, 0x2d, 0xee, 0xc5, 0x07, 0x1b, 0x20, 0x52, 0x81, 0x03,
    0xee, 0xed, 0x00, 0xfb, 0x00, 0xd6, 0x00, 0x03, 0xfc, 0xaa, 0x7f, 0x16, 0x1e, 0x06, 0xff, 0x2e, 0x08, 0x7b, 0x00,
    0x01, 0x00, 0xe9, 0x58, 0xd3, 0x15, 0xfd, 0x09, 0x0c, 0x4e, 0x62, 0x00, 0xfd, 0x68, 0xfb, 0x00, 0x81, 0x00, 0x13,
    0xfd, 0x18, 0xed, 0x34, 0x01, 0xf2, 0x33, 0xdb, 0x00, 0xd2, 0x7f, 0xf4, 0x00, 0xd8, 0x00, 0xe5, 0x02, 0xcc, 0x14,
    0xe3, 0x08, 0x30, 0x1a, 0xaa, 0x81, 0x00, 0x07, 0x14, 0x00, 0xff, 0x00, 0xec, 0xf0, 0xfc, 0xeb, 0x56, 0xf9, 0xe7,
    0x0f, 0xf6, 0x01, 0x7c, 0x7c, 0xe4, 0x00, 0x31, 0x00, 0xd7, 0x03, 0x7f, 0x18, 0x09,
};
const int32_t bias2[8] = {
    7045, 14767, 4617, -25464, -19469, 5181, 6483, -31131,
};
const float scales2[8] = {
    0.0026758082119454083, 0.0033812921406144287, 0.002088317280371419, 0.0025748521298262048,
    0.0023652497110127593, 0.0035175792511030193, 0.001982836222156152, 0.002460677169269206,
};
const int32_t shift2[8] = {
    -8, -8, -8, -8, -8, -8, -8, -8,
};
const int32_t multiplier2[8] = {
    1471041121, 1858885013, 1148064566, 1415539928, 1300309780, 1933809644, 1090075741, 1352771580,
};
const unsigned char weight3[384] = {
    0xfc, 0xa2, 0x12, 0x14, 0xe9, 0x75, 0xde, 0x7f, 0xe5, 0x58, 0xd7, 0xfe, 0x2a, 0x8e, 0x12, 0x81, 0x7f, 0xdc, 0x0b,
    0x9b, 0x02, 0x21, 0xd4, 0x1c, 0x0c, 0xe9, 0x84, 0x0f, 0xdf, 0x22, 0x7f, 0x02, 0x81, 0x17, 0x96, 0x86, 0xe4, 0x01,
    0x60, 0x4f, 0x19, 0xfe, 0x7f, 0x21, 0x19, 0xe5, 0x8e, 0xe0, 0x7a, 0x00, 0xf8, 0x7f, 0xf4, 0xf7, 0x13, 0xdf, 0x90,
    0x14, 0x7f, 0x9a, 0x36, 0xc6, 0x81, 0x32, 0x5e, 0x22, 0xec, 0x81, 0x06, 0xd8, 0x20, 0xe7, 0xef, 0xc4, 0x05, 0xec,
    0xfa, 0x4f, 0xfc, 0x81, 0x14, 0x39, 0xfc, 0x1a, 0x06, 0xb0, 0x05, 0x7f, 0x7f, 0x01, 0xf3, 0x7a, 0xf1, 0xf5, 0x02,
    0xfe, 0x81, 0x00, 0x11, 0x83, 0x0e, 0x09, 0xf5, 0x1a, 0x81, 0x01, 0xfc, 0x7a, 0xff, 0x02, 0xfb, 0xfd, 0x04, 0xfb,
    0x7f, 0xfa, 0xff, 0x0c, 0x7d, 0x08, 0xf6, 0x81, 0xf7, 0xf9, 0xe4, 0x85, 0x0a, 0xee, 0xfd, 0x58, 0x14, 0xfb, 0x81,
    0x1a, 0xf0, 0xf4, 0x01, 0xfe, 0x83, 0xfb, 0xff, 0xfc, 0x81, 0xfe, 0x9c, 0x2a, 0x11, 0x81, 0x1b, 0xd9, 0x0e, 0x17,
    0x02, 0x97, 0x2a, 0x3b, 0xd9, 0x7f, 0xf4, 0x6c, 0x82, 0xec, 0x29, 0x81, 0x13, 0x24, 0xfd, 0x31, 0x15, 0xf8, 0x81,
    0xf3, 0xcd, 0x1f, 0x72, 0xff, 0xf6, 0x4e, 0xbb, 0xf0, 0x81, 0x2f, 0x46, 0x08, 0x7f, 0xfb, 0xeb, 0x8c, 0xf4, 0x01,
    0xdf, 0x00, 0x0c, 0x59, 0xfe, 0x0c, 0x7f, 0x7b, 0x04, 0x15, 0xfe, 0x43, 0xff, 0xed, 0x81, 0x07, 0xff, 0xf0, 0xfa,
    0x81, 0xf2, 0xf6, 0xf4, 0x85, 0x0d, 0xfb, 0x04, 0x7f, 0x18, 0xf5, 0xcc, 0x65, 0xeb, 0xfa, 0x8b, 0xe9, 0x0d, 0x7f,
    0x11, 0x22, 0xed, 0x17, 0x01, 0x81, 0xf4, 0xf4, 0xf1, 0x87, 0x0d, 0xf7, 0xfb, 0x81, 0xf4, 0xfe, 0x34, 0x9e, 0x0d,
    0xfc, 0x04, 0x70, 0xfd, 0x0f, 0x50, 0x7f, 0xf7, 0x13, 0x13, 0x93, 0x53, 0x01, 0x7f, 0xb6, 0xb4, 0x06, 0x14, 0x3b,
    0xfc, 0x13, 0x05, 0xa8, 0x0c, 0x7f, 0x86, 0x0f, 0xc7, 0x7f, 0x05, 0x0b, 0xcb, 0xfc, 0x6d, 0x3e, 0xc7, 0x81, 0x10,
    0xab, 0xd1, 0xa4, 0x04, 0x06, 0x42, 0x0f, 0x7f, 0x0d, 0xb5, 0xfd, 0xdb, 0x3a, 0xf3, 0xe9, 0x07, 0xbe, 0x01, 0x7f,
    0x17, 0xb7, 0xf2, 0x16, 0xf5, 0x54, 0xff, 0x81, 0xe6, 0x69, 0xe1, 0x17, 0x23, 0x81, 0x02, 0x5c, 0xfe, 0xc2, 0x27,
    0xf7, 0x81, 0xf7, 0xc0, 0x35, 0x1b, 0x7f, 0x58, 0x05, 0xf5, 0x6a, 0xb2, 0x0a, 0x81, 0x57, 0xc3, 0x04, 0xd2, 0xb1,
    0x1d, 0xe9, 0xe9, 0xb9, 0xf0, 0xe4, 0x04, 0x6e, 0xf8, 0x81, 0x4a, 0xea, 0x4e, 0xc1, 0xaa, 0x48, 0x81, 0x42, 0x26,
    0x16, 0x81, 0x20, 0x87, 0xf3, 0x75, 0x14, 0x05, 0xcc, 0x0f, 0x10, 0x79, 0x81, 0x21, 0x17, 0x0f, 0x7f, 0x9c, 0xee,
    0x32, 0xa3, 0x32, 0xb4,
};
const int32_t bias3[48] = {
    796,  -595, 1607,  165,   -261, 218,  128,  -46,  -188,  -25,  -63,   79,   421,  63,   1566,  -249,
    -202, 100,  11092, 17456, 8205, 5875, -169, -617, 162,   6943, -145,  3087, 224,  4330, 1729,  8785,
    72,   1302, 208,   3527,  -123, -226, 26,   2036, -3461, 1138, -2783, 2463, 5594, 2086, -1816, -190104880,
};
const float scales3[48] = {
    0.010154447547569343,  0.01094791610049547,   0.012859187599416714,  0.015178112963667681,  0.009858993232103158,
    0.01616949311341112,   0.01089775061341326,   0.009398876527252194,  0.01669229656950295,   0.030857424101133343,
    0.027443501058479244,  0.03582294847301002,   0.04059356860721794,   0.011877554325634938,  0.016002408565720397,
    0.019759919386512028,  0.02084402382395374,   0.029913625494783137,  0.0022803647426935395, 0.0018248660860401948,
    0.003147445644898563,  0.0035344540774997573, 0.00883053557052073,   0.014082084481252668,  0.034576457735400794,
    0.0031404863310865163, 0.0127865764705368,    0.007068971944664824,  0.009755085414241912,  0.004246822391376381,
    0.006827071364445458,  0.003779232357439285,  0.004380011514590349,  0.005158484873729301,  0.004145252603421903,
    0.0023057493315349832, 0.004973916873060397,  0.0038459279193496752, 0.005319514487899117,  0.003372370084876534,
    0.002706086799600112,  0.0031952019165054704, 0.0027633544338753853, 0.002438507874508114,  0.0011481761871223089,
    0.001607136010923616,  0.0026023148814606125, 7.025918735387842e-14,
};
const int32_t shift3[48] = {
    -6, -6, -6, -6, -6, -5, -6, -6, -5, -5, -5, -4, -4, -6, -5, -5, -5, -5, -8, -9, -8, -8, -6, -6,
    -4, -8, -6, -7, -6, -7, -7, -8, -7, -7, -7, -8, -7, -8, -7, -8, -8, -8, -8, -8, -9, -9, -8, 0,
};
const int32_t multiplier3[48] = {
    1395616644, 1504670132, 1767353286, 2086063961, 1355009712, 1111159106, 1497775440, 1291771754,
    1147085886, 2120506038, 1885903033, 1230867137, 1394784397, 1632438636, 1099677143, 1357891321,
    1432390410, 2055648691, 1253643775, 2006461481, 1730326542, 1943086678, 1213659567, 1935426954,
    1188038041, 1726500619, 1757373689, 1943104212, 1340728730, 1167357650, 1876611087, 2077654961,
    1203968398, 1417953525, 1139438359, 1267599100, 1367219859, 2114321233, 1462217008, 1853980061,
    1487686951, 1756580830, 1519170166, 1340583881, 1262433068, 1767064731, 1430637736, 0,
};
const unsigned char CHWweight4[432] = {
    0x11, 0x34, 0x32, 0x27, 0x7f, 0x72, 0x18, 0x5c, 0x57, 0x18, 0x36, 0x2f, 0x2a, 0x7f, 0x72, 0x27, 0x71, 0x65, 0xe6,
    0xc5, 0xcf, 0xce, 0x81, 0xaa, 0xde, 0xa8, 0xc1, 0xe8, 0xd1, 0xdf, 0xcc, 0x81, 0x97, 0xdb, 0x9b, 0xa5, 0xe3, 0xbc,
    0xc0, 0xc8, 0x81, 0x8b, 0xd9, 0x9c, 0xac, 0x0f, 0x31, 0x34, 0x25, 0x7f, 0x75, 0x20, 0x65, 0x5b, 0x18, 0x35, 0x2f,
    0x2e, 0x7f, 0x77, 0x19, 0x4c, 0x4b, 0xea, 0xc8, 0xce, 0xd2, 0x81, 0xa0, 0xe6, 0x9f, 0xaf, 0x23, 0x3b, 0x2a, 0x42,
    0x7f, 0x5c, 0x31, 0x5f, 0x46, 0xf6, 0xdf, 0xe4, 0xdb, 0x8c, 0x99, 0xde, 0x81, 0x89, 0x0b, 0x25, 0x1c, 0x2b, 0x7f,
    0x71, 0x24, 0x76, 0x6f, 0xec, 0xc0, 0xcc, 0xc8, 0x81, 0x8e, 0xe4, 0xa1, 0xb1, 0x18, 0x35, 0x2f, 0x2e, 0x7f, 0x63,
    0x2b, 0x6f, 0x5c, 0x2a, 0x42, 0x33, 0x4d, 0x7f, 0x6e, 0x3d, 0x70, 0x5f, 0x00, 0x25, 0x26, 0xef, 0x61, 0x7f, 0xea,
    0x56, 0x7f, 0x05, 0x2f, 0x3e, 0x0c, 0x61, 0x7f, 0x09, 0x4e, 0x67, 0xf1, 0xc6, 0xd3, 0xd6, 0x81, 0x9a, 0xde, 0x98,
    0xac, 0xfd, 0x17, 0x15, 0xe5, 0x55, 0x7f, 0xe6, 0x55, 0x7f, 0x09, 0x08, 0x03, 0x39, 0x6b, 0x57, 0xb7, 0x81, 0x95,
    0x18, 0x12, 0x0e, 0x37, 0x71, 0x62, 0xb9, 0x81, 0x8d, 0x23, 0x3d, 0x31, 0xb7, 0x81, 0x99, 0x26, 0x3c, 0x36, 0x32,
    0xa3, 0x2c, 0x43, 0x81, 0x46, 0x39, 0x9c, 0x40, 0x02, 0xe7, 0xc5, 0xf3, 0xbe, 0x81, 0xfc, 0xc3, 0x90, 0xe7, 0xd4,
    0xd3, 0xbd, 0x8e, 0x9b, 0xc0, 0x81, 0xa2, 0x05, 0xfe, 0x3a, 0x04, 0x19, 0x7f, 0xfd, 0x16, 0x70, 0x12, 0x47, 0xa0,
    0xfc, 0x3e, 0x81, 0xf7, 0x42, 0x8c, 0xf5, 0x38, 0x1e, 0x07, 0x7f, 0x63, 0xfe, 0x62, 0x57, 0xfe, 0xc4, 0xc0, 0xde,
    0x81, 0x85, 0xd5, 0x99, 0x9d, 0xe0, 0xb5, 0xd9, 0xbd, 0x81, 0xb2, 0xc4, 0x8c, 0xa1, 0xfe, 0x4e, 0xde, 0x05, 0x7f,
    0xd9, 0xfe, 0x5f, 0xe4, 0x02, 0xcd, 0xbc, 0xea, 0xa2, 0x81, 0xf1, 0x9f, 0x98, 0x15, 0x1c, 0xc4, 0x0e, 0x0d, 0x81,
    0x0d, 0x08, 0x9a, 0xf1, 0xc6, 0x05, 0xc1, 0x81, 0xf5, 0xd3, 0x8e, 0xfc, 0x09, 0x06, 0x08, 0x0f, 0x22, 0x21, 0xbc,
    0x81, 0x9c, 0xc5, 0xaa, 0x41, 0xb7, 0x88, 0x7f, 0xd7, 0x87, 0x64, 0x19, 0xc3, 0x15, 0x25, 0x81, 0x42, 0x08, 0xbc,
    0x44, 0x08, 0x12, 0xc7, 0x0d, 0xf5, 0x81, 0x03, 0xfa, 0x82, 0x68, 0x7f, 0x60, 0xeb, 0xf2, 0xee, 0xf6, 0xe1, 0xc4,
    0x0c, 0x05, 0x07, 0x0b, 0xfc, 0xf6, 0xd6, 0x84, 0x81, 0x2a, 0x4c, 0x39, 0xaf, 0x81, 0x8e, 0x15, 0x25, 0x20, 0xf4,
    0xaf, 0x0b, 0xc2, 0x91, 0x35, 0xef, 0xbf, 0x7f, 0x06, 0x98, 0x9a, 0x05, 0x81, 0x9d, 0x02, 0x9f, 0xac, 0xfe, 0xca,
    0xbf, 0x0a, 0xa9, 0x81, 0xff, 0xb2, 0xa8, 0x12, 0x20, 0x14, 0xd2, 0xaa, 0xbe, 0xb6, 0x81, 0xa4, 0xe6, 0xed, 0x34,
    0xeb, 0xa1, 0x7f, 0x0e, 0x94, 0x53, 0xd4, 0xa3, 0xfd, 0xd2, 0x81, 0xdc, 0x12, 0xe5, 0xf6, 0x1e, 0x8e, 0xb0, 0x14,
    0x81, 0x82, 0x20, 0xa1, 0xa0, 0xf5, 0x54, 0x31, 0x27, 0x7f, 0x59, 0x11, 0x7c, 0x61,
};
const int32_t offsetBias4[48] = {
    77505,  86041,  -29057, -30029, -40471, 81780,  76787,  -29044, 82207,  -2281,  80975,  -68197,
    179671, 95489,  60196,  69836,  -26388, 52073,  -3769,  765,    -759,   3027,   -55849, -81346,
    48776,  -14609, 65017,  -71320, -85556, 21780,  -67421, -18495, -53829, -23064, -26672, -3896,
    -35571, 25025,  -33470, -7068,  -20075, -75343, -61898, -51764, 787,    -45942, -70513, 42524368,
};
const int32_t offsetRBias4[48] = {
    0, 0, 0, 0, 0, 0, 0, 0, 0, 0, 0, 0, 0, 0, 0, 0, 0, 0, 0, 0, 0, 0, 0, 0,
    0, 0, 0, 0, 0, 0, 0, 0, 0, 0, 0, 0, 0, 0, 0, 0, 0, 0, 0, 0, 0, 0, 0, 0,
};
const float scales4[48] = {
    0.0031249485909938812, 0.0028197746723890305, 0.0026059236843138933,  0.0023806120734661818, 0.0026745451614260674,
    0.0027695028111338615, 0.003493218682706356,  0.0025886036455631256,  0.003367045195773244,  0.001610740553587675,
    0.001998431980609894,  0.002467257436364889,  0.001641552778892219,   0.00257688807323575,   0.0029096875805407763,
    0.0028725515585392714, 0.0021581072360277176, 0.0018123212503269315,  0.01565718464553356,   0.019854329526424408,
    0.010011615231633186,  0.004796206019818783,  0.008417166769504547,   0.0058103702031075954, 0.0015775010688230395,
    0.010145196691155434,  0.004987288266420364,  0.007263387553393841,   0.004241699818521738,  0.016730988398194313,
    0.010361059568822384,  0.019162079319357872,  0.010331629775464535,   0.013186912052333355,  0.01053308229893446,
    0.014141916297376156,  0.011025617830455303,  0.00706331804394722,    0.014088178053498268,  0.01014921348541975,
    0.04465680941939354,   0.007307213731110096,  0.012201000936329365,   0.014304487966001034,  0.019689634442329407,
    0.015979047864675522,  0.018186381086707115,  4.5707588511604766e-14,
};
const int32_t shift4[48] = {
    -8, -8, -8, -8, -8, -8, -8, -8, -8, -9, -8, -8, -9, -8, -8, -8, -8, -9, -5, -5, -6, -7, -6, -7,
    -9, -6, -7, -7, -7, -5, -6, -5, -6, -6, -6, -6, -6, -7, -6, -6, -4, -7, -6, -6, -5, -5, -5, 0,
};
const int32_t multiplier4[48] = {
    1717958656, 1550187520, 1432621696, 1308755328, 1470346752, 1522550272, 1920417280, 1423099904,
    1851052672, 1771027968, 1098649600, 1356389120, 1804906368, 1416659200, 1599617664, 1579201920,
    1186432000, 1992668288, 1075953536, 1364379136, 1375985920, 1318371072, 1156846592, 1597142400,
    1734480768, 1394345216, 1370895360, 1996544768, 1165949568, 1149744768, 1424013184, 1316808064,
    1419968384, 1812395392, 1447655808, 1943650176, 1515349376, 1941550080, 1936264448, 1394897280,
    1534396288, 2008591616, 1676892800, 1965993856, 1353061376, 1098071808, 1249758592, 0,
};
const unsigned char weight5[768] = {
    0x81, 0x51, 0x26, 0x93, 0xea, 0xae, 0xfd, 0x14, 0x0d, 0x04, 0x0a, 0x13, 0x0a, 0xff, 0xe7, 0x0b, 0x0c, 0xf0, 0xfd,
    0x01, 0x01, 0xf3, 0xdb, 0x02, 0xfa, 0xfc, 0x04, 0xf6, 0x02, 0xfe, 0xfd, 0x05, 0x32, 0x03, 0x03, 0x11, 0x14, 0x05,
    0xfc, 0x00, 0xf3, 0x06, 0x03, 0xff, 0xfb, 0xf3, 0xf5, 0x00, 0x07, 0x02, 0x0d, 0x32, 0x70, 0x81, 0xac, 0xd7, 0xfd,
    0xda, 0x11, 0x59, 0xb5, 0xfc, 0x10, 0x14, 0xd1, 0x04, 0x1f, 0x00, 0x2f, 0x12, 0x4e, 0x07, 0xe8, 0x2d, 0xc8, 0x40,
    0x02, 0x32, 0x39, 0x21, 0x1a, 0x14, 0xef, 0xeb, 0x29, 0xfe, 0x1d, 0x13, 0xf5, 0x08, 0x09, 0x22, 0xfb, 0xff, 0x17,
    0x00, 0xd4, 0x45, 0x81, 0xf7, 0xd3, 0xf4, 0x22, 0xf7, 0xb4, 0xf5, 0x03, 0x1d, 0xe8, 0x13, 0x30, 0x03, 0xf8, 0x21,
    0x09, 0x06, 0x03, 0xfd, 0xfc, 0xf0, 0xfb, 0x03, 0xfe, 0x07, 0x10, 0x04, 0x13, 0x05, 0x0d, 0x07, 0xf8, 0xf7, 0xfd,
    0x00, 0xfa, 0x03, 0xff, 0xfd, 0xec, 0x00, 0xff, 0x02, 0x03, 0x00, 0x7f, 0xc4, 0x4d, 0xda, 0xf4, 0xec, 0x09, 0xfb,
    0xa0, 0xea, 0x02, 0xed, 0xee, 0x3c, 0xca, 0xfb, 0x11, 0xe1, 0x0e, 0x0a, 0x0d, 0xfe, 0xf3, 0x33, 0xfd, 0x02, 0xfe,
    0xf6, 0xfa, 0x01, 0xfe, 0x08, 0x0a, 0x01, 0x06, 0x02, 0x0d, 0xf7, 0xfa, 0x0a, 0xfe, 0x08, 0xf9, 0x05, 0x05, 0xfd,
    0x02, 0x00, 0xf9, 0xf7, 0x04, 0x4e, 0xa3, 0x24, 0xf5, 0x7f, 0xfa, 0xfa, 0x01, 0x0f, 0xf5, 0xfe, 0x08, 0x05, 0x03,
    0x0a, 0x01, 0xfb, 0x02, 0x03, 0x0d, 0x08, 0xfb, 0x07, 0xf8, 0x07, 0x05, 0x06, 0x03, 0x03, 0x0a, 0x03, 0xfe, 0x04,
    0x07, 0x02, 0x08, 0x02, 0xff, 0x00, 0x04, 0x05, 0xfa, 0x06, 0x02, 0x00, 0x06, 0x0d, 0x00, 0xc3, 0xdf, 0x2a, 0xcc,
    0xb5, 0xfb, 0xef, 0x12, 0x0f, 0xd4, 0xfc, 0x03, 0xf6, 0xff, 0xfe, 0x7f, 0x58, 0x7a, 0x3b, 0x2b, 0xf7, 0xd7, 0x64,
    0x90, 0x33, 0xff, 0x79, 0x2d, 0x62, 0x16, 0x55, 0x14, 0x15, 0x08, 0xcf, 0x2a, 0x4a, 0x02, 0x2c, 0x07, 0x29, 0x1a,
    0x0f, 0x27, 0x00, 0x86, 0x81, 0xbe, 0x00, 0x16, 0xdb, 0xca, 0xe9, 0xa8, 0x03, 0x09, 0xf2, 0x13, 0x0c, 0xfb, 0x0b,
    0xff, 0x08, 0xe8, 0xe3, 0xee, 0x02, 0xff, 0xfe, 0xf5, 0x02, 0x02, 0x07, 0x1a, 0x00, 0x1b, 0x02, 0x08, 0xfe, 0xfc,
    0xf9, 0xff, 0x0a, 0x10, 0x02, 0xe3, 0x04, 0x12, 0x04, 0x07, 0xfa, 0x06, 0x00, 0xe7, 0x31, 0xf6, 0x00, 0x4a, 0xb7,
    0xd7, 0xb9, 0xad, 0xd8, 0x2a, 0x35, 0xfb, 0xe9, 0x7f, 0xef, 0x0d, 0x7a, 0x0c, 0x01, 0x14, 0xf6, 0x17, 0x33, 0x02,
    0xf5, 0x12, 0x01, 0x36, 0xf0, 0x06, 0xed, 0x05, 0xfd, 0x14, 0xf8, 0xf4, 0x0d, 0xf9, 0x01, 0xff, 0xf6, 0xff, 0xff,
    0x05, 0x00, 0xfd, 0x00, 0x26, 0xe8, 0xe1, 0x06, 0x09, 0xfa, 0xfa, 0x01, 0x12, 0xfe, 0x00, 0xfd, 0x04, 0x03, 0x8b,
    0x02, 0xf8, 0x7f, 0x00, 0xff, 0xff, 0x03, 0xfd, 0xff, 0x02, 0x00, 0x00, 0xfc, 0xf6, 0xff, 0xfb, 0x01, 0xfb, 0x00,
    0x09, 0xfe, 0x00, 0x03, 0x04, 0x00, 0x03, 0xfd, 0x00, 0x00, 0x00, 0x00, 0xff, 0x00, 0xf6, 0xfd, 0x00, 0x20, 0xfc,
    0xe0, 0x1b, 0xff, 0xfe, 0x81, 0x68, 0xef, 0x10, 0xfe, 0xfd, 0x00, 0x02, 0xf9, 0x22, 0x1f, 0x1e, 0xf9, 0xfe, 0xfe,
    0x03, 0xf7, 0x0c, 0x00, 0xff, 0xf4, 0x01, 0xf8, 0x01, 0x03, 0xf8, 0xf7, 0xfe, 0xf2, 0xf9, 0x0d, 0xfc, 0xfa, 0xfa,
    0x07, 0xfb, 0xfd, 0xfd, 0x00, 0x07, 0x7f, 0xdb, 0x0b, 0xfb, 0x09, 0xc1, 0x16, 0xd7, 0x0d, 0x0e, 0xea, 0x2c, 0x10,
    0x0b, 0xf3, 0x06, 0x00, 0xf9, 0xf3, 0xfd, 0x13, 0x07, 0xe4, 0x09, 0x00, 0x04, 0xf4, 0x02, 0xfa, 0xf3, 0xfb, 0xff,
    0xf8, 0x07, 0x03, 0xfc, 0x0e, 0x0a, 0xf7, 0x0f, 0x02, 0xec, 0xfa, 0x08, 0xfd, 0x03, 0x00, 0xfa, 0xd9, 0x1c, 0x7f,
    0xda, 0x9c, 0x79, 0xe0, 0xfe, 0x69, 0x95, 0xe8, 0x25, 0x0f, 0x06, 0xf2, 0x20, 0xf3, 0x3d, 0x50, 0x18, 0xf1, 0xe5,
    0x0f, 0x07, 0xef, 0x33, 0xe9, 0x0b, 0xd3, 0xee, 0xda, 0xdf, 0x15, 0xd8, 0xdf, 0xef, 0xfa, 0xfe, 0xff, 0xfb, 0xf1,
    0xee, 0xf8, 0xe3, 0xf7, 0xed, 0x00, 0x09, 0x04, 0x03, 0x02, 0x0a, 0x01, 0xfd, 0x00, 0x03, 0xff, 0x02, 0x01, 0x01,
    0x01, 0x01, 0x6c, 0x81, 0xff, 0xf8, 0xf8, 0xf8, 0x22, 0xfc, 0xfa, 0x46, 0x05, 0x0e, 0x11, 0x02, 0x03, 0x10, 0x15,
    0xf5, 0xfa, 0x06, 0x0b, 0xfe, 0x07, 0x01, 0xf8, 0x00, 0xfc, 0x01, 0xfd, 0x09, 0xf8, 0x01, 0x00, 0x7f, 0xbf, 0x92,
    0xde, 0x07, 0xd6, 0xf5, 0x1b, 0x3e, 0xf8, 0x0a, 0xe8, 0xfc, 0xcc, 0x69, 0xfa, 0x0c, 0x28, 0x0a, 0x03, 0x09, 0xfe,
    0xf9, 0xd6, 0xfc, 0x05, 0x02, 0xf9, 0xfc, 0xfc, 0xf8, 0xff, 0x04, 0xfb, 0x0a, 0x09, 0x13, 0xfd, 0x00, 0xff, 0x05,
    0x08, 0x08, 0x03, 0x04, 0xf2, 0x03, 0x00, 0x06, 0x01, 0xef, 0x02, 0x0d, 0xfb, 0xf9, 0x06, 0x1a, 0xff, 0x05, 0xfd,
    0x05, 0x7f, 0x0e, 0x01, 0xfb, 0x0a, 0xfd, 0xfc, 0xfd, 0x02, 0x03, 0xdf, 0xfe, 0x01, 0xff, 0x01, 0xdd, 0xfe, 0xfd,
    0xfd, 0x00, 0xfe, 0x13, 0x02, 0x02, 0x02, 0x01, 0xfc, 0x01, 0x00, 0x03, 0x00, 0x00, 0xfb, 0x00, 0x00, 0x4f, 0xa8,
    0xff, 0x0e, 0x81, 0xfe, 0xca, 0xc9, 0xdb, 0x17, 0xfc, 0x78, 0x35, 0xfd, 0x10, 0xf9, 0x13, 0x1a, 0xf6, 0x14, 0xec,
    0xea, 0xeb, 0x15, 0xff, 0x03, 0xf8, 0x10, 0xfb, 0x05, 0x14, 0x07, 0xfe, 0x05, 0xf8, 0x00, 0x08, 0xf8, 0x1a, 0x03,
    0xfb, 0xfe, 0x03, 0x0f, 0x06, 0x20, 0xf4, 0x00,
};
const int32_t bias5[16] = {
    9381, 13615, 21929, 4394, -10023, 24067, 13175, 417, 2600, 5037, -12041, -25789, 6304, 3714, -4256, 2876,
};
const float scales5[16] = {
    0.0016555562007706786, 0.001860297701113381,  0.0033460236657361308, 0.0022063787957575564,
    0.005031449509647674,  0.0020072700369992615, 0.002184370683747491,  0.0016570154658432288,
    0.002415467977404137,  0.003651431060813127,  0.002967498488262957,  0.0013559018829574269,
    0.004087930441303428,  0.0019426284215117886, 0.004173584490034453,  0.0012769288039567324,
};
const int32_t shift5[16] = {
    -9, -9, -8, -8, -7, -8, -8, -9, -8, -8, -8, -9, -7, -9, -7, -9,
};
const int32_t multiplier5[16] = {
    1820303293, 2045418953, 1839495964, 1212969571, 1383034310, 1103508373, 1200870483, 1821907772,
    1327917564, 2007395455, 1631399547, 1490829886, 1123681763, 2135942538, 1147226169, 1403998068,
};
const unsigned char weight6[768] = {
    0x06, 0x1f, 0xe0, 0x04, 0x18, 0xb4, 0x7f, 0xe5, 0xe8, 0xe6, 0x01, 0x1a, 0xe7, 0xff, 0xe7, 0xde, 0x20, 0xeb, 0xda,
    0x03, 0x01, 0x0e, 0x1b, 0xf7, 0xfe, 0x81, 0x38, 0xa9, 0x5d, 0x11, 0xff, 0xd0, 0xf7, 0xd6, 0x09, 0x01, 0x7f, 0x08,
    0xef, 0xd8, 0xfd, 0x09, 0x05, 0x04, 0x03, 0xfd, 0x00, 0x0c, 0x08, 0x40, 0xf9, 0x0e, 0x0b, 0xfd, 0xec, 0x0e, 0xfe,
    0xc3, 0xff, 0x81, 0xff, 0xfd, 0xfc, 0x0f, 0xee, 0x9f, 0x49, 0xc1, 0xd5, 0xeb, 0x96, 0xba, 0xfa, 0x76, 0xf7, 0xdf,
    0x7f, 0xf8, 0x38, 0x3e, 0xf6, 0xce, 0x01, 0x15, 0xfa, 0x0d, 0x15, 0x0e, 0xff, 0x7f, 0xf9, 0x17, 0xf5, 0xfc, 0xf5,
    0xfa, 0x81, 0x01, 0xf7, 0xda, 0xfd, 0xfe, 0xfc, 0x0e, 0xfb, 0x10, 0x07, 0x0a, 0xf4, 0xc3, 0xff, 0xe1, 0x27, 0x26,
    0xf0, 0x20, 0x81, 0xee, 0x09, 0x2e, 0x09, 0xe8, 0x02, 0x09, 0xea, 0x02, 0x08, 0xe2, 0x03, 0x28, 0x1c, 0xfb, 0x04,
    0xf0, 0xe1, 0x24, 0xfb, 0x1e, 0xf1, 0x2c, 0x81, 0xf6, 0xfc, 0x3f, 0xfc, 0x02, 0xc8, 0x77, 0x09, 0x12, 0xfc, 0x0b,
    0xea, 0xf8, 0xde, 0xe8, 0x0f, 0x81, 0x47, 0x30, 0x7f, 0x21, 0x4c, 0xc3, 0x18, 0xf7, 0x33, 0x13, 0xd5, 0xf0, 0x2d,
    0x0f, 0xd5, 0xb9, 0xe0, 0x03, 0xec, 0x7f, 0xdd, 0x03, 0x9d, 0xc3, 0x08, 0x19, 0x10, 0x15, 0x23, 0x55, 0xc1, 0xff,
    0x18, 0xd3, 0x0a, 0x1e, 0xf2, 0xe3, 0xf5, 0x01, 0x0d, 0xf2, 0xf9, 0x0a, 0x37, 0x10, 0x0d, 0xea, 0x00, 0x7f, 0x00,
    0x0a, 0x04, 0xcf, 0xf5, 0xef, 0xec, 0xe1, 0x1c, 0x08, 0x0b, 0xf0, 0x08, 0x39, 0x81, 0xf4, 0x7f, 0x15, 0x03, 0x30,
    0x03, 0xe8, 0x01, 0xf7, 0x04, 0x09, 0xfc, 0x1a, 0xf3, 0x3d, 0x03, 0x00, 0xf4, 0x45, 0xfd, 0x16, 0x0f, 0x08, 0xec,
    0xf5, 0xfd, 0xf4, 0x0c, 0x81, 0x01, 0x03, 0x01, 0x0b, 0xc8, 0xe9, 0x2e, 0x04, 0xf9, 0xfc, 0x08, 0x0e, 0x7f, 0x04,
    0x02, 0x03, 0x02, 0x36, 0xed, 0x13, 0x51, 0xf9, 0xfe, 0xde, 0x02, 0x04, 0xb4, 0x3b, 0x20, 0xfe, 0x31, 0x0a, 0x12,
    0x81, 0xf5, 0xd3, 0x7f, 0x08, 0x09, 0x44, 0x00, 0xf8, 0x01, 0xcb, 0x1d, 0x03, 0x0e, 0x03, 0x03, 0x34, 0x02, 0x13,
    0x04, 0xf4, 0x0a, 0xfb, 0xf5, 0xf7, 0x06, 0xe7, 0xfc, 0x81, 0x08, 0x5d, 0x0a, 0xf1, 0xfd, 0x08, 0x08, 0x36, 0xbf,
    0x06, 0x23, 0x2a, 0x6f, 0x0a, 0x18, 0xb4, 0xc1, 0x06, 0x81, 0xd4, 0xfd, 0x13, 0x10, 0x10, 0x1e, 0x81, 0x0c, 0x10,
    0xca, 0x41, 0xc7, 0xe2, 0x21, 0x09, 0xe7, 0x70, 0xc1, 0x00, 0xee, 0xe4, 0x25, 0xec, 0xf8, 0xe4, 0xe2, 0x0f, 0x11,
    0x44, 0xe3, 0x7f, 0xef, 0x0c, 0xfa, 0xe0, 0x7a, 0x06, 0xe9, 0x17, 0x0b, 0xe0, 0x01, 0xe2, 0x12, 0xfc, 0x34, 0x15,
    0xfb, 0x1d, 0x0a, 0x7f, 0xf4, 0xf6, 0xd6, 0x14, 0xfc, 0xeb, 0x57, 0x0b, 0x1c, 0xf5, 0x10, 0x03, 0xe8, 0x17, 0x28,
    0x7f, 0xfc, 0x64, 0x0c, 0x18, 0x29, 0xc6, 0xe5, 0xd5, 0x10, 0x31, 0x26, 0x7f, 0xee, 0x0c, 0x0c, 0xe0, 0x4d, 0x0d,
    0xec, 0xf4, 0xfb, 0x0d, 0xb7, 0xdd, 0x7f, 0x10, 0x30, 0x13, 0x0d, 0x86, 0x31, 0xd2, 0xbf, 0x03, 0x0b, 0x5c, 0x07,
    0xf9, 0x48, 0xce, 0x05, 0xef, 0xd0, 0x0e, 0xed, 0x1f, 0x05, 0x81, 0x81, 0x12, 0xdf, 0xac, 0xe7, 0xe9, 0x0a, 0xfa,
    0x03, 0x09, 0x30, 0x1e, 0xe9, 0xb5, 0xff, 0x4b, 0x24, 0xe5, 0xe6, 0x50, 0x1d, 0x0e, 0xe3, 0x3b, 0x7f, 0xfe, 0xff,
    0x18, 0x05, 0xa9, 0x21, 0xe5, 0xf0, 0xe7, 0xd1, 0x06, 0xfb, 0x10, 0xf9, 0xfa, 0x81, 0xfe, 0xfe, 0xf4, 0x15, 0x26,
    0x06, 0x00, 0x8d, 0xff, 0x08, 0x7f, 0xeb, 0xff, 0xca, 0x03, 0x18, 0xec, 0x02, 0xd2, 0x12, 0x3a, 0x16, 0x4e, 0xc8,
    0xf0, 0x3d, 0x1e, 0xe2, 0x09, 0x0f, 0xdf, 0x2a, 0x14, 0xe6, 0xfb, 0x16, 0x7f, 0xd8, 0x03, 0xd6, 0xf2, 0xfa, 0xc7,
    0xe9, 0xec, 0x0d, 0x2f, 0x30, 0x08, 0x32, 0x16, 0x02, 0xb3, 0x17, 0x7f, 0x01, 0xe2, 0xea, 0xf7, 0x0f, 0x0a, 0x00,
    0x52, 0x81, 0xf6, 0xf3, 0x0a, 0x0b, 0x1b, 0x30, 0xfa, 0x7f, 0x17, 0xfc, 0x96, 0x10, 0x02, 0xf6, 0x19, 0xda, 0xd7,
    0x1a, 0xfb, 0xe4, 0x8f, 0xfa, 0xa2, 0x00, 0x15, 0xfa, 0x01, 0xfe, 0xf4, 0x05, 0xe7, 0x07, 0x07, 0x0f, 0xf4, 0xfe,
    0xdf, 0x81, 0x1f, 0x04, 0xd7, 0x10, 0x81, 0x04, 0x12, 0x16, 0x08, 0xcc, 0xf7, 0xd6, 0xef, 0x0e, 0x56, 0xb3, 0x16,
    0x0f, 0xdf, 0x09, 0xd6, 0x0b, 0x0b, 0x06, 0x40, 0x7f, 0xf7, 0xe9, 0xfb, 0x03, 0x1a, 0xf7, 0x00, 0xf0, 0xfe, 0xf9,
    0x7f, 0x03, 0x10, 0xe0, 0x0e, 0xce, 0xfe, 0x0d, 0xf9, 0x04, 0xc1, 0x4e, 0x24, 0x05, 0xd2, 0xde, 0x07, 0xfc, 0x17,
    0x34, 0x0a, 0xf7, 0xfe, 0xee, 0x28, 0x7f, 0xfa, 0xeb, 0xfe, 0x03, 0xf8, 0x0a, 0x1e, 0xfe, 0x01, 0x14, 0xf2, 0xf5,
    0xff, 0xf9, 0xfa, 0xfa, 0xd4, 0x7f, 0xfd, 0x11, 0xfe, 0x1b, 0x00, 0xfe, 0x7f, 0x0f, 0xf7, 0xff, 0xf3, 0xec, 0x1a,
    0x07, 0xf6, 0xfe, 0x18, 0x81, 0xe8, 0xfe, 0xb8, 0xe0, 0x07, 0xf2, 0x30, 0x0f, 0xff, 0x05, 0x04, 0x00, 0x8a, 0x1a,
    0x8e, 0xef, 0xd5, 0xf5, 0x12, 0x7f, 0xdf, 0xf4, 0xef, 0xfb, 0xf1, 0x23, 0x0d, 0xf2, 0xf0, 0x13, 0xe6, 0x00, 0xee,
    0x01, 0x06, 0xfd, 0xf8, 0xdc, 0x00, 0x10, 0x1e, 0x07, 0x16, 0x81, 0xf7, 0x0a, 0xf5, 0x06, 0x05, 0x05, 0xff, 0xfc,
    0xfa, 0xf3, 0xf9, 0x81, 0xff, 0x1b, 0x01, 0x06, 0x01, 0x23, 0x08, 0xfc, 0xf0, 0x1c, 0xf0, 0x08, 0x08, 0x07, 0x28,
    0x12, 0xf0, 0x13, 0x0f, 0x00, 0x18, 0x7f, 0xeb,
};
const int32_t bias6[48] = {
    9860, 3011, 6776, -633, 9424, 1488, 737,  1356, -940, 3742, 3192, 2658, 602, -80,  102,  4809,
    3200, 4534, 1478, -849, -195, 7829, 3645, 1449, 4580, 125,  4051, 7292, 803, 1651, 1994, 5204,
    6785, 1625, 1662, 9258, 3985, 2149, 1502, 2809, -584, 1390, 1584, 1955, 197, 86,   5265, 1422,
};
const float scales6[48] = {
    0.004573579805247662,  0.013307426245439395, 0.00505808975213179,   0.013450380986621747, 0.0022333502988631645,
    0.011039158484492138,  0.013249320241284394, 0.009266186595755871,  0.007977659136783695, 0.005688496384809019,
    0.005569199197908598,  0.00448342960360383,  0.013982892390382395,  0.011625226745066207, 0.013746107192778977,
    0.007407378694769634,  0.006466023743818517, 0.0046718215971371276, 0.008926403967032741, 0.012976188856537877,
    0.004936830666367926,  0.003908662368472774, 0.006603041278398925,  0.00825716149665102,  0.005143654659057471,
    0.010328434188440854,  0.004261343736683398, 0.0035983893283774706, 0.009025944805267761, 0.02308028790755111,
    0.008839480370590163,  0.004068926280926606, 0.0043543025894868725, 0.008041603845939483, 0.010488409825566524,
    0.0023435561946346358, 0.00876289221279392,  0.01255018298679325,   0.03125517255301787,  0.007008466187450102,
    0.008323632003744771,  0.010085486766816334, 0.01148567437570369,   0.005638456667736048, 0.007652328229214034,
    0.006580621771764585,  0.007109456987327864, 0.006645278132396632,
};
const int32_t shift6[48] = {
    -7, -6, -7, -6, -8, -6, -6, -6, -6, -7, -7, -7, -6, -6, -6, -7, -7, -7, -6, -6, -7, -7, -7, -6,
    -7, -6, -7, -8, -6, -5, -6, -7, -7, -6, -6, -8, -6, -6, -4, -7, -6, -6, -6, -7, -7, -7, -7, -7,
};
const int32_t multiplier6[48] = {
    1257176044, 1828958737, 1390357124, 1848606287, 1227797311, 1517210389, 1820972708, 1273534988,
    1096441123, 1563641980, 1530849819, 1232395745, 1921794097, 1597758998, 1889250587, 2036124752,
    1777367073, 1284180542, 1226835619, 1783433816, 1357025681, 1074404931, 1815030166, 1134855635,
    1413877027, 1419529186, 1171349247, 1978235454, 1240516408, 1586065308, 1214888931, 1118457940,
    1196901582, 1105229617, 1441516070, 1288383643, 1204362735, 1724884016, 1073919552, 1926472516,
    1143991272, 1386138746, 1578579066, 1549887167, 2103455967, 1808867539, 1954232656, 1826640144,
};
const unsigned char CHWweight7[432] = {
    0x02, 0x9b, 0x05, 0x81, 0x62, 0xac, 0xec, 0xa2, 0xe0, 0x08, 0x7f, 0x0b, 0xba, 0xda, 0xb3, 0xeb, 0x36, 0xff, 0x02,
    0xf8, 0x0c, 0xfb, 0x81, 0xec, 0x08, 0xf0, 0x03, 0xf1, 0xda, 0xf1, 0xfb, 0x7f, 0x0b, 0xea, 0xf8, 0xed, 0xec, 0x2d,
    0xf9, 0x3f, 0x81, 0x37, 0xfb, 0x24, 0x08, 0x78, 0x19, 0x7a, 0x7f, 0xbc, 0x3b, 0x52, 0xa2, 0x66, 0x0a, 0x0f, 0xff,
    0x1a, 0x7f, 0x0f, 0x10, 0x04, 0x07, 0x74, 0xfb, 0x81, 0x09, 0xfa, 0x04, 0xab, 0xe8, 0x5c, 0xec, 0x08, 0xf1, 0xcd,
    0x7f, 0xe7, 0xe6, 0x0c, 0xe2, 0x07, 0xe3, 0xf9, 0x09, 0x7f, 0xbe, 0xf4, 0xdd, 0xec, 0xf8, 0xd7, 0x03, 0xfb, 0x7f,
    0xd7, 0xfa, 0xbe, 0x06, 0x09, 0xf4, 0xdb, 0x16, 0x7f, 0x12, 0xde, 0x10, 0x03, 0x03, 0xf2, 0xfb, 0x11, 0x7f, 0x13,
    0x02, 0x28, 0x03, 0x03, 0xf3, 0x03, 0x0a, 0x7f, 0x0f, 0xf8, 0xfe, 0xfa, 0xf3, 0x1f, 0x12, 0xed, 0x7f, 0x36, 0x06,
    0x15, 0x1e, 0xd9, 0xde, 0xd9, 0x45, 0x7f, 0x42, 0xe5, 0xfe, 0xe5, 0xd3, 0x81, 0xe2, 0x07, 0x09, 0x08, 0x27, 0x78,
    0x0d, 0xe8, 0xa5, 0xe5, 0xf1, 0xe0, 0xf4, 0x25, 0x7f, 0x22, 0xf6, 0x1b, 0xfb, 0xc8, 0x7f, 0xc1, 0xf6, 0x24, 0xf6,
    0xef, 0xe4, 0xf1, 0x01, 0x7f, 0x0a, 0xee, 0x26, 0xf0, 0x01, 0xbe, 0xfe, 0xc5, 0x7f, 0xc8, 0xf3, 0xe6, 0xf6, 0x2c,
    0x7f, 0x0f, 0xf4, 0xd2, 0x08, 0xea, 0x9a, 0xff, 0x29, 0xf1, 0x2b, 0x00, 0x81, 0xfe, 0x09, 0x88, 0x11, 0xf9, 0x92,
    0x14, 0xad, 0x7f, 0x41, 0x05, 0x3e, 0xda, 0xfe, 0x11, 0x03, 0xe3, 0x81, 0xd5, 0x2a, 0x6c, 0x22, 0xeb, 0xf7, 0xfb,
    0x06, 0x7f, 0x13, 0xfc, 0x14, 0xe1, 0x19, 0xf0, 0xf6, 0x7f, 0xfc, 0x88, 0x28, 0xeb, 0xd9, 0xfe, 0x33, 0xf4, 0xe2,
    0x81, 0xe8, 0x1b, 0x4d, 0x1e, 0x05, 0xc3, 0x13, 0x35, 0x62, 0x81, 0xf8, 0x39, 0xfe, 0xff, 0x0a, 0xd5, 0x2c, 0x7f,
    0xae, 0xfe, 0xf4, 0xe5, 0xd5, 0x81, 0xf4, 0x01, 0x14, 0xff, 0x24, 0x6e, 0x12, 0x26, 0xf5, 0xd3, 0x7f, 0xee, 0x8e,
    0x14, 0x03, 0xe6, 0xef, 0xe2, 0x05, 0xc4, 0x7f, 0xc3, 0xe6, 0xac, 0xf8, 0xf9, 0x61, 0xf4, 0xbe, 0x0d, 0x49, 0x07,
    0x81, 0x0a, 0xf4, 0xe0, 0x00, 0x06, 0x7f, 0xdd, 0xeb, 0xd8, 0xfd, 0x12, 0xdf, 0x03, 0x46, 0x81, 0x5a, 0x06, 0xc4,
    0x12, 0xf0, 0xa7, 0xec, 0xcf, 0x7f, 0xc5, 0xf2, 0xe9, 0xf1, 0xfe, 0xe5, 0x06, 0x02, 0x7f, 0xd6, 0xf2, 0xe4, 0xf3,
    0xee, 0x02, 0xeb, 0x0e, 0x7f, 0xd6, 0xea, 0xe0, 0xf1, 0x2c, 0x70, 0x07, 0xf6, 0x06, 0xf3, 0xdb, 0x81, 0xfb, 0x30,
    0x38, 0x2f, 0x2e, 0x7f, 0xee, 0x23, 0xf1, 0x28, 0xf0, 0xd7, 0xec, 0xd9, 0x7f, 0xc3, 0xe1, 0xe1, 0xea, 0xff, 0xc0,
    0x06, 0xe4, 0xc3, 0x81, 0xe6, 0xa1, 0xf8, 0xfc, 0xd3, 0x05, 0x81, 0x2b, 0x56, 0xc4, 0x2a, 0x27, 0x81, 0xd9, 0x71,
    0x07, 0x24, 0x28, 0x54, 0x27, 0x8b, 0xed, 0x81, 0xf9, 0x67, 0x13, 0x72, 0xf9, 0xad, 0xe8, 0xe4, 0xc1, 0x17, 0xeb,
    0x5f, 0x81, 0xdf, 0x85, 0x18, 0xf4, 0xf9, 0xe1, 0xff, 0x7f, 0xfe, 0xf1, 0x00, 0xe9,
};
const int32_t offsetBias7[48] = {
    -27734, 11891, -14324, 4125,  7799,  64127,  24755,  7555,  -96,    -745,  -1340,  12254,
    22539,  16409, 29627,  5624,  -848,  -698,   4042,   11950, -9824,  1048,  -17016, 4575,
    220,    12708, -2411,  -971,  4103,  13587,  -12,    -3272, -16059, -1187, -930,   -1589,
    -12027, 2536,  3127,   -2754, 47147, -16215, -44372, -124,  9972,   -1333, -23958, 2868,
};
const int32_t offsetRBias7[48] = {
    0, 0, 0, 0, 0, 0, 0, 0, 0, 0, 0, 0, 0, 0, 0, 0, 0, 0, 0, 0, 0, 0, 0, 0,
    0, 0, 0, 0, 0, 0, 0, 0, 0, 0, 0, 0, 0, 0, 0, 0, 0, 0, 0, 0, 0, 0, 0, 0,
};
const float scales7[48] = {
    0.004824294243007898,  0.004054252989590168,  0.03290564566850662,   0.021258864551782608, 0.017679430544376373,
    0.0019583296962082386, 0.01882106252014637,   0.0060463217087090015, 0.02073359116911888,  0.013449311256408691,
    0.01464189775288105,   0.02763357013463974,   0.01669353060424328,   0.015393741428852081, 0.014976502396166325,
    0.015365122817456722,  0.011291668750345707,  0.014775941148400307,  0.013702673837542534, 0.0172490905970335,
    0.014367273077368736,  0.01639217510819435,   0.013224241323769093,  0.012175836600363255, 0.017217203974723816,
    0.017378047108650208,  0.012110511772334576,  0.02716531604528427,   0.012647931464016438, 0.0024714337196201086,
    0.013293509371578693,  0.010608757846057415,  0.012002447620034218,  0.011984873563051224, 0.02464531920850277,
    0.01991843990981579,   0.0065911151468753815, 0.009263146668672562,  0.006933668628334999, 0.010871141217648983,
    0.004598848056048155,  0.018752561882138252,  0.006354580167680979,  0.008340058848261833, 0.008370127528905869,
    0.014002764597535133,  0.00952217448502779,   0.028417736291885376,
};
const int32_t shift7[48] = {
    -7, -7, -4, -5, -5, -8, -5, -7, -5, -6, -6, -5, -5, -6, -6, -6, -6, -6, -6, -5, -6, -5, -6, -6,
    -5, -5, -6, -5, -6, -8, -6, -6, -6, -6, -5, -5, -7, -6, -7, -6, -7, -5, -7, -6, -6, -6, -6, -5,
};
const int32_t multiplier7[48] = {
    1326091904, 1114424576, 1130629376, 1460898048, 1214921216, 1076603136, 1293373568, 1662000256,
    1424801536, 1848459264, 2012367104, 1898964480, 1147170688, 2115699712, 2058354816, 2111766400,
    1551915136, 2030789888, 1883281152, 1185348480, 1974622976, 1126461696, 1817525888, 1673434240,
    1183157248, 1194210304, 1664456064, 1866786304, 1738318464, 1358685056, 1827046016, 1458056576,
    1649603840, 1647188480, 1693613440, 1368784768, 1811751936, 1273117184, 1905912320, 1494118272,
    1264121728, 1288666240, 1746733696, 1146248960, 1150381568, 1924525312, 1308717696, 1952851968,
};
const unsigned char weight8[768] = {
    0x3c, 0x3c, 0x40, 0x54, 0x07, 0x29, 0x7f, 0x14, 0x5d, 0x01, 0xd5, 0x4d, 0x63, 0x11, 0x3d, 0xf0, 0xe5, 0x1f, 0xc6,
    0x25, 0x08, 0xca, 0x35, 0xc5, 0xd5, 0x0c, 0xdb, 0xd8, 0x11, 0x2c, 0xe9, 0xb5, 0xc3, 0x07, 0xe8, 0x08, 0x10, 0xdf,
    0xef, 0xf7, 0x11, 0xed, 0x18, 0x08, 0x25, 0x1f, 0x15, 0xef, 0xd4, 0xe4, 0xb0, 0x2c, 0xf6, 0x28, 0xf1, 0xd9, 0xf1,
    0x00, 0x20, 0x49, 0xdd, 0x3c, 0x05, 0xf5, 0xe4, 0xf6, 0xe0, 0xaa, 0x05, 0x1c, 0x3c, 0x81, 0xff, 0x3e, 0xe0, 0xea,
    0xcd, 0x10, 0x0b, 0x11, 0xd7, 0xd0, 0xfe, 0xdc, 0x0f, 0x07, 0xf5, 0xf8, 0x0a, 0xfe, 0xf4, 0xd9, 0xe5, 0x0b, 0xf8,
    0x58, 0x81, 0xd8, 0xfe, 0xc8, 0x9b, 0xc6, 0x5d, 0xcd, 0xe5, 0xdb, 0x4d, 0xf7, 0x61, 0xe6, 0x49, 0xee, 0x4a, 0x39,
    0xdd, 0xe1, 0xd1, 0xdb, 0x11, 0xd3, 0xe6, 0x0c, 0xae, 0x46, 0xb6, 0x2d, 0x20, 0xf3, 0xd9, 0x2a, 0x4c, 0xa4, 0xfb,
    0xcc, 0x4e, 0x15, 0xf9, 0x16, 0x36, 0x21, 0xdb, 0xd7, 0x03, 0x6a, 0xd1, 0x3a, 0x1b, 0x17, 0xe5, 0x1f, 0x38, 0x44,
    0x42, 0x7f, 0xbb, 0x21, 0x48, 0xd1, 0x14, 0x0b, 0x2a, 0x21, 0xad, 0x23, 0x0c, 0x11, 0x00, 0xf3, 0x0a, 0xef, 0xdb,
    0x08, 0x1b, 0x61, 0xe7, 0x0e, 0xfb, 0xe2, 0xc4, 0xd2, 0x07, 0x8c, 0x96, 0x0d, 0x1b, 0x22, 0x04, 0xa5, 0x30, 0x22,
    0xf8, 0xdc, 0x08, 0x3a, 0x7f, 0x46, 0x26, 0x3c, 0x50, 0x61, 0x3a, 0xdb, 0xf1, 0x9b, 0x31, 0x3d, 0x29, 0xe3, 0x06,
    0x24, 0xcb, 0x1b, 0x15, 0xea, 0x3d, 0x43, 0xc6, 0x7f, 0x06, 0xea, 0xb7, 0xef, 0x14, 0x04, 0xfd, 0xa1, 0xe2, 0x00,
    0x04, 0x0b, 0xf1, 0x19, 0x27, 0xbf, 0x20, 0xfc, 0x18, 0x2c, 0xfc, 0x20, 0x35, 0x0f, 0x81, 0x1a, 0xea, 0xd3, 0x17,
    0x09, 0xfb, 0xf8, 0xeb, 0xd9, 0x30, 0x05, 0x17, 0x14, 0xfc, 0xce, 0x2b, 0xe7, 0x04, 0xc8, 0x3b, 0x13, 0x26, 0x2c,
    0xf4, 0x1b, 0x08, 0x01, 0xf0, 0xf1, 0xed, 0xe2, 0x01, 0x2f, 0x11, 0x02, 0xf3, 0xe9, 0xdc, 0x09, 0xb0, 0x05, 0xe0,
    0x04, 0xf8, 0xf5, 0x68, 0x31, 0xf6, 0xdf, 0x4d, 0x01, 0x09, 0x45, 0xef, 0x14, 0x27, 0x0c, 0x11, 0x01, 0x08, 0x1b,
    0xd3, 0xd6, 0xf6, 0xf6, 0x7f, 0xd9, 0x48, 0xff, 0xd7, 0x09, 0xf8, 0xd0, 0xfc, 0xfd, 0xed, 0x11, 0xf8, 0xff, 0x10,
    0xf8, 0x2c, 0x04, 0x0c, 0xf4, 0xe4, 0xe7, 0xfc, 0xed, 0x2e, 0x1a, 0xea, 0x13, 0xe9, 0xdd, 0xeb, 0x45, 0x77, 0x0b,
    0xf8, 0xfa, 0x36, 0xc9, 0x42, 0x14, 0x10, 0x3b, 0xfc, 0xdc, 0x3b, 0x18, 0x0f, 0x15, 0x03, 0x17, 0x03, 0x13, 0x0a,
    0x26, 0x7f, 0xff, 0x0f, 0xb9, 0x25, 0x6d, 0xd9, 0x2f, 0x0c, 0x26, 0xd7, 0x17, 0xec, 0x1b, 0x14, 0xbf, 0xfa, 0x08,
    0x00, 0xfe, 0xcd, 0x36, 0xf3, 0x08, 0x09, 0xfc, 0x09, 0x03, 0xfc, 0xfb, 0xfa, 0xef, 0xf3, 0x07, 0x01, 0x11, 0x06,
    0xe9, 0x04, 0x15, 0xf7, 0xf8, 0x09, 0x20, 0xf4, 0x06, 0x05, 0x01, 0x0c, 0xf0, 0x07, 0x3e, 0xe7, 0xfb, 0x11, 0x13,
    0x8d, 0xf9, 0xfb, 0xe1, 0x7f, 0x0c, 0x06, 0x06, 0xfa, 0x03, 0x00, 0x07, 0x8c, 0xff, 0xf7, 0xf4, 0xf3, 0xe0, 0x01,
    0x81, 0x08, 0xf7, 0x0f, 0xfc, 0xf5, 0x0b, 0xe0, 0x08, 0x03, 0xa7, 0xec, 0x04, 0xdb, 0x9d, 0xf5, 0x05, 0xf8, 0xf3,
    0xe6, 0x2d, 0xf6, 0x0d, 0xe8, 0xff, 0xf0, 0xf9, 0x0b, 0xe3, 0xfb, 0xe5, 0x01, 0x05, 0xfa, 0xf2, 0xfc, 0x02, 0x1e,
    0xf6, 0xf3, 0xe2, 0xfb, 0xfa, 0x14, 0x49, 0x39, 0x3a, 0xdb, 0x4b, 0x97, 0x50, 0x0a, 0xfe, 0x3d, 0x06, 0x81, 0xf6,
    0x8d, 0x2a, 0xc5, 0x9a, 0x1e, 0x0a, 0xea, 0xa8, 0x20, 0xc3, 0x06, 0xf3, 0x0f, 0xee, 0xce, 0xf4, 0xc8, 0xc9, 0xb9,
    0x0c, 0x06, 0xf9, 0x02, 0xfc, 0xfb, 0xcb, 0x0a, 0x02, 0xe4, 0x21, 0x3a, 0x4f, 0xde, 0x0c, 0x7d, 0x21, 0x0d, 0xfe,
    0x2a, 0xf9, 0x9a, 0xec, 0x4f, 0x04, 0x17, 0x27, 0x0a, 0x1e, 0x95, 0xeb, 0x53, 0x55, 0xb3, 0x3f, 0x38, 0x3c, 0xf1,
    0xf9, 0x76, 0x27, 0xab, 0x74, 0xca, 0xfd, 0x61, 0x9a, 0xe8, 0x12, 0xfa, 0x81, 0xcc, 0x19, 0x03, 0x57, 0x03, 0xdb,
    0xf5, 0xc6, 0xf5, 0xff, 0x04, 0x06, 0xe4, 0xe3, 0xeb, 0x19, 0xe5, 0xeb, 0xef, 0xef, 0xd5, 0xf4, 0xf4, 0xe4, 0x10,
    0xf5, 0xf3, 0x0b, 0x0f, 0x0d, 0xf5, 0x01, 0xec, 0xfe, 0x02, 0xe2, 0xdb, 0x0f, 0xdb, 0xdd, 0xe7, 0x0a, 0x13, 0xeb,
    0xff, 0xec, 0xf6, 0xed, 0xff, 0xf4, 0xf8, 0xf7, 0x81, 0xfd, 0x0e, 0xfd, 0xe8, 0xf6, 0x10, 0xff, 0x16, 0x6c, 0x49,
    0x21, 0xcd, 0x23, 0x29, 0x49, 0x13, 0x81, 0x95, 0x4a, 0x30, 0x56, 0x10, 0xe3, 0x02, 0x07, 0xb8, 0x20, 0xde, 0xaf,
    0x31, 0xf8, 0xd9, 0x25, 0xde, 0xe4, 0x3a, 0x9f, 0x09, 0xfd, 0x5b, 0xee, 0x23, 0xe6, 0x00, 0x3f, 0x1a, 0xf1, 0x0c,
    0xaf, 0xfa, 0xa9, 0x48, 0x32, 0x0b, 0x5a, 0x0f, 0x03, 0xf5, 0x21, 0xf3, 0x07, 0xfd, 0xfb, 0x00, 0x4a, 0xeb, 0xff,
    0xfc, 0xa2, 0xfd, 0x00, 0x03, 0xf3, 0xfc, 0xfc, 0x06, 0xf9, 0xe9, 0x08, 0xfa, 0x0a, 0xff, 0xf3, 0x0d, 0x22, 0xf4,
    0x02, 0xe7, 0xe4, 0x02, 0xfd, 0x81, 0xe2, 0xe5, 0x15, 0x09, 0x46, 0x14, 0xf2, 0xfc, 0x01, 0xf6, 0xf0, 0x47, 0x8f,
    0x07, 0x40, 0x2e, 0xcf, 0xfa, 0x81, 0x2d, 0x11, 0xf2, 0x00, 0xd2, 0x29, 0xe2, 0x4f, 0x93, 0x82, 0xeb, 0x27, 0x19,
    0x9c, 0xf4, 0xe3, 0xf0, 0x18, 0xbc, 0xd1, 0xeb, 0x2f, 0x86, 0xdb, 0x17, 0xc4, 0x09, 0xfb, 0x28, 0x09, 0x13, 0x86,
    0xff, 0x0a, 0x16, 0xd2, 0x8c, 0xa3, 0x00, 0x21,
};
const int32_t bias8[16] = {
    -20288, 7460, 15854, -13168, -23753, 3240, -18051, -12183, -2916, 12870, -12164, -12709, 12391, -9550, 2120, 17015,
};
const float scales8[16] = {
    0.002605510740318818,  0.0012281679011148616, 0.0018845419667963123, 0.0014946515905307144,
    0.0017388199810472742, 0.002684388885704744,  0.002893123845147278,  0.003379679506768458,
    0.0024805417851074367, 0.00237550635084636,   0.00234904845462003,   0.002695582824941004,
    0.0022538992759051817, 0.001794475304785919,  0.002903268022356985,  0.003043166957288532,
};
const int32_t shift8[16] = {
    -8, -9, -9, -9, -9, -8, -8, -8, -8, -8, -8, -8, -8, -9, -8, -8,
};
const int32_t multiplier8[16] = {
    1432394678, 1350384888, 2072075806, 1643386803, 1911852788, 1475758397, 1590511654, 1857998458,
    1363692268, 1305948427, 1291403045, 1481912330, 1239094231, 1973046463, 1596088475, 1672998727,
};
const unsigned char weight9[768] = {
    0xc6, 0x1e, 0x11, 0xf6, 0x03, 0xe3, 0xef, 0x7f, 0x1a, 0xfc, 0xf7, 0x2e, 0x1e, 0x1e, 0x34, 0xd0, 0x33, 0x7f, 0x05,
    0x25, 0x4f, 0xf8, 0xfa, 0xc4, 0x00, 0x9e, 0xcd, 0x1b, 0x83, 0x05, 0xeb, 0x14, 0x30, 0xc0, 0x0c, 0xf1, 0x81, 0xf6,
    0xb3, 0x0b, 0x03, 0x21, 0x03, 0xef, 0xfc, 0x1b, 0x12, 0xd3, 0xff, 0xdd, 0x1a, 0x23, 0xd5, 0x00, 0x0b, 0xfc, 0x1a,
    0x03, 0x0a, 0x04, 0x0b, 0xd9, 0x7f, 0xea, 0xcf, 0xa4, 0x25, 0xf2, 0xc4, 0xfd, 0x2c, 0xdd, 0x7f, 0x09, 0x0b, 0xa6,
    0x26, 0xb1, 0xfb, 0xe3, 0x2a, 0x81, 0x48, 0x03, 0x16, 0x27, 0x1a, 0x2f, 0x1a, 0xc2, 0xda, 0x12, 0x84, 0x5c, 0xed,
    0xfb, 0x1d, 0xe8, 0x03, 0xea, 0x10, 0xff, 0x33, 0xf4, 0x7f, 0xf3, 0xef, 0x05, 0xfd, 0xef, 0xd3, 0x03, 0x0f, 0x13,
    0xfd, 0x7f, 0x05, 0xfa, 0xeb, 0xaf, 0x27, 0x18, 0xdf, 0x15, 0xf5, 0x99, 0xf3, 0xfa, 0xff, 0x8a, 0x2e, 0x31, 0x03,
    0xd6, 0x7f, 0xdf, 0xff, 0xdc, 0xfc, 0x30, 0x0b, 0x3e, 0x00, 0x01, 0xe6, 0x3b, 0x81, 0xe5, 0x44, 0x8a, 0x59, 0x56,
    0xce, 0x50, 0xa6, 0x35, 0xc1, 0x12, 0x05, 0xf6, 0x95, 0x0f, 0xf2, 0xff, 0xf7, 0xfb, 0xbc, 0x4d, 0x27, 0xd3, 0xed,
    0xc9, 0x1f, 0x13, 0x24, 0x81, 0xb6, 0x3c, 0x06, 0x1d, 0x0d, 0xc9, 0xf8, 0xda, 0x2c, 0x03, 0xe4, 0x52, 0x1b, 0x21,
    0x15, 0x81, 0x01, 0x90, 0xe8, 0xf8, 0xfe, 0xcf, 0x0c, 0x81, 0x2d, 0xb9, 0x4f, 0xbd, 0xf7, 0x0e, 0x19, 0xe0, 0xfa,
    0xf5, 0xd4, 0xed, 0x19, 0xfb, 0x15, 0x16, 0x1b, 0x81, 0x22, 0xea, 0xdc, 0x14, 0x16, 0xec, 0x45, 0x8c, 0x02, 0xdf,
    0xe8, 0xf5, 0xed, 0xf7, 0xdb, 0x7f, 0xcf, 0xfd, 0x0f, 0x09, 0xb8, 0xd9, 0x18, 0xfe, 0x1b, 0xc3, 0xf8, 0x17, 0x36,
    0x95, 0x10, 0xc3, 0x56, 0xa7, 0x7f, 0xcc, 0xc1, 0x1f, 0xe5, 0x26, 0x12, 0xe4, 0xde, 0x44, 0xf3, 0xd4, 0x16, 0xdd,
    0x0b, 0x81, 0x0f, 0xef, 0x16, 0xe3, 0xec, 0xd0, 0x20, 0x7a, 0xf5, 0xdc, 0x29, 0xcb, 0xf7, 0x0d, 0xef, 0xfa, 0x00,
    0x92, 0x7f, 0xf5, 0x49, 0x13, 0xb4, 0x81, 0xdd, 0x11, 0xe9, 0xe5, 0x31, 0x0b, 0x25, 0x19, 0x21, 0x0e, 0xd2, 0xcf,
    0xff, 0x5c, 0x33, 0xe9, 0x37, 0xdf, 0x7f, 0xd5, 0xa7, 0x12, 0xc1, 0xf5, 0x66, 0xb4, 0xd8, 0x32, 0xad, 0xeb, 0x00,
    0xb9, 0x9b, 0x1f, 0xcc, 0x14, 0xe2, 0x42, 0xfd, 0x7f, 0x03, 0xc2, 0x0c, 0xd3, 0x20, 0xe1, 0xf6, 0xda, 0x2d, 0xfd,
    0x26, 0xe8, 0x7f, 0xe5, 0x02, 0xf6, 0x10, 0x0a, 0xc7, 0x02, 0x3c, 0x30, 0x3d, 0xf1, 0xdf, 0x7f, 0xbe, 0x0b, 0xda,
    0x03, 0x72, 0x04, 0xda, 0xf0, 0xb0, 0xdc, 0x5d, 0xf6, 0x2f, 0x81, 0xec, 0x10, 0xb7, 0x22, 0xea, 0xf1, 0x45, 0x18,
    0xe6, 0xa6, 0xdd, 0xd1, 0x18, 0x3c, 0xef, 0xf0, 0x81, 0xd5, 0x26, 0xd9, 0x06, 0xa3, 0xfd, 0xe5, 0x0f, 0xfb, 0xf4,
    0xf4, 0x27, 0xe6, 0xc9, 0x65, 0xe4, 0x31, 0xec, 0xd4, 0x53, 0x1a, 0x18, 0xe6, 0x45, 0x81, 0x4b, 0x04, 0xde, 0x86,
    0x06, 0x01, 0xdb, 0xbd, 0xd6, 0xf3, 0xfa, 0x08, 0x15, 0x22, 0x7f, 0xc6, 0xe7, 0x36, 0x12, 0x0c, 0xdd, 0x0e, 0xfa,
    0x21, 0x0c, 0xe6, 0xf9, 0x13, 0xed, 0x1b, 0x7f, 0xe2, 0xfc, 0xfa, 0x7f, 0xee, 0x57, 0x2c, 0x0d, 0x2d, 0x3e, 0x02,
    0x94, 0xe4, 0xf9, 0xea, 0xd9, 0x8c, 0xd9, 0xed, 0xb7, 0x66, 0xe8, 0x7f, 0x10, 0xc7, 0xff, 0x9e, 0xe4, 0xd0, 0x8c,
    0xc5, 0xe3, 0x23, 0xaa, 0x66, 0x05, 0xa4, 0xbd, 0x6c, 0xe1, 0xfc, 0xda, 0x03, 0xe7, 0x23, 0x06, 0x10, 0x06, 0x81,
    0x11, 0xfe, 0x07, 0x42, 0xcb, 0x81, 0xe4, 0x23, 0x3f, 0x97, 0xfd, 0x0a, 0xee, 0xd0, 0xdc, 0x64, 0xee, 0x2b, 0xfe,
    0x74, 0x0a, 0x31, 0x12, 0x0a, 0xf0, 0xc7, 0x26, 0x3f, 0x11, 0x5b, 0xb3, 0x23, 0xfc, 0x81, 0x08, 0x7d, 0x35, 0xe1,
    0x0d, 0xba, 0x02, 0xc6, 0x06, 0xeb, 0x7f, 0x00, 0xfa, 0x9f, 0xd7, 0x69, 0x79, 0x23, 0x15, 0x22, 0x31, 0x07, 0x7f,
    0x07, 0xd4, 0xfb, 0xec, 0x49, 0xf6, 0xce, 0xbe, 0x7c, 0x1e, 0x63, 0xc7, 0xf5, 0x36, 0xca, 0x26, 0xff, 0x21, 0x1a,
    0xf7, 0x38, 0x81, 0xf6, 0x0f, 0x00, 0x09, 0xcc, 0xe1, 0xed, 0x04, 0xe1, 0x49, 0xcb, 0x7f, 0x1a, 0x92, 0xf2, 0xf8,
    0x5c, 0x92, 0x0a, 0xf6, 0x28, 0x12, 0xf7, 0x1c, 0xe4, 0x01, 0x18, 0x0e, 0x81, 0xf5, 0x10, 0x2a, 0xdd, 0xfb, 0xdd,
    0x16, 0xe6, 0xd5, 0x81, 0x0b, 0x25, 0xfa, 0x19, 0x72, 0xf7, 0xed, 0xff, 0x38, 0x7c, 0xd3, 0xfe, 0xfb, 0xd9, 0x06,
    0xbf, 0xe9, 0x04, 0xd4, 0xc8, 0x48, 0xcc, 0xd4, 0xd2, 0xe6, 0x7f, 0xc2, 0xfb, 0x0b, 0x32, 0xdc, 0xed, 0x22, 0xdb,
    0x36, 0xfa, 0x02, 0x81, 0xd9, 0x1e, 0xed, 0xcf, 0xf9, 0x4a, 0xf5, 0x32, 0xcb, 0x0d, 0x05, 0xf1, 0x5e, 0x05, 0x81,
    0x49, 0xce, 0x14, 0x04, 0x1e, 0xa5, 0xef, 0x58, 0x2c, 0xf0, 0x9c, 0x1d, 0x01, 0xf5, 0xd0, 0x7f, 0x1f, 0xf1, 0x7f,
    0x05, 0x08, 0xd9, 0x00, 0x2d, 0xfd, 0xd2, 0x34, 0xfe, 0xf5, 0xd9, 0xf8, 0xcd, 0xf9, 0xf4, 0xdf, 0x09, 0xd0, 0x81,
    0x16, 0x08, 0xbe, 0x87, 0x40, 0xc9, 0xe7, 0xea, 0x81, 0xc4, 0x35, 0xee, 0x2a, 0x0f, 0x85, 0xe3, 0x01, 0x1e, 0xd0,
    0xeb, 0xec, 0x15, 0xc0, 0xe1, 0x37, 0xe9, 0xcb, 0x17, 0xac, 0x81, 0xcb, 0x24, 0x01, 0xd8, 0xfc, 0xd0, 0xff, 0xdc,
    0x16, 0x41, 0xc5, 0x0c, 0xac, 0x2b, 0xaf, 0x7f, 0xfc, 0x18, 0x8d, 0x43, 0x68, 0xdc, 0x02, 0x81, 0x22, 0x50, 0x41,
    0xf5, 0xda, 0xd2, 0x18, 0xf5, 0x11, 0xf6, 0x1a,
};
const int32_t bias9[48] = {
    4434,  -3854, 3505, 1673, 2755,  8851, 931,  642,   9052, 3435, -973, 4561, -703,  2447,  4418, 5203,
    -3172, 2350,  -116, 5929, -3330, 1621, 6271, 7246,  -98,  1405, 3019, 1487, 5121,  -100,  2825, 672,
    1349,  -2023, 3300, 6254, 3473,  1344, 3835, 11922, 6518, 3087, -111, 4470, -5514, -3763, 3000, 4301,
};
const float scales9[48] = {
    0.00817261922513214,   0.009678535803714682,  0.005510839044599371,  0.00828515588200464,   0.004763016863367536,
    0.004179332553722441,  0.009904759055498561,  0.008473276726043418,  0.0030104070085188272, 0.005305833277023048,
    0.006338421266424945,  0.0031803872981467267, 0.0051460803897522105, 0.007342690340534088,  0.004610460389809125,
    0.004442335784506712,  0.00673394020011701,   0.004949549214566334,  0.007057489359733627,  0.00401141313344265,
    0.005592903470831805,  0.008222246379546303,  0.0038235149489751247, 0.003209943242373952,  0.007673599103599532,
    0.005252346502142116,  0.005746846916225834,  0.010776434636773751,  0.0038623566428663,    0.005058841806039937,
    0.004858774571384506,  0.006172595127962497,  0.00582889725008034,   0.00550796870906311,   0.00475620066201159,
    0.003977287876596232,  0.004933880181396369,  0.0069278079158745995, 0.00499786690522348,   0.0020967247261937383,
    0.0041150606001660785, 0.005450458842131451,  0.005317904244260578,  0.005911136985494191,  0.006155887204691721,
    0.006704228957885024,  0.0036511068244778856, 0.005954914111983114,
};
const int32_t shift9[48] = {
    -6, -6, -7, -6, -7, -7, -6, -6, -8, -7, -7, -8, -7, -7, -7, -7, -7, -7, -7, -7, -7, -6, -8, -8,
    -7, -7, -7, -6, -8, -7, -7, -7, -7, -7, -7, -7, -7, -7, -7, -8, -7, -7, -7, -7, -7, -7, -8, -7,
};
const int32_t multiplier9[48] = {
    1123236233, 1330207832, 1514807902, 1138703154, 1309248106, 1148806185, 1361299719, 1164558286,
    1654988755, 1458456346, 1742291971, 1748436408, 1414543807, 2018343352, 1267313702, 1221099962,
    1851011388, 1360521728, 1939947903, 1102648846, 1537365600, 1130056938, 2101999573, 1764684960,
    2109302860, 1443754013, 1579681252, 1481101899, 2123353020, 1390563847, 1335569784, 1696710029,
    1602235076, 1514018910, 1307374483, 1093268567, 1356214657, 1904301340, 1373803194, 1152686608,
    1131139245, 1498210718, 1461774388, 1624840962, 1692117390, 1842844424, 2007217204, 1636874327,
};
const unsigned char CHWweight10[432] = {
    0xc4, 0x81, 0xbc, 0x78, 0x70, 0x62, 0xb5, 0xaa, 0x99, 0x07, 0xdb, 0x08, 0xd2, 0x7f, 0xdb, 0xfc, 0x00, 0xf8, 0x2f,
    0xc7, 0xb9, 0x1a, 0x7f, 0xdd, 0xc4, 0x10, 0x44, 0xe9, 0x81, 0x03, 0x96, 0x03, 0x43, 0x13, 0x61, 0x0b, 0x07, 0x9b,
    0xfd, 0x18, 0x7f, 0x25, 0x06, 0xdb, 0x01, 0xf3, 0xac, 0xd4, 0xe2, 0x81, 0xa2, 0xd4, 0xc8, 0xb4, 0x2c, 0x2e, 0xcc,
    0x7f, 0xd7, 0x99, 0x01, 0xb0, 0xbb, 0x20, 0xb4, 0x06, 0x45, 0x81, 0x31, 0x0f, 0xbe, 0x04, 0x17, 0xfa, 0x06, 0xda,
    0x81, 0xc6, 0x1e, 0x33, 0x27, 0x10, 0x81, 0x21, 0x23, 0x92, 0x26, 0x01, 0xa3, 0x07, 0x22, 0xe9, 0x35, 0x81, 0x4a,
    0x96, 0xf7, 0xd6, 0x1d, 0xf6, 0x5e, 0xf4, 0x12, 0x50, 0x15, 0xdb, 0x7f, 0xef, 0xc1, 0x42, 0xc8, 0x19, 0x7f, 0xe9,
    0xce, 0x4c, 0xc4, 0xc8, 0x03, 0x2c, 0xa1, 0xc7, 0x7f, 0xc3, 0xdf, 0x5d, 0xce, 0xc8, 0xf3, 0x0e, 0x7f, 0x3a, 0x04,
    0xfa, 0xc9, 0x07, 0x7f, 0x17, 0xd9, 0x1c, 0xda, 0x04, 0x94, 0x01, 0xe1, 0x44, 0xe2, 0x39, 0x7f, 0xf3, 0x40, 0x57,
    0x66, 0xe9, 0x81, 0x08, 0x44, 0xcd, 0x86, 0x16, 0x7b, 0xfd, 0xda, 0x81, 0xc1, 0xa3, 0x08, 0x53, 0xf3, 0x66, 0x3d,
    0x20, 0x81, 0xf2, 0xe7, 0xe7, 0x2b, 0x03, 0x7c, 0x2e, 0xfe, 0xaa, 0xfb, 0x78, 0x44, 0x7f, 0x32, 0xde, 0x4d, 0xe4,
    0x81, 0xed, 0x70, 0x0f, 0x96, 0x1d, 0x5a, 0xd4, 0x00, 0xfd, 0x0d, 0xd9, 0x78, 0xc7, 0x35, 0x81, 0x22, 0x04, 0x47,
    0x0e, 0xe0, 0x81, 0xd6, 0x18, 0x3a, 0x0d, 0xf4, 0xf4, 0xcd, 0xd7, 0x7f, 0x00, 0xd5, 0x71, 0x7d, 0xec, 0x35, 0x39,
    0x81, 0x25, 0x5b, 0xcc, 0x9b, 0xf8, 0xe1, 0xf4, 0xd5, 0xd6, 0x7f, 0xd5, 0xda, 0xbf, 0xc9, 0x1a, 0xd2, 0x09, 0xd3,
    0x7f, 0xee, 0x0b, 0xb1, 0x0b, 0x1f, 0x97, 0x1d, 0xce, 0x7f, 0xde, 0x09, 0x0d, 0x09, 0xff, 0xc9, 0x03, 0xec, 0x7f,
    0xed, 0xfd, 0xe7, 0x00, 0x1b, 0x53, 0x34, 0x56, 0xd9, 0x5e, 0x1f, 0x7f, 0x17, 0xff, 0xbf, 0xff, 0xe6, 0x7f, 0xea,
    0x1a, 0xde, 0x1b, 0xb4, 0x7f, 0xab, 0xbe, 0x5a, 0xb0, 0xe2, 0x6f, 0xd9, 0x0b, 0x1a, 0x0d, 0x19, 0x81, 0x0e, 0x13,
    0xec, 0x06, 0xf8, 0x81, 0xf6, 0x9f, 0x15, 0x99, 0xc3, 0xab, 0xc5, 0x17, 0x1c, 0x1b, 0xd1, 0x81, 0xc6, 0x28, 0x27,
    0x1c, 0x16, 0x92, 0xed, 0x81, 0x01, 0x4b, 0xf1, 0x68, 0x0f, 0x3d, 0xfb, 0x16, 0x76, 0x4d, 0x7f, 0x5f, 0x74, 0x56,
    0x00, 0x35, 0x0b, 0xca, 0x81, 0xc0, 0x11, 0x45, 0x03, 0x12, 0xd9, 0x10, 0x44, 0x81, 0x2a, 0x21, 0xdb, 0x09, 0x27,
    0xc6, 0x13, 0x46, 0x81, 0x00, 0x3a, 0xc8, 0xfc, 0x3e, 0x01, 0x9b, 0x6e, 0xeb, 0x81, 0x2c, 0xbe, 0xad, 0xc5, 0x7f,
    0xd1, 0xa1, 0x72, 0xaf, 0xad, 0x03, 0xba, 0x0c, 0x19, 0x24, 0x0c, 0x81, 0xf6, 0x49, 0xff, 0xfc, 0xa3, 0xb4, 0x9d,
    0xcd, 0xba, 0xca, 0x81, 0x89, 0xba, 0xfd, 0x14, 0xff, 0x97, 0x7f, 0x99, 0x20, 0x13, 0x19, 0x42, 0xd0, 0x3e, 0xd8,
    0xe7, 0xe1, 0xee, 0x7f, 0xe1, 0x5d, 0x09, 0xae, 0x21, 0x81, 0xc8, 0xa7, 0xba, 0x59,
};
const int32_t offsetBias10[48] = {
    -24711, 2410,  6075,   -7454, 5943,  -57072, -16307, -11784, -8645,  -21847, -10364, 28320,
    4481,   -5637, 2117,   271,   53385, -12917, -10794, 5017,   40636,  -10113, -737,   -2037,
    23497,  -9393, -23776, -976,  2981,  2703,   48770,  4951,   -1330,  -596,   -60516, -5552,
    -6915,  81543, -10518, -1637, -6787, -23404, -24190, 809,    -92260, 2567,   6508,   -21526,
};
const int32_t offsetRBias10[48] = {
    0, 0, 0, 0, 0, 0, 0, 0, 0, 0, 0, 0, 0, 0, 0, 0, 0, 0, 0, 0, 0, 0, 0, 0,
    0, 0, 0, 0, 0, 0, 0, 0, 0, 0, 0, 0, 0, 0, 0, 0, 0, 0, 0, 0, 0, 0, 0, 0,
};
const float scales10[48] = {
    0.004995729252558367, 0.029555848688492956, 0.007720407267515159,  0.007602467123986097, 0.01129174280981927,
    0.005689268999164586, 0.006586524000503862, 0.009407486304267005,  0.021404891501557496, 0.005921205611923341,
    0.006151909777665357, 0.015818643673735807, 0.0073261194762199505, 0.007194175424111705, 0.00893657677053609,
    0.009696488688331737, 0.012343148551926982, 0.006478677274021935,  0.008635218685464133, 0.01027754705182545,
    0.006864525321238938, 0.006621909322800763, 0.01619760649192708,   0.013779310433014186, 0.009777062693547762,
    0.007541286689532692, 0.00992367821343653,  0.01232717710043859,   0.015054243884256779, 0.015585756862675264,
    0.005522050103855334, 0.015444204642693722, 0.00714111813109774,   0.010036473856874811, 0.007277222911842163,
    0.01179468971981745,  0.008326311325634586, 0.0031121147359573303, 0.008498906219634849, 0.01712723616260377,
    0.010050016329795528, 0.006916836977951993, 0.006103176004040177,  0.020227963548781314, 0.006793554799270234,
    0.02325534374607919,  0.016667763362418122, 0.006412786448151367,
};
const int32_t shift10[48] = {
    -7, -5, -7, -7, -6, -7, -7, -6, -5, -7, -7, -5, -7, -7, -6, -6, -6, -7, -6, -6, -7, -7, -5, -6,
    -6, -7, -6, -6, -6, -6, -7, -6, -7, -6, -7, -6, -6, -8, -6, -5, -6, -7, -7, -5, -7, -5, -5, -7,
};
const int32_t multiplier10[48] = {
    1373215601, 2031062456, 2122169390, 2089750251, 1551925315, 1563854355, 1810489931, 1292955072,
    1470932944, 1627608605, 1691024083, 1087048916, 2013788388, 1977519883, 1228233759, 1332675258,
    1696429420, 1780845249, 1186815419, 1412535311, 1886906352, 1820216575, 1113091043, 1893814005,
    1343749265, 2072933101, 1363899948, 1694234320, 2069039525, 2142090112, 1517889575, 2122635323,
    1962935605, 1379402463, 2000347802, 1621049812, 1144359515, 1710903170, 1168080776, 1176974707,
    1381263727, 1901285671, 1677628246, 1390055071, 1867398124, 1598095054, 1145399977, 1762733317,
};
const unsigned char weight11[768] = {
    0x50, 0x60, 0x14, 0xa3, 0x30, 0x61, 0xb0, 0xe1, 0xf3, 0x17, 0x2b, 0x51, 0xb0, 0xa6, 0xe6, 0x9f, 0x6a, 0x15, 0xd9,
    0x98, 0x7f, 0x00, 0xcd, 0xee, 0x2b, 0x01, 0xc2, 0x0d, 0x25, 0x25, 0xf8, 0xe2, 0x26, 0xfb, 0x6a, 0xc6, 0x99, 0x34,
    0x1c, 0xd9, 0xf3, 0xb4, 0xfb, 0xe7, 0x0e, 0x35, 0xfa, 0xd7, 0xf2, 0x3b, 0x13, 0xdc, 0x37, 0x0f, 0xb2, 0xbb, 0xe4,
    0x17, 0xfd, 0x07, 0x39, 0x25, 0x48, 0x52, 0xd9, 0x18, 0xcd, 0x26, 0xf2, 0xfd, 0x95, 0x1c, 0xd0, 0x2a, 0x45, 0xb8,
    0x81, 0x03, 0x26, 0xf7, 0xfd, 0xd4, 0x0e, 0x48, 0xbc, 0x12, 0x1a, 0x06, 0xfd, 0xa6, 0xef, 0x65, 0x37, 0x1e, 0xfe,
    0xb5, 0xb3, 0x9b, 0xe1, 0x1c, 0x3e, 0xdb, 0x25, 0xc2, 0x05, 0xa8, 0x7f, 0xe0, 0x27, 0x26, 0x01, 0xf7, 0x17, 0xe6,
    0xda, 0x3c, 0x0c, 0x0b, 0xdd, 0xe3, 0xf2, 0xe9, 0x2f, 0x39, 0x40, 0xb8, 0x32, 0x1e, 0x54, 0xba, 0x15, 0x5e, 0x11,
    0x32, 0x15, 0x13, 0xe5, 0xd7, 0xbe, 0x26, 0x6e, 0xd9, 0xc8, 0xfa, 0x05, 0x41, 0x25, 0xef, 0x26, 0x0a, 0xde, 0x20,
    0x38, 0xef, 0x21, 0x29, 0x06, 0xfe, 0x0f, 0x24, 0x39, 0x0c, 0xaf, 0xf0, 0xfc, 0x06, 0xe0, 0xf5, 0x27, 0x53, 0xef,
    0xed, 0xf7, 0x4e, 0x4c, 0x81, 0xd2, 0x25, 0xc5, 0xfe, 0xec, 0xe7, 0x19, 0xbb, 0xec, 0xcc, 0xaf, 0x05, 0x29, 0x03,
    0xfb, 0x11, 0xfe, 0x35, 0x9e, 0x57, 0x12, 0x12, 0x62, 0xf0, 0xfd, 0xf0, 0x0d, 0x0d, 0x1b, 0xfa, 0x2a, 0x0e, 0x28,
    0x81, 0x39, 0x2e, 0x25, 0x87, 0xd6, 0xe7, 0xe6, 0xb9, 0xf8, 0xf3, 0xee, 0x13, 0x03, 0xe8, 0xe9, 0xde, 0x09, 0x07,
    0x4c, 0x1c, 0xf6, 0xf6, 0xd2, 0x09, 0xdd, 0xbc, 0xfc, 0xf8, 0x15, 0x5b, 0x1b, 0x3e, 0x8e, 0x45, 0xfd, 0x37, 0x53,
    0x74, 0x3e, 0x77, 0xd8, 0x24, 0x17, 0xec, 0x7f, 0xb6, 0xe3, 0xc2, 0x1b, 0xa7, 0x00, 0xa3, 0x9e, 0x36, 0xae, 0xf0,
    0x00, 0xb5, 0xda, 0x2b, 0xeb, 0x03, 0x09, 0x1a, 0xff, 0x2e, 0x25, 0xfa, 0x56, 0x36, 0x2c, 0x28, 0x26, 0x04, 0x0f,
    0x37, 0xa2, 0xe6, 0x4b, 0xe6, 0xd9, 0xeb, 0xff, 0x3e, 0xeb, 0xea, 0x9d, 0x1c, 0xe7, 0x53, 0xfc, 0xf1, 0xc8, 0x19,
    0x39, 0xe5, 0x00, 0x00, 0x7f, 0x10, 0xda, 0x93, 0xf8, 0xdf, 0xd5, 0xf2, 0x66, 0x38, 0xcf, 0x6a, 0xb0, 0xd4, 0xbb,
    0xe8, 0x1b, 0xc6, 0x27, 0x19, 0xcd, 0xbf, 0x0c, 0xce, 0xf0, 0x34, 0x5d, 0xc3, 0x9e, 0x1b, 0x00, 0x00, 0xf8, 0x17,
    0x36, 0x1c, 0x08, 0xce, 0xca, 0xeb, 0x48, 0x4d, 0xee, 0x32, 0x18, 0x1f, 0x1e, 0x09, 0x25, 0x22, 0x1a, 0x09, 0x0b,
    0x21, 0xaa, 0xff, 0xfe, 0xf4, 0xce, 0xe9, 0xdf, 0xc2, 0x81, 0xc8, 0x10, 0xeb, 0xeb, 0x1e, 0x2e, 0x34, 0xcb, 0xf3,
    0xf3, 0xd8, 0xed, 0xdb, 0x41, 0x25, 0x0a, 0x21, 0x3e, 0xf7, 0xf6, 0xdb, 0x61, 0x54, 0x2c, 0x36, 0xb2, 0xd2, 0xe0,
    0x08, 0x11, 0xfd, 0x7f, 0xf2, 0xc5, 0x32, 0xe7, 0x06, 0x11, 0x70, 0xc6, 0x0a, 0xbb, 0xd3, 0x5f, 0xfc, 0x17, 0xe4,
    0xe2, 0xec, 0x45, 0x05, 0x26, 0xc7, 0x02, 0x31, 0x04, 0x3f, 0xfa, 0xf0, 0x2e, 0xe3, 0x3d, 0x13, 0x1a, 0xf8, 0x38,
    0xd9, 0xf2, 0xc5, 0x25, 0xeb, 0xe3, 0xdc, 0xe9, 0x9e, 0x51, 0x0f, 0x4b, 0xca, 0x12, 0x20, 0xfe, 0xd6, 0xdc, 0x16,
    0xc6, 0xec, 0x06, 0x05, 0xd3, 0xbc, 0x0b, 0xec, 0x19, 0xde, 0x1b, 0xd4, 0x08, 0x81, 0x57, 0xd7, 0x28, 0xf0, 0xd9,
    0x24, 0xfd, 0xfd, 0xea, 0x15, 0x36, 0x1a, 0x3d, 0xdf, 0x1c, 0x3d, 0xd5, 0x75, 0xeb, 0x7f, 0x39, 0x7e, 0xdc, 0xdd,
    0x4f, 0x25, 0xdb, 0x00, 0xc5, 0xc3, 0x00, 0xe1, 0xd4, 0xb4, 0x36, 0xfb, 0x1f, 0xd6, 0xdf, 0xb7, 0xf2, 0xbc, 0xa9,
    0xa6, 0xd0, 0xdd, 0xf5, 0xab, 0xfd, 0x47, 0xbb, 0x20, 0x0a, 0x6e, 0x2e, 0xdc, 0x48, 0x2e, 0xcc, 0x0c, 0x14, 0x1f,
    0x7f, 0x16, 0xb7, 0xba, 0xf4, 0xdf, 0xe2, 0xc6, 0xf9, 0xa6, 0x0b, 0x2d, 0x31, 0x0e, 0x0e, 0x18, 0xe6, 0xed, 0x11,
    0x6b, 0xea, 0xd7, 0xe3, 0x1e, 0x01, 0xf7, 0xf0, 0x30, 0x32, 0xb1, 0xfe, 0x4d, 0xd0, 0x1c, 0x51, 0x9f, 0xac, 0xb2,
    0xd3, 0x0b, 0xfc, 0x3a, 0x33, 0xfc, 0xea, 0xe0, 0xee, 0x0d, 0xfb, 0x2c, 0xff, 0x1a, 0xda, 0x4e, 0x16, 0x3d, 0x1c,
    0xf9, 0xf5, 0xbb, 0xda, 0xf5, 0x17, 0x24, 0x26, 0x0f, 0xb4, 0xa8, 0xed, 0xde, 0xe4, 0x7f, 0xd9, 0x03, 0xee, 0xc7,
    0x28, 0xe7, 0x1d, 0x23, 0x16, 0x32, 0xd8, 0x3f, 0xd7, 0xed, 0xf0, 0xf0, 0xec, 0x14, 0xdd, 0x0f, 0xc9, 0x32, 0x46,
    0xc9, 0x24, 0x27, 0xf5, 0xe6, 0xac, 0x12, 0x3a, 0x1a, 0xce, 0xec, 0x14, 0x3a, 0x2c, 0x2f, 0xcd, 0xe4, 0x61, 0x44,
    0xce, 0x00, 0x4c, 0xc1, 0x15, 0x09, 0xb5, 0x7f, 0xa3, 0x30, 0xbe, 0xf4, 0xe1, 0x23, 0x16, 0xe9, 0x06, 0xee, 0xff,
    0xcd, 0xcd, 0x45, 0xf1, 0x14, 0x28, 0x09, 0xf3, 0x1d, 0x0b, 0x7f, 0xe3, 0x16, 0x14, 0x1b, 0x09, 0x08, 0x09, 0xf7,
    0x26, 0xee, 0xfb, 0xf8, 0x1f, 0x35, 0x12, 0x00, 0xf8, 0x09, 0xee, 0xf1, 0xfb, 0x45, 0xf9, 0x05, 0xeb, 0x1b, 0x60,
    0xe3, 0xe7, 0x3d, 0xd7, 0xdf, 0x09, 0x07, 0x03, 0xf6, 0xd8, 0x33, 0xda, 0x2c, 0x2c, 0xee, 0xe5, 0xff, 0x4d, 0x2d,
    0xb9, 0xf1, 0x06, 0x51, 0xe9, 0xf9, 0xda, 0xeb, 0xc1, 0x7f, 0x39, 0x1f, 0xf1, 0xc9, 0x1e, 0xde, 0xc1, 0xc0, 0x0e,
    0xd4, 0x0a, 0xf6, 0xfa, 0x02, 0xd9, 0xcb, 0xf6, 0x06, 0x3a, 0x06, 0x72, 0x0e, 0x23, 0x11, 0xc4, 0x11, 0xd7, 0xdc,
    0x4b, 0xf6, 0xea, 0x0c, 0x1d, 0x3c, 0x9a, 0xd2,
};
const int32_t bias11[16] = {
    -5890, -2269, -1178, -3417, 181, -6366, 1517, 5569, -1197, 4319, 5506, -493, 1412, -6064, -4453, -4347,
};
const float scales11[16] = {
    0.0031134265820311354, 0.002374899270794299,  0.0031611510423499786, 0.0023262376438246647,
    0.004032517069067741,  0.0027288479641092095, 0.001896888267473076,  0.005756462570034167,
    0.0013315379523086723, 0.0016462684691963328, 0.002272691721858701,  0.004769056533841212,
    0.001300379458755756,  0.0021660524402479352, 0.0029592617986192267, 0.0044792854996122755,
};
const int32_t shift11[16] = {
    -8, -8, -8, -8, -7, -8, -9, -7, -9, -9, -8, -7, -9, -8, -8, -7,
};
const int32_t multiplier11[16] = {
    1711624365, 1305614682, 1737861164, 1278862669, 1108449852, 1500200033, 2085650707, 1582324383,
    1464041461, 1810091324, 1249425487, 1310908278, 1429782335, 1190799922, 1626871379, 1231256623,
};
const unsigned char weight12[768] = {
    0xff, 0x34, 0x15, 0xff, 0xff, 0x00, 0xf2, 0xff, 0xfa, 0x58, 0xb8, 0xfc, 0x81, 0xdd, 0xe8, 0x3b, 0xfc, 0xed, 0x7f,
    0x38, 0xe2, 0x00, 0x23, 0x0a, 0xc0, 0xf9, 0x60, 0x0f, 0xf6, 0x96, 0x68, 0x05, 0x02, 0x81, 0xd7, 0x06, 0xd1, 0xf8,
    0x32, 0xaa, 0x05, 0x45, 0x2b, 0x1e, 0xe5, 0xbd, 0x03, 0x72, 0xed, 0x7e, 0x2f, 0xe5, 0x1c, 0xa2, 0x07, 0x8e, 0x33,
    0xb0, 0xa0, 0xda, 0x81, 0xc7, 0x18, 0xee, 0x13, 0x09, 0x1b, 0x10, 0xfe, 0xc4, 0x36, 0xec, 0x0e, 0x4f, 0x95, 0xe9,
    0x7f, 0xbc, 0xed, 0x01, 0x08, 0xef, 0xd4, 0xe7, 0x03, 0x02, 0x2c, 0x05, 0x0d, 0xd6, 0x2d, 0x81, 0x11, 0xfb, 0x06,
    0xf8, 0x15, 0xe2, 0xa5, 0x6a, 0xdd, 0x0b, 0xfa, 0xbe, 0x81, 0xfd, 0xd5, 0xfd, 0xfa, 0x8f, 0x66, 0xf6, 0x00, 0x3c,
    0xfb, 0x24, 0x14, 0xfa, 0x26, 0xe3, 0x02, 0x2d, 0xb0, 0x7f, 0x1f, 0x09, 0xda, 0xce, 0x0b, 0x81, 0x0b, 0x4f, 0xc0,
    0x2e, 0x8f, 0xd4, 0xf5, 0x38, 0xfa, 0xf5, 0x5a, 0xc8, 0xe9, 0xf6, 0x03, 0xed, 0x13, 0xca, 0xef, 0xfe, 0x09, 0xeb,
    0x05, 0x06, 0xf7, 0x04, 0x0c, 0x0b, 0x7f, 0xfb, 0x11, 0xed, 0xf5, 0x17, 0x03, 0x02, 0xf1, 0xf4, 0x19, 0x7f, 0x0a,
    0x4b, 0x82, 0xfd, 0x16, 0xc5, 0xf3, 0xc0, 0xf9, 0xf6, 0xe3, 0x05, 0x09, 0xec, 0x0b, 0x81, 0xec, 0x19, 0x28, 0xd8,
    0x00, 0xfa, 0x21, 0x2c, 0xf6, 0x0c, 0x81, 0xe5, 0x13, 0x0e, 0x05, 0xe7, 0xfe, 0xf4, 0xf2, 0x18, 0xfb, 0xd3, 0x4e,
    0xdf, 0x0a, 0xfc, 0x31, 0xc8, 0x69, 0x1c, 0x08, 0xc9, 0xa0, 0x1a, 0xd0, 0xbb, 0xcf, 0x7f, 0x42, 0x00, 0xe9, 0x81,
    0x08, 0x00, 0xd9, 0x07, 0x41, 0x05, 0x17, 0x11, 0x06, 0xc9, 0xe3, 0xfc, 0xf5, 0x4a, 0xc9, 0xde, 0x0f, 0xd0, 0x7f,
    0xe9, 0x02, 0x2c, 0x2d, 0x3d, 0x1e, 0xbb, 0xf5, 0x63, 0xf0, 0x81, 0x03, 0xeb, 0xc2, 0x37, 0x30, 0xec, 0x02, 0x4f,
    0xe5, 0xef, 0x91, 0xcc, 0xe1, 0xd6, 0xc4, 0xc1, 0x01, 0xc9, 0xe2, 0x10, 0x03, 0xd3, 0x6b, 0x0c, 0xc5, 0xea, 0x06,
    0x7f, 0xe5, 0x1a, 0xfa, 0xed, 0xf0, 0x50, 0xf3, 0x0c, 0xdc, 0xe7, 0x7f, 0x0d, 0x09, 0xfa, 0x15, 0xcf, 0x49, 0x17,
    0x81, 0x39, 0xa5, 0xab, 0xdb, 0x08, 0x3f, 0x72, 0xf1, 0x2c, 0xf0, 0x1f, 0x11, 0x1f, 0x28, 0xfc, 0x0b, 0xa7, 0x07,
    0xfc, 0x20, 0x81, 0xe1, 0xe2, 0x01, 0xf6, 0x12, 0xf2, 0xee, 0x09, 0x08, 0xf8, 0x48, 0x09, 0xc6, 0xc6, 0x05, 0xe9,
    0xd5, 0xfc, 0xdd, 0xfe, 0x15, 0x11, 0x01, 0x81, 0x1b, 0xd1, 0xdf, 0x23, 0xe5, 0xdc, 0xeb, 0xee, 0xe7, 0xa6, 0x10,
    0x31, 0x3b, 0xf1, 0x7f, 0xf7, 0xeb, 0xc2, 0x14, 0x0f, 0xef, 0x23, 0xfe, 0xff, 0x17, 0xe1, 0x7f, 0xfa, 0xf5, 0xfd,
    0xf8, 0xc5, 0x53, 0xf7, 0x24, 0x14, 0xc0, 0x0e, 0x3e, 0xf3, 0x7f, 0x21, 0x01, 0xba, 0x1d, 0x24, 0x9f, 0xfc, 0xf7,
    0xd5, 0xbd, 0xe9, 0x04, 0x7f, 0xfa, 0xfd, 0x35, 0xf9, 0xe9, 0xf2, 0xeb, 0xfb, 0xf8, 0x39, 0x0d, 0x0f, 0xca, 0xe0,
    0xe1, 0x1f, 0x01, 0xf3, 0x33, 0xe6, 0x07, 0xff, 0xed, 0xef, 0x1a, 0x7f, 0x0b, 0xb5, 0xf5, 0x02, 0xfb, 0x0b, 0xe9,
    0x2a, 0xf7, 0xe4, 0xf4, 0x9a, 0xdd, 0x05, 0x81, 0xee, 0xf8, 0xfd, 0xf9, 0x16, 0xea, 0xe6, 0x03, 0xfe, 0x18, 0xec,
    0xf8, 0x81, 0x0e, 0xec, 0x51, 0xf2, 0xfb, 0xff, 0x0b, 0xd0, 0xf7, 0xdb, 0xf6, 0x02, 0xfb, 0xe9, 0x81, 0x0b, 0xde,
    0x0c, 0x05, 0x34, 0xd7, 0xfe, 0x98, 0xe4, 0x30, 0xe1, 0x96, 0x04, 0xbe, 0x8e, 0xc1, 0x5c, 0xa3, 0xae, 0x7f, 0xee,
    0x23, 0x93, 0x18, 0xfa, 0x17, 0xea, 0xf7, 0x12, 0x20, 0x83, 0xfd, 0x0a, 0x7f, 0xee, 0x13, 0x01, 0xeb, 0x1f, 0xc6,
    0xd1, 0x01, 0xe5, 0x7f, 0xfc, 0x05, 0xee, 0xff, 0xf3, 0x06, 0xfa, 0xf1, 0xe4, 0x05, 0xe1, 0x06, 0xf9, 0xeb, 0xed,
    0x22, 0xc2, 0x06, 0xef, 0xfe, 0x81, 0xf9, 0xe5, 0x19, 0xf7, 0x13, 0x19, 0xdf, 0xe4, 0xb2, 0x7f, 0xe8, 0x1d, 0x8e,
    0x88, 0xe9, 0x21, 0xbe, 0xce, 0x25, 0x63, 0x21, 0xfc, 0xf5, 0x5e, 0xf9, 0xf5, 0xdd, 0x7f, 0x1e, 0x01, 0x06, 0xcf,
    0x06, 0xf8, 0x0d, 0xdd, 0xf9, 0x00, 0xee, 0x1e, 0x81, 0x4b, 0x3d, 0xda, 0x37, 0x28, 0xca, 0x15, 0xbb, 0x19, 0xb9,
    0x2d, 0xa1, 0x5d, 0xe2, 0xf1, 0xf8, 0xf0, 0xda, 0x13, 0xfe, 0xf7, 0x0a, 0x97, 0x01, 0xae, 0x7f, 0xe5, 0xf3, 0xd2,
    0x0e, 0xd8, 0x4c, 0xcf, 0xc4, 0x11, 0x88, 0xca, 0xe0, 0x1d, 0x60, 0x0b, 0x12, 0x81, 0xcb, 0xca, 0xf7, 0x81, 0x06,
    0x09, 0x08, 0x9a, 0xe4, 0xeb, 0x0b, 0xfc, 0x0b, 0xfb, 0xf0, 0xfa, 0x03, 0xf9, 0xfc, 0x09, 0x1b, 0x91, 0x06, 0xec,
    0x34, 0xcc, 0x7f, 0xdd, 0xea, 0x01, 0xcd, 0x32, 0xdb, 0x15, 0xf2, 0x16, 0x39, 0xf3, 0x1f, 0x1a, 0x81, 0x23, 0x3d,
    0xde, 0x14, 0x1d, 0xa6, 0x4e, 0x03, 0x55, 0xf6, 0xd9, 0x18, 0x1e, 0xf2, 0x04, 0xfc, 0xf9, 0x14, 0x65, 0xee, 0x49,
    0x81, 0x00, 0xf9, 0xc7, 0xb6, 0xe5, 0x39, 0x3f, 0xd2, 0x17, 0x81, 0xba, 0xef, 0xfe, 0xb5, 0xe9, 0x08, 0x7d, 0x54,
    0x38, 0xc6, 0x27, 0x2c, 0xb4, 0xc0, 0xff, 0x84, 0xe4, 0xf2, 0x2e, 0xa8, 0xfe, 0x1b, 0x81, 0xf7, 0x7d, 0x0b, 0xef,
    0x09, 0x10, 0x1b, 0xcc, 0xf1, 0xe9, 0xf9, 0x27, 0xf7, 0x0a, 0x81, 0x01, 0x03, 0x0c, 0x17, 0xf5, 0xe9, 0xb9, 0xd8,
    0x23, 0x81, 0xc2, 0x21, 0xfa, 0x2f, 0x00, 0x06, 0xbe, 0xfa, 0xc6, 0x02, 0x19, 0x0d, 0x66, 0xf2, 0xfd, 0x1c, 0xb2,
    0x7f, 0x05, 0xe8, 0xf8, 0x0a, 0x94, 0x61, 0xf4,
};
const int32_t bias12[48] = {
    -451, 170,   2612,  7920, 1531,  178,   -1191, 1178,  -1081, 540,   -1085, 1751,  -11,   -652,  -678,  -340,
    5644, 777,   -3944, 1875, -850,  -1187, -131,  -1734, 57,    229,   -765,  -1128, -224,  1382,  230,   -1226,
    -85,  -2556, -1599, 292,  -1360, 1174,  -810,  674,   -407,  -1474, 1325,  -5387, -3361, -1655, -3778, -1703,
};
const float scales12[48] = {
    0.009834354499214389,  0.007984604588622405,  0.006897454541465493,  0.004378635430907111,  0.010568113150646591,
    0.010211616820683318,  0.007624741400754747,  0.00902577906083737,   0.0058938672540948265, 0.01465101113987105,
    0.007930482618274056,  0.010579725479430972,  0.03361324026726392,   0.006777459907960945,  0.009882734077889182,
    0.008239399375541844,  0.005814379115509965,  0.0071425330991814065, 0.008679506294830337,  0.005144142647032828,
    0.012206952445729405,  0.00881512296680347,   0.007821749563601394,  0.00965256922594558,   0.007235033149964987,
    0.010509450221091834,  0.006576988658732685,  0.01323117647097064,   0.011073720345966395,  0.011742609615762359,
    0.0042494757466958145, 0.008698396115729713,  0.029017611897807792,  0.012929280976144757,  0.005264525610841925,
    0.012099972571419943,  0.005599956445281662,  0.007425632723988047,  0.0052866809365749974, 0.011378174721127524,
    0.007585661251015253,  0.0059395233960443244, 0.006810254459119935,  0.005108232343049079,  0.006723842425368943,
    0.013716450418232669,  0.007261366727567227,  0.006366970291885141,
};
const int32_t shift12[48] = {
    -6, -6, -7, -7, -6, -6, -7, -6, -7, -6, -6, -6, -4, -7, -6, -6, -7, -7, -6, -7, -6, -6, -6, -6,
    -7, -6, -7, -6, -6, -6, -7, -6, -5, -6, -7, -6, -7, -7, -7, -6, -7, -7, -7, -7, -7, -6, -7, -7,
};
const int32_t multiplier12[48] = {
    1351623390, 1097395699, 1895957868, 1203590143, 1452470412, 1403473929, 2095872957, 1240493628,
    1620093895, 2013619638, 1089957232, 1454066398, 1154942141, 1862973994, 1358272629, 1132414427,
    1598244361, 1963324549, 1192902262, 1414011164, 1677710769, 1211541275, 1075013074, 1326639013,
    1988750769, 1444407840, 1807868877, 1818479047, 1521960535, 1613891977, 1168086999, 1195498459,
    1994075106, 1776986847, 1447101781, 1663007567, 1539304307, 2041142381, 1453191791, 1563804426,
    2085130687, 1632643759, 1871988491, 1404140215, 1848235733, 1885174591, 1995989288, 1750139467,
};
const unsigned char CHWweight13[2352] = {
    0xfe, 0xf9, 0x0b, 0x11, 0x06, 0xfc, 0xfd, 0xf7, 0xf8, 0x05, 0x14, 0x05, 0xf6, 0xf2, 0xff, 0xfa, 0xdd, 0xd6, 0xd4,
    0xf1, 0xfa, 0x05, 0x04, 0xbc, 0x81, 0x9a, 0xe3, 0x08, 0x09, 0x07, 0xd2, 0xa0, 0xac, 0xe5, 0x0b, 0xfa, 0xfe, 0x00,
    0xee, 0xe5, 0x01, 0x07, 0xff, 0xfa, 0xfa, 0x03, 0x00, 0xfb, 0x01, 0x06, 0x09, 0xfb, 0xf3, 0xf8, 0xff, 0x03, 0x05,
    0x05, 0xfc, 0xff, 0x01, 0x02, 0x04, 0xfd, 0xf8, 0x22, 0x4c, 0x35, 0x05, 0xfa, 0xf6, 0xfb, 0x46, 0x7f, 0x66, 0x19,
    0xf5, 0xfc, 0x04, 0x2f, 0x5b, 0x4e, 0x15, 0x00, 0x03, 0x01, 0x05, 0x11, 0x10, 0x04, 0x03, 0xfd, 0x02, 0xfd, 0xf7,
    0x00, 0x00, 0xfd, 0x03, 0x07, 0xf8, 0xf3, 0xfa, 0x00, 0xfb, 0x06, 0x09, 0xfc, 0xef, 0x01, 0x03, 0x05, 0xfa, 0x02,
    0x23, 0x3e, 0x2e, 0x0d, 0xff, 0xf7, 0xfa, 0x47, 0x7f, 0x68, 0x16, 0xf2, 0xfd, 0x02, 0x32, 0x69, 0x4c, 0x12, 0xfb,
    0xfa, 0x04, 0x08, 0x1b, 0x1d, 0x00, 0x02, 0x09, 0x02, 0xfb, 0xf6, 0xf6, 0xff, 0x07, 0x04, 0x04, 0xfa, 0xfa, 0xf5,
    0x03, 0x07, 0x09, 0x06, 0xff, 0xf7, 0x00, 0x03, 0x05, 0xfa, 0xfc, 0x16, 0x3a, 0x22, 0xff, 0xfb, 0xf8, 0xf6, 0x3a,
    0x7f, 0x60, 0x17, 0xf9, 0xfe, 0xf8, 0x27, 0x5f, 0x45, 0x13, 0xf9, 0x04, 0xfa, 0x09, 0x10, 0x10, 0xfa, 0xff, 0x00,
    0x07, 0xfe, 0xf3, 0xfe, 0x0b, 0xfd, 0x01, 0x04, 0xff, 0xfa, 0xfb, 0x01, 0xff, 0x06, 0xff, 0xfb, 0xfb, 0x03, 0xfb,
    0x02, 0x00, 0xfe, 0x1c, 0x45, 0x2a, 0x0b, 0x04, 0xf7, 0xff, 0x43, 0x7f, 0x6c, 0x1b, 0xf5, 0xfe, 0xf7, 0x2b, 0x67,
    0x52, 0x1a, 0xf9, 0xff, 0x00, 0x0a, 0x19, 0x12, 0x08, 0x03, 0xff, 0x03, 0x00, 0xfa, 0x03, 0xfe, 0xfb, 0x01, 0x0b,
    0xfd, 0xf7, 0xf9, 0xff, 0x00, 0x01, 0x00, 0xf5, 0xfe, 0x03, 0x00, 0x00, 0xfe, 0xfc, 0x1e, 0x40, 0x29, 0x07, 0xff,
    0xf8, 0x00, 0x39, 0x7f, 0x5e, 0x14, 0xfd, 0xff, 0xfe, 0x32, 0x5b, 0x4e, 0x18, 0xfa, 0x00, 0xf8, 0x07, 0x10, 0x16,
    0x02, 0xfd, 0xfd, 0x06, 0xfb, 0xfc, 0x01, 0xff, 0x00, 0x02, 0x04, 0x00, 0xf3, 0xfe, 0x01, 0x00, 0x03, 0x05, 0xf8,
    0xfc, 0xfe, 0x05, 0x05, 0xfc, 0xfb, 0x22, 0x45, 0x33, 0x0a, 0x01, 0xf6, 0xfc, 0x47, 0x7f, 0x61, 0x15, 0xf8, 0xfc,
    0xff, 0x2e, 0x5f, 0x4f, 0x16, 0xf9, 0x02, 0x02, 0x06, 0x14, 0x13, 0x06, 0xfe, 0xff, 0x01, 0x02, 0xfb, 0xfd, 0xfe,
    0x01, 0x00, 0xf5, 0x05, 0x0e, 0x07, 0xfc, 0xff, 0xff, 0xfe, 0x04, 0xff, 0x04, 0xfa, 0xfc, 0x04, 0x05, 0xd9, 0xb8,
    0xc1, 0xf4, 0x00, 0x07, 0x05, 0xc7, 0x81, 0x96, 0xe8, 0x08, 0x01, 0xfd, 0xe1, 0xb2, 0xb6, 0xe4, 0x03, 0xfd, 0x02,
    0xfb, 0xf3, 0xf1, 0xfd, 0xfe, 0xfc, 0x00, 0x04, 0x01, 0x05, 0x02, 0x01, 0xfe, 0x00, 0x00, 0xf3, 0xfa, 0x02, 0xfd,
    0x07, 0xfb, 0xf7, 0xff, 0xff, 0x00, 0x01, 0xfb, 0xf9, 0x27, 0x48, 0x3a, 0x0d, 0xfa, 0xfb, 0x04, 0x49, 0x7f, 0x6b,
    0x1a, 0xf8, 0xf8, 0x04, 0x2f, 0x52, 0x45, 0x15, 0xfe, 0x00, 0xff, 0x09, 0x08, 0x0c, 0x0b, 0x05, 0xff, 0x00, 0xf8,
    0xf8, 0x00, 0xfc, 0xff, 0x02, 0x04, 0xfc, 0xfc, 0xfc, 0x04, 0xfe, 0x06, 0xfb, 0x00, 0xfe, 0x02, 0x02, 0x02, 0xfa,
    0xf4, 0x22, 0x43, 0x31, 0x05, 0xfc, 0xfc, 0xf8, 0x3c, 0x7f, 0x67, 0x12, 0xfb, 0xfa, 0xfd, 0x2e, 0x67, 0x5f, 0x14,
    0xfc, 0x03, 0x05, 0x06, 0x13, 0x13, 0x04, 0x01, 0x04, 0x06, 0xfb, 0xf8, 0xfa, 0xff, 0x01, 0x01, 0x01, 0xfb, 0xf7,
    0xff, 0x00, 0x00, 0x05, 0xff, 0xfe, 0xfc, 0xfe, 0x02, 0x01, 0x00, 0xfb, 0x17, 0x39, 0x25, 0x05, 0xfe, 0xff, 0xf8,
    0x33, 0x7f, 0x5f, 0x07, 0xf8, 0x02, 0xfe, 0x20, 0x5b, 0x3f, 0x1a, 0xfc, 0x03, 0x02, 0x02, 0x10, 0x14, 0x08, 0x00,
    0x00, 0x00, 0xfd, 0xf8, 0xfc, 0x02, 0x00, 0xff, 0x03, 0xfc, 0xff, 0x00, 0x00, 0x00, 0x01, 0xfe, 0xfb, 0xfb, 0x01,
    0xfe, 0x04, 0xfd, 0xfd, 0x1d, 0x34, 0x26, 0x0b, 0xf9, 0xfc, 0xfc, 0x39, 0x7f, 0x56, 0x0d, 0xfa, 0x00, 0x03, 0x28,
    0x58, 0x3f, 0x12, 0x01, 0xfe, 0xff, 0x05, 0x11, 0x18, 0x00, 0xfc, 0xfe, 0x04, 0xfe, 0xfa, 0x03, 0xff, 0xff, 0x00,
    0x05, 0xf9, 0xfb, 0xfe, 0x08, 0xfa, 0xfe, 0xfb, 0xfd, 0x01, 0x05, 0xfc, 0x01, 0xf9, 0xfc, 0x2f, 0x3d, 0x20, 0x04,
    0x02, 0xff, 0xf8, 0x53, 0x7f, 0x4f, 0x08, 0xff, 0xf6, 0xf8, 0x35, 0x63, 0x43, 0x10, 0x00, 0x01, 0xf9, 0x08, 0x18,
    0x18, 0x06, 0xfe, 0xff, 0x06, 0x00, 0xfc, 0x03, 0xfc, 0xfd, 0x01, 0x09, 0xfb, 0xf6, 0xfc, 0xff, 0x00, 0x00, 0x02,
    0xf8, 0xf7, 0xfb, 0xfd, 0x00, 0xfe, 0xfd, 0x18, 0x38, 0x2a, 0x0b, 0xfb, 0xfb, 0xff, 0x3f, 0x7f, 0x69, 0x16, 0xfa,
    0x01, 0xfd, 0x37, 0x68, 0x56, 0x1e, 0xff, 0x01, 0xfd, 0x09, 0x13, 0x1e, 0x0e, 0x02, 0x01, 0x01, 0xfb, 0xfa, 0xfb,
    0xfe, 0xfb, 0xfe, 0x04, 0xff, 0xf7, 0xef, 0x03, 0x04, 0x07, 0x00, 0xee, 0xf1, 0xf8, 0xff, 0x07, 0x03, 0x05, 0x17,
    0x28, 0x24, 0x12, 0xff, 0xf3, 0x03, 0x4a, 0x7f, 0x6c, 0x17, 0xf9, 0xf8, 0xf9, 0x40, 0x73, 0x5e, 0x1b, 0xf9, 0x01,
    0xf9, 0x0f, 0x1f, 0x22, 0x0d, 0xfa, 0x02, 0x07, 0xfe, 0xf5, 0xf8, 0x00, 0x01, 0xfd, 0xfb, 0x04, 0x09, 0x05, 0xfe,
    0xf9, 0xf9, 0x06, 0xfd, 0xfd, 0xfd, 0xfd, 0x06, 0x01, 0xff, 0xe4, 0xc0, 0xcb, 0xf3, 0xfe, 0x0a, 0x01, 0xbb, 0x81,
    0x9d, 0xe2, 0x07, 0xff, 0xff, 0xd0, 0x9d, 0xb1, 0xe7, 0x05, 0x02, 0x01, 0xff, 0xe7, 0xde, 0xf9, 0x04, 0x00, 0x04,
    0x04, 0x05, 0x02, 0xff, 0xff, 0xfa, 0x04, 0xfe, 0xff, 0xfb, 0xfd, 0xfd, 0x07, 0x00, 0xfb, 0xfe, 0x02, 0x05, 0x08,
    0xfe, 0xfa, 0x1e, 0x3e, 0x29, 0x03, 0x03, 0xf7, 0xf5, 0x38, 0x7f, 0x60, 0x0a, 0xf4, 0xfd, 0xff, 0x2a, 0x52, 0x3d,
    0x18, 0xfb, 0x03, 0x0c, 0xff, 0x08, 0x0d, 0x04, 0x04, 0x05, 0x01, 0xfe, 0xf5, 0xfd, 0x02, 0x02, 0xfc, 0x00, 0xf9,
    0xf5, 0xfe, 0xf8, 0x03, 0x03, 0x00, 0x00, 0x01, 0x04, 0x01, 0xff, 0xfc, 0x04, 0x27, 0x43, 0x34, 0x0d, 0xfe, 0xf6,
    0xff, 0x49, 0x7f, 0x5d, 0x16, 0xf5, 0xff, 0xfe, 0x33, 0x61, 0x4a, 0x17, 0xff, 0xfd, 0x06, 0x07, 0x14, 0x12, 0x06,
    0x02, 0x01, 0x01, 0x03, 0xf8, 0xf9, 0x02, 0xfd, 0x00, 0x03, 0x01, 0xfc, 0xf7, 0x00, 0x00, 0x02, 0x07, 0xfb, 0xed,
    0xf6, 0x03, 0x0c, 0xff, 0xf7, 0x1a, 0x37, 0x30, 0x0e, 0xfd, 0xf3, 0xf4, 0x3a, 0x7f, 0x66, 0x17, 0xf6, 0xfc, 0xfc,
    0x29, 0x63, 0x58, 0x12, 0x00, 0x07, 0xf8, 0x02, 0x14, 0x19, 0x05, 0x01, 0xfd, 0x01, 0xff, 0xfa, 0xfb, 0x00, 0xff,
    0x00, 0x03, 0x01, 0x07, 0x06, 0x02, 0x00, 0xff, 0xfe, 0x01, 0x0e, 0x05, 0xf7, 0xfe, 0xff, 0xfd, 0xe7, 0xdc, 0xdb,
    0xed, 0x06, 0x11, 0xfa, 0xb7, 0x81, 0xa2, 0xf0, 0x08, 0x04, 0xff, 0xcb, 0xa2, 0xa9, 0xe4, 0x02, 0xff, 0x00, 0xf5,
    0xe6, 0xf1, 0xef, 0x05, 0x04, 0xfe, 0xfc, 0x0f, 0x00, 0xfd, 0xff, 0x04, 0x08, 0xf8, 0xf2, 0xf7, 0x02, 0x08, 0x02,
    0x0c, 0xfe, 0xf4, 0xf8, 0x06, 0x06, 0xff, 0xfc, 0x21, 0x43, 0x33, 0x0f, 0xfb, 0x01, 0xfc, 0x34, 0x7f, 0x78, 0x27,
    0xf5, 0xf9, 0xf7, 0x1d, 0x60, 0x5b, 0x17, 0xfe, 0xfe, 0x07, 0x08, 0x0b, 0x11, 0x0a, 0xfa, 0x04, 0x03, 0x03, 0xf9,
    0xf6, 0x03, 0x03, 0x05, 0x08, 0xff, 0xf5, 0xf3, 0x0c, 0x09, 0x03, 0x09, 0xf7, 0xef, 0xf6, 0xfe, 0x08, 0xf4, 0xfd,
    0x25, 0x2f, 0x2a, 0x0f, 0xf8, 0xf1, 0xfd, 0x45, 0x7f, 0x68, 0x1c, 0xfa, 0xfa, 0xf9, 0x36, 0x6f, 0x60, 0x18, 0xf4,
    0x04, 0xfa, 0x08, 0x20, 0x1a, 0x02, 0xfa, 0xfd, 0x0a, 0xfb, 0xf4, 0x02, 0xfc, 0x03, 0x04, 0x09, 0xfc, 0xf5, 0xfa,
    0xff, 0x02, 0x05, 0x07, 0xf8, 0xf3, 0x06, 0x06, 0xff, 0xfd, 0x00, 0x1e, 0x28, 0x1f, 0x0d, 0x02, 0xf4, 0xf8, 0x45,
    0x7f, 0x61, 0x14, 0xfc, 0xf6, 0x01, 0x3a, 0x76, 0x59, 0x18, 0xf9, 0xfe, 0xfd, 0x0c, 0x1c, 0x26, 0x07, 0x00, 0xff,
    0xfe, 0x01, 0x02, 0x03, 0x00, 0xfa, 0xfe, 0xff, 0x02, 0x09, 0x02, 0x01, 0xfa, 0xfe, 0x07, 0x0d, 0xfa, 0x03, 0x00,
    0x00, 0xfe, 0xff, 0xdb, 0xb9, 0xc6, 0xf8, 0xfe, 0x0e, 0xfd, 0xab, 0x81, 0x91, 0xe3, 0x08, 0x07, 0xfd, 0xc9, 0x98,
    0x92, 0xe2, 0x07, 0xf8, 0xfd, 0xf5, 0xf1, 0xe7, 0xef, 0xfc, 0xfc, 0xff, 0x04, 0x09, 0x05, 0xf9, 0xff, 0x00, 0x01,
    0x03, 0x05, 0x04, 0xfc, 0x02, 0xfb, 0xfc, 0x0a, 0x0f, 0x09, 0xfd, 0xfc, 0xff, 0xfd, 0xe8, 0xd8, 0xdd, 0xf8, 0xfb,
    0x0f, 0xfe, 0xbd, 0x81, 0xa6, 0xe6, 0x05, 0x0c, 0x03, 0xc4, 0x92, 0xa3, 0xe3, 0x04, 0x01, 0x04, 0xf4, 0xde, 0xda,
    0xf6, 0x01, 0x00, 0x00, 0xfc, 0x08, 0x08, 0xfc, 0xfa, 0x00, 0x06, 0x00, 0xf9, 0xfd, 0x02, 0x01, 0x01, 0xfc, 0x00,
    0x06, 0x05, 0xfb, 0x02, 0xfd, 0xfc, 0x2b, 0x4d, 0x3d, 0x0a, 0x00, 0xfb, 0x02, 0x42, 0x7f, 0x59, 0x1b, 0xfa, 0xf9,
    0x06, 0x24, 0x49, 0x3c, 0x15, 0xfe, 0x01, 0x00, 0x04, 0x05, 0x11, 0x06, 0x03, 0x00, 0xfe, 0xfb, 0xf7, 0x01, 0xff,
    0xfe, 0x03, 0x02, 0x00, 0x06, 0xfb, 0xfa, 0x04, 0x01, 0x04, 0x08, 0x01, 0x01, 0x04, 0xf9, 0xff, 0xf9, 0xe9, 0xc6,
    0xdb, 0xf5, 0xf9, 0x08, 0x05, 0xca, 0x81, 0x9d, 0xf1, 0x07, 0x06, 0x05, 0xd3, 0x9f, 0xae, 0xe4, 0x07, 0x02, 0x01,
    0xf1, 0xeb, 0xe9, 0xf7, 0x06, 0xfe, 0xf8, 0xff, 0x07, 0xfe, 0x05, 0x02, 0x04, 0x09, 0xf5, 0xf3, 0xf2, 0xff, 0xff,
    0x03, 0xfc, 0x01, 0xfd, 0x01, 0x08, 0x09, 0xfb, 0xfc, 0x30, 0x33, 0x35, 0x18, 0x02, 0xf5, 0xf4, 0x37, 0x7f, 0x66,
    0x0d, 0xef, 0xfb, 0xf3, 0x25, 0x6d, 0x57, 0x0b, 0xf1, 0xf9, 0x05, 0x15, 0x0f, 0x13, 0x0a, 0xfc, 0x02, 0x04, 0x00,
    0xf7, 0x00, 0x03, 0x03, 0xf6, 0xfd, 0x06, 0x0c, 0x04, 0xfa, 0xfa, 0xf9, 0xf8, 0x0d, 0xff, 0xf9, 0xfe, 0xff, 0x04,
    0xf9, 0xdd, 0xc4, 0xcb, 0xfd, 0xff, 0x0c, 0xfd, 0xb8, 0x81, 0x98, 0xe2, 0x0d, 0x0a, 0x02, 0xcf, 0x90, 0x98, 0xdf,
    0x00, 0xfb, 0x02, 0x06, 0xf0, 0xe0, 0xf4, 0xfd, 0x03, 0xf6, 0x0a, 0x07, 0x0c, 0x03, 0xfb, 0x02, 0xff, 0xfc, 0xf8,
    0xff, 0x01, 0xfe, 0x03, 0xfb, 0xfd, 0xfc, 0xff, 0x03, 0x02, 0x04, 0xfc, 0x1d, 0x3f, 0x29, 0x0b, 0x01, 0xf7, 0xfe,
    0x37, 0x7f, 0x64, 0x0e, 0xf8, 0xf8, 0xfd, 0x28, 0x5b, 0x45, 0x12, 0xff, 0xff, 0xfb, 0x06, 0x10, 0x11, 0x05, 0xfd,
    0xff, 0x05, 0xff, 0xf4, 0xfe, 0x01, 0x01, 0xff, 0xfc, 0x04, 0x01, 0x04, 0x05, 0xfd, 0x01, 0xf8, 0x00, 0xf4, 0xff,
    0xff, 0x00, 0x00, 0x02, 0xd9, 0xb3, 0xcf, 0xf5, 0x03, 0x03, 0x02, 0xbf, 0x81, 0x95, 0xe2, 0x02, 0x00, 0x00, 0xd2,
    0x99, 0xaa, 0xf2, 0x06, 0x05, 0xfd, 0x00, 0xe0, 0xe3, 0xfe, 0x08, 0x03, 0xf8, 0x03, 0xf9, 0x00, 0x04, 0xfb, 0x04,
    0xfb, 0xff, 0x07, 0x01, 0xf8, 0x00, 0xf8, 0x03, 0xfe, 0xf9, 0xf5, 0xf9, 0xfe, 0x0b, 0x0b, 0xd9, 0xb8, 0xc0, 0xfe,
    0x03, 0x0d, 0xf8, 0xb7, 0x81, 0xaa, 0xdd, 0x03, 0x02, 0xfc, 0xd2, 0xaa, 0xc3, 0xdb, 0xfb, 0x04, 0x03, 0xff, 0xf4,
    0xf1, 0xfc, 0xff, 0xfb, 0xfb, 0x0e, 0x06, 0x07, 0xfd, 0xfa, 0xfe, 0x03, 0xff, 0xfb, 0xff, 0x00, 0x03, 0x01, 0xff,
    0xfc, 0xf2, 0xfd, 0x02, 0x01, 0xf9, 0xfb, 0x22, 0x37, 0x22, 0x05, 0xfd, 0xfa, 0x01, 0x4c, 0x7f, 0x4e, 0x0e, 0xfc,
    0xf5, 0x02, 0x3d, 0x6b, 0x48, 0x08, 0x00, 0xfc, 0xf9, 0x08, 0x28, 0x15, 0xfb, 0x00, 0x06, 0x02, 0xfc, 0xfa, 0x02,
    0x03, 0x04, 0xfc, 0x0a, 0x01, 0xf4, 0xfd, 0x05, 0x02, 0x00, 0xff, 0xf2, 0xf4, 0x00, 0x05, 0x02, 0xfe, 0xfc, 0x0f,
    0x28, 0x22, 0xfc, 0xfe, 0xfb, 0xf3, 0x32, 0x7f, 0x54, 0x04, 0xf3, 0xfe, 0x00, 0x34, 0x6e, 0x49, 0x16, 0xff, 0xf4,
    0x08, 0x0e, 0x22, 0x20, 0x0d, 0xfb, 0xfd, 0xfe, 0x09, 0x05, 0x07, 0xfb, 0xf5, 0x02, 0xfc, 0x06, 0x0a, 0x03, 0x01,
    0x0e, 0x01, 0x0c, 0xff, 0xf8, 0xfa, 0xfb, 0xff, 0x04, 0xfd, 0xdb, 0xbd, 0xc1, 0xf7, 0xfc, 0x04, 0xf9, 0xc1, 0x81,
    0x9b, 0xe5, 0xfc, 0x05, 0xfb, 0xd2, 0x94, 0xae, 0xee, 0x04, 0xfb, 0x08, 0x02, 0xea, 0xdd, 0xf9, 0xfe, 0xfb, 0xfb,
    0xfe, 0xff, 0xff, 0x00, 0x05, 0xf8, 0x04, 0xfe, 0xf9, 0x02, 0x09, 0xfc, 0x04, 0xf7, 0xfc, 0xfe, 0xfe, 0xf7, 0x00,
    0xfb, 0xfb, 0x20, 0x44, 0x2c, 0x08, 0xfe, 0xfd, 0x09, 0x3f, 0x7f, 0x5d, 0x1c, 0xfd, 0x04, 0xfb, 0x27, 0x58, 0x4f,
    0x17, 0xfa, 0x01, 0xf7, 0x04, 0x09, 0x14, 0x09, 0x00, 0xfa, 0x02, 0x01, 0xff, 0x02, 0x00, 0xff, 0xff, 0xfe, 0xfa,
    0x02, 0x01, 0xff, 0x0a, 0x03, 0x18, 0x00, 0xe8, 0xf9, 0x05, 0x00, 0x11, 0x1b, 0xe1, 0xa2, 0xc6, 0x00, 0x04, 0x01,
    0xf7, 0xaf, 0x81, 0x89, 0xd0, 0x00, 0xf8, 0xe7, 0xbd, 0xb0, 0xa5, 0xd7, 0xf7, 0xf9, 0xfa, 0xf1, 0xf3, 0xea, 0xec,
    0x04, 0x01, 0x00, 0xff, 0x03, 0x0c, 0xfe, 0xfb, 0x08, 0xfb, 0xff, 0x06, 0x0a, 0xfa, 0x06, 0xfb, 0x02, 0xfd, 0x01,
    0x07, 0xff, 0x04, 0x0a, 0xfb, 0xc1, 0xb5, 0xc6, 0xde, 0xfc, 0x0d, 0xe9, 0xa0, 0x8d, 0x81, 0xc4, 0xfa, 0x04, 0xfc,
    0xbb, 0xb0, 0x9e, 0xd0, 0x05, 0xf8, 0xf3, 0xf7, 0xea, 0xed, 0xfd, 0xf7, 0x00, 0x02, 0x06, 0x06, 0x03, 0x08, 0x05,
    0xfc, 0x0c, 0x04, 0x12, 0x0a, 0x07, 0xfb, 0x03, 0x08, 0x05, 0xec, 0xf1, 0x08, 0x03, 0x01, 0xfa, 0xe2, 0xb5, 0xbb,
    0xf1, 0x04, 0x05, 0xe7, 0x9e, 0x8b, 0x81, 0xb6, 0x03, 0xfd, 0xf1, 0xb9, 0x8e, 0x93, 0xc3, 0xf8, 0xf3, 0xfa, 0xfe,
    0xdc, 0xdf, 0xfa, 0xf7, 0x01, 0x05, 0x0b, 0xff, 0x08, 0x00, 0xfa, 0xfa, 0x06, 0xff, 0x00, 0x06, 0xfe, 0x06, 0x03,
    0x02, 0xff, 0xfb, 0xf7, 0xfb, 0xfd, 0x02, 0xfa, 0xcc, 0xcb, 0xc3, 0xe3, 0x00, 0x05, 0xfe, 0xa5, 0x81, 0x89, 0xcd,
    0x05, 0xf1, 0xf7, 0xca, 0x8e, 0x9e, 0xe4, 0x07, 0xfd, 0xfd, 0x08, 0xdc, 0xd6, 0xfc, 0xff, 0x02, 0x05, 0x02, 0x01,
    0x06, 0x03, 0x00, 0xfd, 0xff, 0x03, 0x01, 0xf6, 0xfa, 0x01, 0xfd, 0xf7, 0xf9, 0xf6, 0xec, 0xf6, 0xff, 0x0f, 0x06,
    0xce, 0xb3, 0xb5, 0xfa, 0x0a, 0x04, 0x0b, 0xa4, 0x81, 0x94, 0xda, 0x0a, 0x0c, 0xfb, 0xb7, 0xa3, 0xa1, 0xd9, 0x0d,
    0xff, 0x05, 0xf0, 0xe1, 0xd0, 0xea, 0x03, 0x03, 0x00, 0x03, 0x03, 0xfe, 0xfb, 0xfd, 0xfb, 0xfc, 0xfc, 0xf4, 0xf6,
    0x01, 0x04, 0xfc, 0xf4, 0xe9, 0x07, 0x0e, 0x00, 0xf6, 0x02, 0x03, 0x30, 0x58, 0x51, 0x1d, 0xf1, 0xf7, 0x0c, 0x4c,
    0x7f, 0x76, 0x3a, 0xf7, 0x07, 0x05, 0x4a, 0x4e, 0x3a, 0x1a, 0x0c, 0x07, 0xf4, 0x0c, 0x02, 0x13, 0xf6, 0x06, 0x03,
    0x04, 0xf5, 0xf7, 0xed, 0x02, 0xec, 0x03, 0xf1, 0x03, 0x07, 0x02, 0xff, 0x03, 0x06, 0xfc, 0xe7, 0xec, 0xfc, 0xea,
    0xfb, 0x00, 0x00, 0xc4, 0xa6, 0xa5, 0xf5, 0x04, 0x06, 0xed, 0xb9, 0x95, 0x94, 0xdc, 0x06, 0x06, 0x0c, 0xba, 0x81,
    0x90, 0xe4, 0x10, 0x03, 0x0c, 0xf4, 0xcf, 0xcd, 0x01, 0x03, 0x05, 0x00, 0xf9, 0x02, 0x01, 0x01, 0x00, 0x03, 0x01,
    0xf9, 0xef, 0xf5, 0x02, 0xfd, 0x0e, 0x07, 0xfb, 0xeb, 0xf0, 0xf1, 0x07, 0xfb, 0xf1, 0x1a, 0x2d, 0x2e, 0x14, 0x08,
    0xf9, 0x11, 0x3d, 0x7f, 0x5b, 0x24, 0x00, 0xfa, 0xfa, 0x2e, 0x6e, 0x4e, 0x17, 0xf7, 0x01, 0xef, 0x08, 0x22, 0x1e,
    0xf4, 0xf4, 0x08, 0xfd, 0xf9, 0xf5, 0xf8, 0x04, 0xfd, 0x01, 0x06, 0xf8, 0xef, 0xf6, 0x01, 0x04, 0xfc, 0x09, 0x02,
    0x0b, 0x15, 0x0b, 0x06, 0xfe, 0xf5, 0x4b, 0x70, 0x52, 0x12, 0xfa, 0xf5, 0xfa, 0x51, 0x7f, 0x6a, 0x24, 0x01, 0x00,
    0xfc, 0x2f, 0x56, 0x45, 0x1d, 0xf9, 0x00, 0x02, 0xfe, 0x07, 0x14, 0x02, 0xf8, 0xf6, 0xfa, 0xff, 0xf9, 0xf8, 0xfe,
    0x00, 0xfc, 0x05, 0x01, 0x00, 0xfd, 0xf9, 0xfa, 0xff, 0x09, 0x07, 0xf9, 0x06, 0x04, 0x09, 0x03, 0xfe, 0x20, 0x2e,
    0x1c, 0x11, 0x0f, 0xf2, 0x00, 0x42, 0x7f, 0x6c, 0x20, 0x07, 0x04, 0x0b, 0x37, 0x60, 0x4f, 0x27, 0x06, 0x08, 0xfc,
    0x07, 0x1a, 0x22, 0x06, 0xf8, 0xff, 0xf9, 0xff, 0xfd, 0xf6, 0x03, 0xfd, 0x00, 0x04, 0xfb, 0xf6, 0xfc, 0x01, 0x03,
    0xfb, 0x06, 0xfb, 0xf4, 0xf9, 0xfe, 0x0d, 0x01, 0xfb, 0x1e, 0x35, 0x32, 0x15, 0xf7, 0xf4, 0xf5, 0x43, 0x7f, 0x68,
    0x23, 0xf2, 0x05, 0x04, 0x32, 0x65, 0x56, 0x15, 0xfa, 0xf9, 0x00, 0x08, 0x0e, 0x1d, 0x04, 0xfa, 0xf9, 0xfd, 0xff,
    0xfd, 0xfd, 0x03, 0xfc, 0x02, 0x00, 0x00, 0x0a, 0x06, 0xfb, 0xfe, 0x04, 0x02, 0xe9, 0xeb, 0xf7, 0x03, 0x04, 0x03,
    0xfd, 0xc4, 0xa7, 0xc5, 0xf0, 0xff, 0xf8, 0xec, 0xa1, 0x81, 0x8b, 0xcf, 0xf9, 0x00, 0x07, 0xd0, 0x9b, 0x9e, 0xf7,
    0x10, 0x05, 0x07, 0x09, 0xcc, 0xdb, 0x0d, 0x06, 0x01, 0xf9, 0x07, 0xfb, 0x04, 0x02, 0xf5,
};
const int32_t offsetBias13[48] = {
    -68751,  92750,   92032,   75800,   93567,   85413,  92750,   -58621, 89175,  93408,  78467,  77907,
    87802,   91411,   95391,   -78424,  77435,   93812,  84830,   -68710, 95678,  92886,  95993,  -97786,
    -74430,  87221,   -77108,  87814,   -86954,  80239,  -94007,  -83331, 87525,  80372,  -92936, 84417,
    -102419, -110930, -126262, -106317, -113194, 100660, -118931, 81470,  107643, 104243, 89583,  -118616,
};
const int32_t offsetRBias13[48] = {
    0, 0, 0, 0, 0, 0, 0, 0, 0, 0, 0, 0, 0, 0, 0, 0, 0, 0, 0, 0, 0, 0, 0, 0,
    0, 0, 0, 0, 0, 0, 0, 0, 0, 0, 0, 0, 0, 0, 0, 0, 0, 0, 0, 0, 0, 0, 0, 0,
};
const float scales13[48] = {
    0.003929642029106617, 0.0034328987821936607, 0.0032292783726006746, 0.003189655253663659,  0.003107973374426365,
    0.003777401987463236, 0.0038849248085170984, 0.003188319969922304,  0.004662210121750832,  0.0029228669591248035,
    0.004836248699575663, 0.003735779318958521,  0.001721695763990283,  0.006347796879708767,  0.0031474668066948652,
    0.004779139533638954, 0.0035934504121541977, 0.0032969010062515736, 0.005961515475064516,  0.0038981877733021975,
    0.004067771136760712, 0.004089721944183111,  0.00444186944514513,   0.0037199503276497126, 0.004487002734094858,
    0.003935263026505709, 0.005974354222416878,  0.006670383736491203,  0.00363289681263268,   0.0034581422805786133,
    0.006188464350998402, 0.005125011783093214,  0.0019021923653781414, 0.010741036385297775,  0.00570410443469882,
    0.004092501476407051, 0.004671715199947357,  0.004611534532159567,  0.005519271828234196,  0.0028473958373069763,
    0.003185700159519911, 0.004672981332987547,  0.003832872724160552,  0.012746717780828476,  0.007581870071589947,
    0.010081687942147255, 0.007748110219836235,  0.006368039175868034,
};
const int32_t shift13[48] = {
    -7, -8, -8, -8, -8, -8, -8, -8, -7, -8, -7, -8, -9, -7, -8, -7, -8, -8, -7, -8, -7, -7, -7, -8,
    -7, -7, -7, -7, -8, -8, -7, -7, -9, -6, -7, -7, -7, -7, -7, -8, -8, -7, -8, -6, -7, -6, -7, -7,
};
const int32_t multiplier13[48] = {
    1080171776, 1887256064, 1775314560, 1753531520, 1708626432, 2076648704, 2135760000, 1752797440,
    1281538560, 1606863104, 1329377920, 2053766400, 1893024512, 1744869120, 1730338176, 1313679872,
    1975520256, 1812490496, 1638688896, 2143051392, 1118140416, 1124174208, 1220971776, 2045064320,
    1233377920, 1081716864, 1642217984, 1833541120, 1997206144, 1901133824, 1701072128, 1408752512,
    2091482624, 1476236800, 1567932288, 1124938240, 1284151296, 1267608960, 1517125888, 1565372416,
    1751357184, 1284499328, 2107144064, 1751895552, 2084088576, 1385616640, 2129784320, 1750433280,
};
const unsigned char weight14[1152] = {
    0x32, 0xa3, 0x2c, 0xfb, 0xe6, 0xb5, 0xef, 0xdf, 0xde, 0xf9, 0x0f, 0x29, 0x6e, 0x29, 0xee, 0x19, 0x20, 0xa3, 0x68,
    0xd7, 0xea, 0x0d, 0x42, 0xbb, 0x15, 0x18, 0x1f, 0xf6, 0x0d, 0x0d, 0xe4, 0x02, 0x81, 0x1a, 0xda, 0x1a, 0xd0, 0x09,
    0xf6, 0x29, 0x4e, 0x0a, 0xe8, 0xfb, 0xd6, 0x0e, 0xf8, 0xb5, 0x1e, 0xea, 0xcd, 0xd0, 0x3d, 0x12, 0x1b, 0xa7, 0x36,
    0xf2, 0x01, 0x20, 0xe2, 0x08, 0x03, 0x43, 0x11, 0x92, 0x96, 0x34, 0xc6, 0x43, 0x11, 0x36, 0x0a, 0x2f, 0x54, 0x1f,
    0xf9, 0xf4, 0x04, 0xfc, 0x10, 0xef, 0x43, 0x03, 0xb7, 0xe3, 0x81, 0x23, 0x18, 0x14, 0xf0, 0xd1, 0x06, 0xfe, 0x69,
    0x28, 0x0c, 0x7f, 0xd1, 0xf7, 0xef, 0xf3, 0x42, 0x0e, 0xf1, 0x79, 0x04, 0x09, 0xfb, 0xf0, 0xcc, 0x16, 0xef, 0xcf,
    0xf0, 0xfd, 0xf1, 0x30, 0x0f, 0xd7, 0xf5, 0x12, 0x22, 0x06, 0xfe, 0x12, 0x03, 0xea, 0xfc, 0x04, 0x1a, 0x04, 0xf6,
    0xff, 0xf5, 0x0f, 0x04, 0xfd, 0x08, 0x02, 0x04, 0x0e, 0xfe, 0xb6, 0x5b, 0x34, 0x0d, 0x7f, 0x0d, 0xc0, 0x0c, 0x03,
    0xd7, 0xb3, 0xab, 0x16, 0xf4, 0xd0, 0xae, 0xad, 0x6d, 0xe0, 0xf0, 0xd9, 0xd1, 0x1f, 0xfa, 0x26, 0x95, 0x9c, 0xfb,
    0xd5, 0xf3, 0xe7, 0xb3, 0x75, 0xd5, 0xef, 0x0a, 0xe8, 0xf4, 0xb9, 0xd8, 0xdf, 0xcb, 0xb6, 0xef, 0xf6, 0x4e, 0xfc,
    0xf9, 0x05, 0xb7, 0xd0, 0xc8, 0x03, 0xd2, 0x90, 0x26, 0xf8, 0x2a, 0xf5, 0xd1, 0x1f, 0xc1, 0x18, 0xc0, 0x3a, 0x2c,
    0xe2, 0x13, 0xb3, 0x1d, 0x15, 0x7f, 0x1f, 0x0e, 0xc0, 0xfa, 0xf6, 0xfb, 0xe3, 0x06, 0xa7, 0x23, 0xf6, 0x1c, 0x06,
    0xf8, 0xfd, 0x2e, 0xcf, 0x03, 0x23, 0xf9, 0xeb, 0xc4, 0x08, 0xec, 0xe2, 0x32, 0x08, 0x56, 0x3c, 0xe4, 0xf4, 0xee,
    0x81, 0x0f, 0xf3, 0x0d, 0x15, 0xd2, 0xc9, 0xe2, 0xd7, 0xbe, 0xdd, 0x01, 0xf6, 0xce, 0xcb, 0xed, 0xfb, 0xe6, 0xf2,
    0x1b, 0x1b, 0xf9, 0x12, 0x27, 0xc6, 0xd0, 0x0a, 0x33, 0x46, 0x1b, 0x0f, 0x06, 0x2c, 0x32, 0x0a, 0xe0, 0xf6, 0x22,
    0xf7, 0xfd, 0x19, 0x3d, 0xba, 0xe6, 0x13, 0x43, 0x0c, 0x51, 0xc1, 0x03, 0x26, 0xdd, 0xf6, 0xe0, 0x06, 0xd3, 0x07,
    0x00, 0x35, 0xf0, 0xe5, 0xcc, 0xa6, 0x07, 0xfc, 0x12, 0x7f, 0xf4, 0xdf, 0x2d, 0xd7, 0xed, 0x10, 0xf3, 0xdb, 0x02,
    0x13, 0xe9, 0xf9, 0x06, 0x14, 0xe6, 0x03, 0x03, 0xdb, 0x00, 0xdd, 0x1d, 0xf4, 0xd8, 0xec, 0x3e, 0xf9, 0x7f, 0xbd,
    0xe5, 0xdf, 0xae, 0x0c, 0x63, 0xcb, 0xe4, 0xd5, 0x02, 0x56, 0x29, 0x04, 0xc1, 0x41, 0x1b, 0xec, 0x3e, 0xee, 0xc6,
    0x25, 0x3f, 0x34, 0xce, 0xd2, 0x28, 0xd9, 0x23, 0x52, 0xfb, 0x05, 0x58, 0x19, 0x4f, 0x37, 0x0d, 0x0a, 0xc4, 0x22,
    0x0a, 0x4a, 0xa6, 0x13, 0xcf, 0x18, 0xbc, 0xd9, 0x23, 0x0a, 0x0a, 0xce, 0xde, 0xd9, 0x6b, 0x23, 0x7c, 0xc7, 0xf7,
    0xd8, 0xbb, 0x0b, 0xeb, 0xe8, 0x3a, 0xe8, 0xc4, 0xeb, 0x7f, 0xf1, 0xb9, 0x05, 0xb9, 0x02, 0x48, 0x11, 0x0a, 0x13,
    0x2b, 0x17, 0xfd, 0xfd, 0xfd, 0xe9, 0x07, 0x2b, 0xa6, 0xca, 0x33, 0xec, 0x00, 0xf5, 0x21, 0x1a, 0x15, 0x30, 0xf4,
    0xe2, 0x30, 0x3e, 0x02, 0x81, 0x34, 0xc9, 0xdf, 0x1d, 0x17, 0x22, 0xd3, 0x1e, 0x0c, 0x2b, 0xcf, 0x06, 0x36, 0xce,
    0x33, 0x2d, 0x10, 0x1c, 0xf4, 0x29, 0x2a, 0x31, 0xd2, 0x29, 0x41, 0x03, 0x13, 0x14, 0xe4, 0x17, 0xeb, 0xe4, 0x02,
    0xb7, 0x2b, 0x1b, 0xd4, 0x14, 0x19, 0x04, 0xec, 0x45, 0x15, 0x1f, 0x16, 0x09, 0x1c, 0xdd, 0xbb, 0xd4, 0x12, 0x81,
    0x0a, 0xa1, 0x0a, 0x07, 0xfd, 0xe3, 0x27, 0x13, 0xb6, 0x09, 0x3c, 0x02, 0x2f, 0x16, 0x33, 0x02, 0x15, 0xc7, 0x0e,
    0x11, 0x0d, 0x02, 0xda, 0x10, 0x16, 0xfc, 0xf6, 0xf8, 0x24, 0xf1, 0xbf, 0x3f, 0xf7, 0x11, 0xe1, 0xba, 0x14, 0xf3,
    0xfe, 0x00, 0x7f, 0x19, 0x0b, 0x00, 0x01, 0xef, 0x12, 0xf9, 0x06, 0xdd, 0xf9, 0xbc, 0xd0, 0xe6, 0x0d, 0x04, 0x06,
    0x16, 0xfc, 0xf1, 0xe8, 0xf6, 0xf3, 0xff, 0x02, 0x05, 0x06, 0x12, 0xde, 0x02, 0x2b, 0x19, 0x1b, 0xed, 0xfa, 0xff,
    0x06, 0x0c, 0x1b, 0x06, 0xf3, 0x0f, 0xf1, 0xf1, 0x3c, 0xdb, 0x0c, 0xac, 0xda, 0xf6, 0xfa, 0x7f, 0x07, 0xfe, 0xab,
    0x0a, 0xf8, 0xee, 0xe3, 0xfb, 0xbd, 0xd1, 0x19, 0x19, 0xcf, 0x43, 0xf1, 0xec, 0xcd, 0x2d, 0x0f, 0xfb, 0x53, 0x33,
    0xba, 0xec, 0x2f, 0x07, 0x0f, 0x0d, 0xf9, 0x02, 0x1e, 0x3a, 0xf6, 0xfb, 0xfd, 0xf0, 0x16, 0x19, 0x00, 0xf7, 0xe9,
    0xf7, 0xf0, 0xf1, 0xf6, 0x04, 0xdc, 0x19, 0x04, 0xff, 0xfe, 0xf0, 0xf9, 0xff, 0xf7, 0x08, 0xde, 0xf4, 0x00, 0xe6,
    0x09, 0x2c, 0xff, 0x0f, 0x17, 0x0d, 0x06, 0x7f, 0xff, 0xf1, 0xfe, 0x06, 0x04, 0x08, 0x0c, 0x01, 0x0a, 0x0a, 0xf9,
    0x08, 0xf5, 0x0f, 0x07, 0x08, 0xfb, 0x1a, 0xfa, 0x1e, 0xe3, 0xbe, 0xec, 0xf2, 0x53, 0xbd, 0x2c, 0xd9, 0x1b, 0x3c,
    0xfe, 0x4e, 0xeb, 0xdf, 0xc9, 0x16, 0x19, 0x81, 0x24, 0x03, 0xfe, 0xe1, 0x07, 0xf8, 0x01, 0xde, 0xec, 0xfd, 0x44,
    0x34, 0x0a, 0xf0, 0xe2, 0xc6, 0x0f, 0x3a, 0xce, 0x1c, 0xd9, 0xf9, 0x2e, 0x00, 0x99, 0xf0, 0x51, 0xdf, 0x66, 0x20,
    0x1b, 0xe3, 0x3d, 0x95, 0xc9, 0x0a, 0x50, 0x0e, 0xf0, 0x04, 0x42, 0x0a, 0xdd, 0xdc, 0x09, 0xf6, 0xf4, 0x21, 0x4f,
    0x19, 0xe3, 0x1a, 0x08, 0x4f, 0xf8, 0xd1, 0x4d, 0x0b, 0xe2, 0xf7, 0x39, 0xd4, 0x1f, 0x9a, 0xfa, 0x7f, 0xe5, 0x94,
    0x18, 0x09, 0x1d, 0xed, 0x16, 0xfb, 0x00, 0xf4, 0xa2, 0x81, 0x01, 0x0d, 0x04, 0x0f, 0xe9, 0x5c, 0x23, 0x42, 0xba,
    0xda, 0x0a, 0xc7, 0xed, 0x2f, 0xfa, 0xe9, 0x6b, 0xfe, 0x22, 0xf9, 0xf4, 0x83, 0xa9, 0x10, 0x43, 0x44, 0x16, 0x15,
    0x1d, 0x04, 0x08, 0x0c, 0x2c, 0xc1, 0xd6, 0x09, 0xf2, 0xf5, 0x01, 0x12, 0x3a, 0xd2, 0x55, 0x04, 0x2a, 0xc9, 0xc4,
    0x39, 0xec, 0xe7, 0x28, 0x2c, 0xe5, 0xff, 0x20, 0xbb, 0xe6, 0xd9, 0xee, 0xfb, 0x81, 0x01, 0x0c, 0xd5, 0x0e, 0x0b,
    0xed, 0x47, 0xe4, 0xf1, 0xf7, 0x3c, 0xd6, 0x09, 0x03, 0x12, 0x00, 0xf3, 0xea, 0x05, 0xe7, 0x18, 0x25, 0xf0, 0x23,
    0x15, 0x51, 0x31, 0x0c, 0x1f, 0x0c, 0xf3, 0xda, 0x0a, 0xfa, 0x0c, 0x26, 0x81, 0xb0, 0xb9, 0x02, 0x27, 0x5f, 0xf5,
    0x1a, 0x26, 0xf5, 0xbf, 0xe5, 0xf9, 0xe5, 0x45, 0x03, 0xe2, 0xf4, 0xd9, 0x23, 0xe1, 0xdf, 0x13, 0xf5, 0x2d, 0xb4,
    0xd8, 0xdd, 0xe9, 0x0f, 0x55, 0xf8, 0x14, 0xd4, 0xcc, 0x02, 0xfb, 0xe5, 0x28, 0xe7, 0x21, 0x0d, 0x3c, 0x03, 0xf0,
    0xfb, 0xf4, 0x03, 0xae, 0x5f, 0x28, 0xc0, 0x06, 0x13, 0x3d, 0x1d, 0x81, 0xfa, 0xe7, 0x2c, 0xcf, 0xdf, 0xff, 0x0b,
    0xd5, 0xf3, 0x29, 0x3a, 0xf9, 0x06, 0xee, 0x10, 0xa8, 0xf0, 0x0d, 0xce, 0xed, 0xed, 0x25, 0x1a, 0x1c, 0xf6, 0xe6,
    0xf3, 0x2f, 0xea, 0xe1, 0xf0, 0x07, 0xfd, 0x25, 0xf3, 0x0a, 0x60, 0xcf, 0x81, 0x07, 0x18, 0xb3, 0xf2, 0xbf, 0x50,
    0x0d, 0xf5, 0x3d, 0xc4, 0xdd, 0x54, 0xeb, 0xe8, 0xee, 0x2f, 0x19, 0xc2, 0x5f, 0xba, 0xed, 0x0c, 0xcf, 0xc8, 0x29,
    0x4c, 0x14, 0xe7, 0x20, 0xf0, 0xed, 0x9d, 0x20, 0x3c, 0x16, 0x37, 0xf9, 0xe7, 0x38, 0x04, 0x45, 0x17, 0xf8, 0xbb,
    0xee, 0xf0, 0x09, 0x13, 0xcb, 0xf4, 0x0a, 0x16, 0xfc, 0x0b, 0x00, 0xf8, 0xef, 0xeb, 0xe9, 0x14, 0x0f, 0x7f, 0x05,
    0x13, 0xff, 0xe1, 0x09, 0xef, 0xfa, 0x17, 0xf6, 0xf4, 0x18, 0x2b, 0x03, 0x11, 0x09, 0xee, 0xd7, 0xff, 0x02, 0x03,
    0x1d, 0xf2, 0x00, 0xf6, 0x11, 0xf5, 0xf5, 0x07, 0xd8, 0x04, 0xe8, 0x14, 0xf9, 0x36, 0xc7, 0x53, 0x17, 0xfa, 0x18,
    0xd7, 0xfd, 0xc5, 0x7f, 0xea, 0xda, 0x1c, 0x22, 0x0f, 0xf5, 0xff, 0x07, 0xfe, 0x17, 0x0e, 0xf9, 0x27, 0x0a, 0x13,
    0xf2, 0xd8, 0x15, 0x3b, 0xfb, 0xf4, 0xd4, 0x08, 0xe0, 0x1e, 0xd2, 0x0e, 0xf5, 0xf5, 0x1a, 0x42, 0xf2, 0x06, 0xfb,
    0xcc, 0xea, 0x1d, 0xd8, 0x15, 0x07, 0xe8, 0xff, 0xef, 0xfc, 0xca, 0xf4, 0x28, 0x07, 0xb3, 0x0f, 0xf6, 0xd0, 0xf2,
    0xcd, 0x39, 0xdb, 0x14, 0xfc, 0xec, 0xd2, 0x35, 0x01, 0xe5, 0xe5, 0xec, 0x18, 0xff, 0x2c, 0x7f, 0x11, 0xf7, 0x0f,
    0xe5, 0x06, 0xe5, 0xfd, 0x29, 0xf3, 0xde, 0xe8, 0xfd, 0x01, 0x10, 0xd8,
};
const int32_t bias14[24] = {
    -124, -7208, -3981, 6229,   14033, 9626, -1534, -11209, 11879, -21032, 697,    4833,
    2928, -4095, 12065, -16129, 5309,  6465, 17507, 11300,  1927,  -5550,  -14213, 4882,
};
const float scales14[24] = {
    0.002221598596973017,  0.0019140852447495674, 0.002472283618348038,  0.0018831805300770109, 0.0025337289538891234,
    0.002602858368142932,  0.0026375495897128197, 0.0020291291021231556, 0.0024423575452486835, 0.0018282492292277846,
    0.0023951853391387524, 0.004169648592298298,  0.001943557445138951,  0.004049579691112687,  0.0015624871881414295,
    0.0021605226767389884, 0.0023364175779282763, 0.0029251776867460044, 0.0022945711663822092, 0.002489675835199834,
    0.002209085168430635,  0.003816885126526773,  0.0026778505337823853, 0.003217765252940981,
};
const int32_t shift14[24] = {
    -8, -9, -8, -9, -8, -8, -8, -8, -8, -9, -8, -7, -9, -7, -9, -8, -8, -8, -8, -8, -8, -8, -8, -8,
};
const int32_t multiplier14[24] = {
    1221336745, 2104558983, 1359152293, 2070578890, 1392932223, 1430936521, 1450008221, 1115525521,
    1342700260, 2010181286, 1316767066, 1146144278, 2136964010, 1113139989, 1717972832, 1187759903,
    1284459147, 1608133440, 1261453839, 1368713765, 1214457415, 2098354789, 1472163900, 1768985156,
};
const unsigned char weight15[3456] = {
    0x46, 0xe1, 0xeb, 0x17, 0x0d, 0x3d, 0x3a, 0x1a, 0xe5, 0x02, 0x00, 0x31, 0xe4, 0xd7, 0xfb, 0x4c, 0xc4, 0xee, 0xf9,
    0x61, 0xb3, 0x21, 0x7f, 0x36, 0xd9, 0x7f, 0xe2, 0xdb, 0x1c, 0xfe, 0xde, 0xb2, 0xfd, 0x34, 0xcd, 0x0e, 0x43, 0xd8,
    0x27, 0x15, 0x23, 0xeb, 0x49, 0x50, 0x11, 0x3b, 0x18, 0xca, 0x17, 0x05, 0xe7, 0x0d, 0x08, 0x20, 0x19, 0x57, 0x1d,
    0x08, 0xfe, 0xe7, 0x17, 0x1b, 0xed, 0x35, 0xb0, 0xca, 0xd7, 0x05, 0x34, 0x19, 0x81, 0x09, 0x5f, 0xf5, 0xfd, 0x09,
    0xf6, 0x20, 0xf7, 0xd1, 0x51, 0x02, 0xf7, 0x11, 0xd7, 0x06, 0x07, 0x0a, 0x02, 0xfc, 0xf4, 0x15, 0xf5, 0x12, 0xfc,
    0x81, 0x93, 0x26, 0xff, 0xee, 0x3d, 0x36, 0x11, 0x0d, 0xee, 0xf1, 0xe5, 0x07, 0xc0, 0xfd, 0x09, 0x10, 0x07, 0xff,
    0x09, 0xfe, 0x1b, 0x2d, 0x02, 0x7f, 0x28, 0x38, 0xd8, 0x74, 0x19, 0x23, 0x81, 0x2d, 0xc1, 0x42, 0x0c, 0x66, 0xe3,
    0xbc, 0x8b, 0xd6, 0x22, 0xa2, 0xb1, 0xb6, 0xad, 0xaf, 0xa7, 0x16, 0x1a, 0x86, 0xfc, 0xd4, 0x36, 0x7f, 0x72, 0xfd,
    0xc4, 0xdf, 0xe3, 0xbe, 0x46, 0x12, 0xc9, 0x31, 0x0d, 0xdb, 0x5e, 0x2e, 0xd5, 0xbe, 0xf6, 0xf7, 0x08, 0xdf, 0xf1,
    0xe5, 0x13, 0xf6, 0xca, 0x05, 0x14, 0xb5, 0x13, 0x0a, 0xd6, 0xfa, 0x15, 0x7f, 0x07, 0xda, 0x00, 0xe1, 0xc3, 0xcd,
    0x15, 0x1e, 0x29, 0x01, 0xe1, 0xcb, 0x11, 0x13, 0xfe, 0x7f, 0x3b, 0xf5, 0x07, 0x16, 0xb4, 0x2c, 0xcf, 0xab, 0xe0,
    0xee, 0xfd, 0x20, 0xda, 0x61, 0xb8, 0x1d, 0xee, 0xe8, 0xdf, 0xe0, 0xc4, 0x13, 0xb9, 0x00, 0xd7, 0x03, 0xec, 0xc9,
    0x7f, 0xe9, 0xf2, 0x35, 0x22, 0x96, 0xf0, 0x52, 0xec, 0x0b, 0x18, 0x08, 0x0d, 0x3c, 0x06, 0xe3, 0xcc, 0x7f, 0x2c,
    0x20, 0xe5, 0x23, 0xd9, 0xe4, 0xf1, 0xe9, 0x1f, 0xcc, 0xe1, 0xe8, 0xe7, 0xfa, 0xfe, 0xfc, 0xfe, 0xfc, 0x2c, 0xf1,
    0x08, 0xee, 0x08, 0x03, 0x03, 0x59, 0xca, 0x4c, 0xdd, 0x03, 0xf3, 0xe5, 0xff, 0x20, 0x2c, 0xf3, 0x24, 0x81, 0xf9,
    0x1f, 0x22, 0xec, 0xe0, 0xec, 0x05, 0xbf, 0x27, 0x29, 0x07, 0xd0, 0x0c, 0xd5, 0x23, 0x18, 0xab, 0xf1, 0xeb, 0x81,
    0xee, 0x2a, 0x09, 0x04, 0xcd, 0xc2, 0x34, 0xe0, 0x09, 0x07, 0xce, 0xd6, 0xef, 0xe1, 0xfb, 0x19, 0xfd, 0x04, 0x1b,
    0x31, 0x02, 0xec, 0x23, 0x7f, 0xfa, 0x06, 0xde, 0xe1, 0xea, 0xc2, 0xfb, 0x1b, 0xd3, 0x18, 0xe8, 0xd8, 0xd7, 0xaa,
    0xe5, 0x81, 0xa2, 0x5b, 0xf6, 0xfb, 0x4d, 0x0d, 0xcf, 0x9a, 0x1d, 0xd6, 0x16, 0x3f, 0xe0, 0x9d, 0x77, 0xe6, 0x98,
    0x1f, 0x06, 0x0e, 0x2f, 0xfa, 0x15, 0x21, 0xd1, 0x0c, 0xeb, 0xfd, 0x0d, 0xf9, 0xed, 0xf6, 0xfa, 0x05, 0x0e, 0xfb,
    0x25, 0x16, 0x03, 0x7f, 0x45, 0x0e, 0x1f, 0x08, 0x70, 0x33, 0xe5, 0x2d, 0x51, 0xd3, 0x05, 0xe9, 0x81, 0x2e, 0xd5,
    0xfe, 0x84, 0xf5, 0xfc, 0x0f, 0x49, 0xf3, 0xa2, 0x1d, 0x11, 0x07, 0x04, 0xd0, 0xfd, 0xf5, 0xeb, 0x1f, 0x2c, 0xd6,
    0xcf, 0x01, 0x9d, 0xf9, 0xe1, 0xcb, 0xf4, 0x2c, 0x3e, 0xce, 0xd3, 0x16, 0x81, 0x16, 0x1a, 0x13, 0x7f, 0xe2, 0xea,
    0xe7, 0x06, 0x02, 0xe9, 0xde, 0xf5, 0x2e, 0x36, 0xdc, 0x11, 0x1b, 0x30, 0xfe, 0x03, 0xfb, 0x09, 0x00, 0x08, 0x0c,
    0xf2, 0xdc, 0xe6, 0xc1, 0x21, 0xf4, 0xd6, 0xfa, 0x38, 0xc8, 0xfd, 0x31, 0x81, 0xf6, 0xfd, 0x44, 0xe5, 0xe2, 0x01,
    0xf0, 0xe0, 0xd8, 0xf2, 0x19, 0xe8, 0xc1, 0x03, 0x0f, 0xbb, 0xf6, 0x37, 0xd7, 0xd7, 0xf5, 0x3b, 0xff, 0x58, 0x06,
    0x3e, 0x30, 0xcd, 0xf9, 0xcb, 0xd8, 0x0d, 0x81, 0x67, 0x14, 0xeb, 0xcf, 0xde, 0xea, 0xb9, 0x12, 0xd5, 0x64, 0xde,
    0x43, 0x59, 0xf2, 0x31, 0x1a, 0xdc, 0xed, 0xf9, 0x7d, 0x81, 0x14, 0xaf, 0x1c, 0x36, 0xff, 0xfb, 0xd5, 0x06, 0x20,
    0xf2, 0xc0, 0xf1, 0xe4, 0xe4, 0xee, 0x42, 0x0e, 0x61, 0x05, 0xf0, 0x7f, 0x26, 0xe0, 0xfd, 0xbd, 0xf9, 0xe7, 0xfd,
    0x0f, 0x29, 0x29, 0xa0, 0x0a, 0xf6, 0xb4, 0x50, 0xa9, 0xed, 0xd1, 0xfa, 0x05, 0x21, 0x43, 0x66, 0xfb, 0x06, 0x37,
    0x7f, 0xba, 0xd0, 0x9c, 0xb1, 0x12, 0x2e, 0x4e, 0xce, 0xc8, 0x15, 0x24, 0xfa, 0x7f, 0x3e, 0xcf, 0xdf, 0xd2, 0xa9,
    0xa7, 0x3d, 0x38, 0xa8, 0xdc, 0xef, 0x24, 0x4a, 0x61, 0x88, 0xed, 0xf4, 0x0a, 0x00, 0x11, 0x3b, 0x47, 0xf8, 0xde,
    0xf3, 0xb9, 0xf7, 0x02, 0xb7, 0xf3, 0xd2, 0x81, 0x10, 0x1d, 0x35, 0xf9, 0xf0, 0xbc, 0x7b, 0xd3, 0xda, 0x0c, 0x20,
    0xd9, 0x16, 0x22, 0x0a, 0x14, 0x20, 0x07, 0xed, 0xbb, 0xd1, 0xf9, 0x06, 0x81, 0xe3, 0x27, 0x17, 0x0b, 0xb4, 0xac,
    0x64, 0xe8, 0xcd, 0xfd, 0xe0, 0xab, 0x0f, 0x30, 0x07, 0x43, 0x28, 0x49, 0x16, 0x3c, 0x70, 0xbd, 0x7b, 0xef, 0x2b,
    0x5a, 0x81, 0x22, 0x27, 0x9b, 0xd6, 0xdc, 0x01, 0xf9, 0x27, 0x04, 0x04, 0x00, 0xf0, 0xe7, 0xf2, 0xf8, 0xe2, 0x0f,
    0x0a, 0x7f, 0x04, 0x03, 0x11, 0xfb, 0xed, 0x18, 0xf9, 0x17, 0x13, 0x08, 0xe4, 0xed, 0x49, 0x31, 0x14, 0x0a, 0xbf,
    0xdf, 0x16, 0x12, 0x23, 0x81, 0x09, 0xe3, 0xe5, 0x18, 0xd7, 0x41, 0x13, 0x2d, 0xff, 0xfb, 0x07, 0xf5, 0x07, 0xe3,
    0x23, 0xb2, 0xe8, 0xfd, 0x14, 0xe1, 0x0d, 0x03, 0xe8, 0xe6, 0xa9, 0xd0, 0xe2, 0x81, 0xe8, 0x0a, 0x11, 0x0e, 0x1b,
    0xcd, 0x56, 0x0c, 0x08, 0x2a, 0x81, 0x2d, 0x17, 0xfc, 0xed, 0x0a, 0xf7, 0x52, 0xfe, 0xe2, 0xbe, 0x08, 0x04, 0x1e,
    0xfa, 0x2f, 0x1d, 0xf1, 0x04, 0x10, 0x16, 0xf6, 0x2c, 0x09, 0x02, 0x46, 0xbc, 0x1b, 0x52, 0x2c, 0xcf, 0xbd, 0x51,
    0xee, 0xe8, 0x1b, 0x14, 0x22, 0xe8, 0xfe, 0x81, 0x1a, 0x0a, 0x6a, 0x70, 0x0c, 0xb6, 0xc8, 0xff, 0x04, 0x04, 0xdc,
    0x32, 0x10, 0x10, 0x26, 0xf0, 0x02, 0xfb, 0x10, 0x1f, 0xd7, 0xf5, 0x81, 0xf7, 0x06, 0x01, 0x19, 0x0a, 0xc8, 0x63,
    0xf3, 0xfe, 0x3d, 0xe5, 0xde, 0x02, 0xd7, 0x54, 0x0b, 0xf7, 0x0c, 0x19, 0x09, 0xcf, 0x03, 0x06, 0xf2, 0xfa, 0x08,
    0xf6, 0xef, 0xee, 0x81, 0xb4, 0x92, 0x97, 0xc9, 0xd7, 0x81, 0x2e, 0x1d, 0x08, 0x35, 0xd7, 0x88, 0x0a, 0x03, 0x10,
    0x15, 0xc1, 0x29, 0x54, 0xaf, 0xff, 0xfc, 0xf4, 0xc9, 0xec, 0xbb, 0x42, 0x03, 0x09, 0x3c, 0x09, 0xe8, 0xe9, 0x18,
    0x17, 0xf3, 0xd6, 0x3e, 0x43, 0xce, 0x58, 0xda, 0xc0, 0x90, 0xea, 0x92, 0x81, 0xf6, 0x26, 0xf5, 0x1c, 0xe0, 0xe9,
    0x5d, 0xeb, 0x3c, 0x15, 0xb2, 0x12, 0x30, 0xd0, 0x6c, 0x1a, 0x09, 0xfb, 0x5f, 0x81, 0xc0, 0xf5, 0xc8, 0xb6, 0x25,
    0x2f, 0xe5, 0x23, 0xc2, 0xf1, 0xde, 0x9b, 0x3f, 0x7c, 0x18, 0x96, 0x25, 0xda, 0x45, 0xd1, 0xc5, 0xd2, 0xf2, 0x1e,
    0xf3, 0xdf, 0xb6, 0x7f, 0x63, 0x03, 0xe5, 0xe6, 0x09, 0xcd, 0x79, 0xe4, 0x6d, 0xe4, 0xf7, 0x20, 0xde, 0x24, 0xfa,
    0x70, 0x7f, 0x06, 0xf5, 0xa0, 0xa6, 0xfc, 0xe0, 0xb1, 0x0c, 0xfc, 0x9a, 0x5b, 0x5f, 0xde, 0x02, 0xe5, 0x47, 0x35,
    0xf9, 0x1b, 0x09, 0x0b, 0xa4, 0xaa, 0xb8, 0x1b, 0xe7, 0x81, 0x9b, 0xfb, 0xc0, 0x8e, 0x2d, 0xdd, 0xd1, 0xb1, 0xcf,
    0x84, 0x7f, 0xcd, 0x0e, 0xaf, 0x18, 0x27, 0x29, 0x49, 0x11, 0x66, 0xc8, 0x10, 0x6c, 0x98, 0xcc, 0xf7, 0xbd, 0x02,
    0xed, 0x18, 0x19, 0x19, 0x13, 0xec, 0x07, 0x81, 0x0d, 0xcb, 0x01, 0xfc, 0x25, 0x09, 0x19, 0xeb, 0xda, 0x00, 0xeb,
    0xb1, 0x06, 0x00, 0x23, 0x14, 0x0e, 0x21, 0xfb, 0xce, 0x2f, 0x2a, 0x30, 0x07, 0x5c, 0x39, 0x81, 0x28, 0xd2, 0xd2,
    0x35, 0xe3, 0xc3, 0xf3, 0x4b, 0xd2, 0x6d, 0xad, 0x64, 0xab, 0x0c, 0xf3, 0xd4, 0xc4, 0xe6, 0xc0, 0xc6, 0xb3, 0xf2,
    0x86, 0xb8, 0xce, 0x25, 0xac, 0xfb, 0xe4, 0x17, 0xa2, 0x4a, 0xfc, 0x02, 0x7f, 0x1c, 0xc9, 0xce, 0x1d, 0x47, 0xe0,
    0x7f, 0xfb, 0xe3, 0xdd, 0x05, 0xdf, 0xf8, 0x37, 0xdd, 0xc5, 0xe1, 0xb6, 0xb3, 0xde, 0xd8, 0xa0, 0x14, 0x01, 0xb2,
    0xdf, 0x13, 0x53, 0xd6, 0xf5, 0x3d, 0xef, 0xdf, 0x4a, 0x1b, 0x06, 0x84, 0xaf, 0x03, 0xcc, 0x1c, 0xf0, 0x34, 0xdf,
    0x08, 0x26, 0x31, 0xcd, 0x7f, 0x55, 0x4e, 0x13, 0xe2, 0x05, 0xe6, 0x01, 0x8d, 0xb9, 0x81, 0x36, 0xda, 0x1e, 0x6f,
    0x8a, 0xdb, 0x04, 0x7b, 0x09, 0x9a, 0xfb, 0xc0, 0x27, 0x14, 0xb4, 0x1a, 0xe9, 0xf9, 0x0f, 0x48, 0xc3, 0xbe, 0x0e,
    0x04, 0x15, 0x1f, 0x19, 0xef, 0x43, 0x0e, 0x8b, 0x56, 0xfb, 0xf7, 0x9b, 0xc8, 0x40, 0x7f, 0x0e, 0x10, 0xf0, 0x2f,
    0xf0, 0xf8, 0x0d, 0xfb, 0x28, 0x05, 0xff, 0xed, 0xd6, 0x09, 0xe9, 0xcf, 0x21, 0x11, 0x04, 0x1c, 0xfc, 0x7f, 0xda,
    0xc4, 0xc8, 0xf3, 0xf0, 0x25, 0xdb, 0xf1, 0xee, 0xe2, 0x88, 0xff, 0x1a, 0xe8, 0xc5, 0x1a, 0x30, 0xf1, 0xfc, 0xd0,
