const unsigned char weight0[432] = {0xff, 0xfd, 0x0b, 0x35, 0x3c, 0x11, 0x0a, 0x12, 0x05, 0xa1, 0x8d, 0xd8, 0x2c, 0x06, 0xfd, 0xd1, 0xc5, 0xdc, 0xeb, 0xe1, 0xed, 0x7f, 0x7b, 0x44, 0xee, 0xfd, 0xf4, 0x23, 0x2e, 0xfe, 0x44, 0x3b, 0x20, 0xe9, 0xc6, 0xf1, 0x13, 0x1e, 0x1a, 0x17, 0x07, 0x0c, 0xa2, 0x81, 0xc7, 0xf5, 0x08, 0x01, 0xf4, 0xf5, 0xec, 0xd7, 0xdd, 0xfe, 0xf8, 0x1e, 0xec, 0x05, 0xfe, 0xf9, 0xcc, 0xab, 0xfe, 0x44, 0x76, 0x25, 0x65, 0x66, 0x47, 0x99, 0x81, 0xc7, 0x05, 0x25, 0xff, 0x25, 0x15, 0x14, 0xbc, 0x9b, 0xd8, 0xfc, 0xf9, 0x03, 0xd5, 0xcb, 0xe8, 0x8c, 0x81, 0xc3, 0x06, 0x05, 0x01, 0x3b, 0x3a, 0x17, 0x62, 0x68, 0x39, 0xff, 0xff, 0x03, 0x02, 0x05, 0xfb, 0x11, 0x10, 0xfb, 0xeb, 0xfc, 0x04, 0xfc, 0xf1, 0xf1, 0x4d, 0x63, 0x1d, 0xc6, 0xa7, 0xea, 0xb4, 0x81, 0xcb, 0x34, 0x4e, 0xf6, 0xf1, 0xec, 0x01, 0x06, 0x06, 0x0c, 0x20, 0x5c, 0x20, 0xfc, 0x0e, 0xf8, 0x05, 0xd7, 0x25, 0x17, 0x07, 0xe1, 0x51, 0xc4, 0xe8, 0x66, 0xdc, 0xb8, 0x20, 0x02, 0xdb, 0x7c, 0x81, 0xfe, 0x7c, 0xd3, 0xb4, 0x03, 0x01, 0xfe, 0xcd, 0x62, 0xcd, 0xcf, 0x52, 0xe2, 0x36, 0xc1, 0x03, 0xb4, 0x7f, 0xcc, 0xe2, 0x61, 0xc2, 0x2f, 0xca, 0xff, 0xdf, 0x6f, 0xb5, 0x08, 0x3a, 0xbe, 0xf3, 0xfa, 0x18, 0xf7, 0xfc, 0x01, 0xf7, 0x00, 0xf4, 0x04, 0x07, 0xfc, 0x09, 0x0e, 0x01, 0x50, 0x56, 0x26, 0x6c, 0x6a, 0x3d, 0xfc, 0xf5, 0x03, 0xc6, 0xc4, 0xe8, 0x8d, 0x81, 0xc1, 0x10, 0x0d, 0x11, 0x95, 0x81, 0xca, 0xea, 0xd5, 0xf6, 0x1a, 0x1c, 0x0c, 0xed, 0xf5, 0xfc, 0x03, 0x08, 0x07, 0xfd, 0x01, 0xef, 0x43, 0x55, 0x27, 0x21, 0x2e, 0x0d, 0x02, 0x18, 0xf2, 0x10, 0x53, 0xe2, 0x0b, 0x74, 0xec, 0xf3, 0x0c, 0x05, 0x33, 0x56, 0x20, 0x56, 0x7f, 0x22, 0xd7, 0x02, 0x10, 0xeb, 0x13, 0x36, 0x0e, 0x2a, 0x35, 0x07, 0x05, 0x0c, 0xe5, 0xeb, 0xf5, 0xfe, 0x12, 0x00, 0x36, 0x29, 0x2d, 0x81, 0x93, 0xa1, 0x48, 0x4d, 0x3d, 0xfa, 0x03, 0x04, 0x14, 0x13, 0x11, 0xe1, 0xee, 0xed, 0xbf, 0x38, 0x0c, 0xa3, 0xff, 0x61, 0x06, 0xdb, 0x23, 0xa4, 0x6f, 0xeb, 0x81, 0x42, 0x3f, 0xcd, 0xf8, 0x3c, 0xe8, 0x3f, 0xd5, 0xd1, 0x41, 0xe9, 0xcf, 0x29, 0x07, 0x14, 0x06, 0xe5, 0x43, 0xed, 0xd0, 0x2e, 0x16, 0xbf, 0x14, 0xe6, 0x07, 0x70, 0x99, 0xf8, 0x7f, 0xc9, 0xbc, 0xea, 0xf9, 0x1d, 0x1d, 0xb3, 0x35, 0x29, 0xd0, 0x0b, 0x1f, 0x37, 0x05, 0xfd, 0x07, 0x0b, 0x0d, 0x05, 0x0b, 0x3a, 0x3e, 0x20, 0x8e, 0x81, 0xba, 0xe6, 0xd0, 0xef, 0x32, 0x31, 0x0e, 0xee, 0xf2, 0xfe, 0x16, 0x0d, 0x08, 0xfc, 0xf8, 0x04, 0x01, 0x06, 0xf1, 0x00, 0xfd, 0x08, 0x03, 0xfa, 0xfb, 0x32, 0x41, 0x07, 0xc8, 0xbf, 0xf8, 0x01, 0xff, 0xff, 0x6d, 0x7f, 0x37, 0xa6, 0x8a, 0xcd, 0xd1, 0xf3, 0xf7, 0x07, 0x1d, 0xfd, 0xb3, 0x92, 0x04, 0x01, 0x0d, 0xf3, 0x72, 0x6e, 0x00, 0x9b, 0xa6, 0xbc, 0x18, 0x2c, 0x40, 0x7f, 0x7f, 0x2a, 0x61, 0x3f, 0x28, };
const int32_t bias0[16] = {19775, 59875, 53300, 6190, 16833, 50786, 20303, 15051, 5087, 111497, 19515, 84984, 47231, 9392, 10841, 69069, };
const int32_t shift0[16] = {-7, -9, -8, -6, -7, -9, -7, -7, -5, -10, -7, -9, -8, -6, -6, -9, };
const int32_t multiplier0[16] = {1892559872, 2140132992, 1404175744, 1455040000, 1441550720, 1891861120, 1476500992, 1397582080, 1728492544, 1746575872, 1245060480, 1765050368, 1415776640, 1949819392, 1730999296, 1641755520, };
const unsigned char CHWweight1[144] = {0xff, 0xfb, 0x10, 0x01, 0x13, 0x7f, 0xfe, 0xfb, 0x0d, 0xf2, 0x09, 0x11, 0x1b, 0x81, 0xc9, 0xde, 0xd1, 0x2a, 0xfe, 0xf1, 0x0e, 0x06, 0x3b, 0x7f, 0xfd, 0xfb, 0x07, 0x02, 0x09, 0x03, 0xf3, 0x81, 0x05, 0x04, 0x15, 0x01, 0x06, 0xfa, 0x00, 0xf8, 0x81, 0x7e, 0xfe, 0x05, 0xf5, 0x03, 0x0d, 0xec, 0x0f, 0xab, 0x7f, 0xed, 0x2b, 0xdf, 0x00, 0x0c, 0xcd, 0x02, 0xd0, 0x7f, 0xf4, 0x23, 0xe7, 0x05, 0x0e, 0x06, 0xfb, 0x81, 0xf6, 0x02, 0x01, 0x03, 0xfd, 0x10, 0x0c, 0x07, 0x1c, 0x81, 0x05, 0xfd, 0x0f, 0xed, 0x6d, 0x06, 0x07, 0x36, 0x25, 0x09, 0x81, 0xd1, 0xff, 0xff, 0xd1, 0xf6, 0x03, 0x7f, 0x04, 0x01, 0xc3, 0xfb, 0xfb, 0x09, 0x0e, 0x7f, 0x91, 0xe7, 0x3e, 0xdb, 0x12, 0xaf, 0x04, 0xfd, 0xd2, 0xde, 0xf1, 0x7f, 0x19, 0x00, 0x01, 0x06, 0x03, 0x15, 0x81, 0x02, 0x00, 0xfa, 0x05, 0x75, 0xe5, 0xfb, 0x81, 0x11, 0x03, 0x07, 0x08, 0x05, 0x1e, 0xe2, 0xf7, 0x7f, 0xb6, 0x00, 0xf5, 0x12, };
const int32_t offsetBias1[16] = {21660.0, 11418.0, 5149.0, 3506.0, 3428.0, 4229.0, 16706.0, 755.0, 12111.0, 7569.0, 577.0, 2873.0, 3726.0, 15599.0, 26240.0, 14005.0, };
const int32_t offsetRBias1[16] = {0.0, 0.0, 0.0, 0.0, 0.0, 0.0, 0.0, 0.0, 0.0, 0.0, 0.0, 0.0, 0.0, 0.0, 0.0, 0.0, };
const int32_t shift1[16] = {-7, -6, -6, -6, -4, -4, -6, -6, -6, -5, -6, -4, -4, -7, -7, -6, };
const int32_t multiplier1[16] = {1627266176, 1194244864, 2003207424, 1318346624, 1164038144, 1648351488, 1590501632, 1680835840, 1487073152, 1112589312, 1709517312, 1479177856, 1121469056, 1848181120, 1313169664, 1289287552, };
const unsigned char weight2[256] = {0xe4, 0x27, 0x19, 0x6b, 0x07, 0x09, 0x04, 0x18, 0x0f, 0x2b, 0xd5, 0x27, 0x90, 0x13, 0x7f, 0xf8, 0x0e, 0xff, 0x0a, 0x10, 0x03, 0x81, 0x17, 0x04, 0xf9, 0x00, 0x0e, 0x6a, 0x2e, 0xf5, 0xff, 0xf0, 0xe9, 0xec, 0xe4, 0xaa, 0x04, 0x01, 0xf8, 0xf2, 0x00, 0x02, 0x08, 0x22, 0xd9, 0x81, 0x4f, 0x14, 0xdf, 0xef, 0xd1, 0x1d, 0x21, 0x24, 0x09, 0xf5, 0x19, 0xf0, 0x7f, 0x2b, 0xe0, 0x06, 0xb3, 0x32, 0xef, 0x04, 0x08, 0x85, 0x19, 0x20, 0xee, 0x7f, 0x4e, 0x13, 0x39, 0x08, 0x60, 0x25, 0x55, 0xe5, 0x81, 0x26, 0x1e, 0xb3, 0x4e, 0x25, 0xf5, 0x88, 0xb4, 0x43, 0xa0, 0x1d, 0x2b, 0x5d, 0xf3, 0x56, 0x03, 0x1e, 0x5e, 0xe0, 0xd4, 0x0b, 0xfe, 0xfe, 0xdc, 0x19, 0x7f, 0x14, 0xde, 0x2a, 0x1c, 0x05, 0x31, 0x38, 0xfa, 0x02, 0xfd, 0xf6, 0x81, 0xf6, 0xfd, 0xff, 0xf3, 0x08, 0x00, 0x04, 0xfe, 0x15, 0x1c, 0xcd, 0xd9, 0xce, 0xfe, 0x35, 0xea, 0x7f, 0xcd, 0x4c, 0xe7, 0x55, 0xd3, 0x30, 0xcf, 0xd0, 0x68, 0x7f, 0x0b, 0xf6, 0x16, 0xfc, 0x62, 0x42, 0xdb, 0xb3, 0xe0, 0x02, 0x05, 0xf6, 0xf6, 0x2d, 0xe6, 0x08, 0xb3, 0xef, 0x19, 0x93, 0x0a, 0x2f, 0xd5, 0x18, 0x46, 0x81, 0xe3, 0x43, 0x4e, 0xea, 0xaf, 0x7f, 0xd9, 0xea, 0xda, 0x08, 0x00, 0xf1, 0x0f, 0xe8, 0xf1, 0x0c, 0xfc, 0x04, 0xe8, 0xd2, 0xde, 0xfa, 0x02, 0x10, 0xf9, 0x05, 0xf8, 0x37, 0x0a, 0xe1, 0xff, 0x08, 0xff, 0x0e, 0x14, 0x7f, 0xb0, 0x0e, 0x1d, 0x41, 0xf7, 0xef, 0xdb, 0x7f, 0xde, 0x70, 0x10, 0xc4, 0x25, 0xa2, 0x96, 0x1a, 0xff, 0xee, 0x25, 0x87, 0x04, 0xac, 0x03, 0x18, 0x3e, 0x10, 0xdf, 0xda, 0x84, 0x13, 0x81, 0x0f, 0xf0, 0xf3, 0x12, 0xfb, 0x14, 0xfa, 0xb8, 0xff, 0xf5, 0x81, 0x0a, 0x07, 0xcf, 0xef, 0xfb, 0xda, };
const int32_t bias2[16] = {-32321, -10239, 18773, -2780, -39007, -10428, -11083, 10127, -2550, -45370, 25621, 14826, -17035, 16126, 40218, 40559, };
const int32_t shift2[16] = {-9, -9, -8, -8, -9, -9, -9, -8, -9, -9, -9, -8, -8, -9, -9, -9, };
const int32_t multiplier2[16] = {1695550336, 1269979264, 1213658880, 1162556160, 1795832960, 1316572672, 1960593408, 1175517824, 1965959296, 1459963008, 1702347520, 1207651200, 1717963264, 1718480128, 1679209984, 1751170176, };
const unsigned char weight3[512] = {0x07, 0x7f, 0xf4, 0x01, 0x1c, 0x1e, 0x00, 0x3b, 0xe3, 0xe3, 0x08, 0xf2, 0xea, 0x1f, 0xf3, 0xb6, 0xd8, 0x08, 0xf1, 0xfe, 0xf0, 0xf5, 0x04, 0xf7, 0xd7, 0x53, 0xf2, 0x31, 0x32, 0xe8, 0xe7, 0x7f, 0x47, 0x00, 0xd8, 0x57, 0x38, 0xe6, 0x7f, 0xf9, 0xee, 0xfe, 0x48, 0xd4, 0x32, 0x1e, 0xcc, 0xee, 0xf9, 0x06, 0x2c, 0x1b, 0xd8, 0x14, 0x03, 0xe8, 0xf0, 0x81, 0xbc, 0xd9, 0xe0, 0x3e, 0x1e, 0x97, 0x60, 0x08, 0xce, 0x23, 0xce, 0x81, 0xb8, 0xfe, 0xbc, 0xf1, 0xdb, 0xd7, 0x23, 0x30, 0xb7, 0xcf, 0x12, 0x07, 0x34, 0x1e, 0xe9, 0x0f, 0xce, 0xd9, 0x06, 0xf9, 0x01, 0x7f, 0xee, 0x60, 0xcc, 0x2b, 0xfd, 0xf7, 0xef, 0x55, 0x09, 0x64, 0x97, 0x08, 0x45, 0x22, 0x74, 0x81, 0x22, 0x8a, 0xbf, 0xee, 0x3c, 0xcb, 0x18, 0xf1, 0xb2, 0xd4, 0x0c, 0xf3, 0xe0, 0x01, 0x6c, 0xee, 0xfe, 0x05, 0x7f, 0x20, 0x09, 0x4a, 0x06, 0x00, 0xe7, 0xf2, 0x0d, 0x81, 0xf6, 0x42, 0x1b, 0x0b, 0x02, 0xe8, 0x1c, 0xd0, 0x0d, 0x7f, 0x03, 0xfc, 0xf2, 0xfe, 0xf6, 0x05, 0xfc, 0xf4, 0x16, 0x02, 0x05, 0xfe, 0x23, 0x0a, 0xf4, 0x04, 0xd8, 0xd6, 0x29, 0xbb, 0xe8, 0x0f, 0x4f, 0x17, 0x1a, 0x7f, 0xcb, 0xb3, 0xfd, 0x06, 0xb0, 0xcb, 0xe0, 0xa5, 0xef, 0xe8, 0xfe, 0xe7, 0x81, 0xef, 0x73, 0xd0, 0x0e, 0x46, 0x21, 0x03, 0xd8, 0x1c, 0x22, 0xcd, 0xe7, 0x84, 0x9c, 0x44, 0xe9, 0x65, 0xb3, 0x9f, 0x81, 0xb4, 0xe8, 0x2d, 0x0f, 0x06, 0xb3, 0x1b, 0x18, 0xd9, 0xb8, 0x10, 0x46, 0x2f, 0x54, 0x74, 0x81, 0xba, 0xe4, 0x15, 0x05, 0x15, 0x86, 0xa9, 0x17, 0xa6, 0x75, 0x29, 0x11, 0x50, 0xab, 0x9c, 0x81, 0xba, 0x34, 0x0c, 0x82, 0x37, 0xd9, 0xe1, 0x51, 0x11, 0xe1, 0xc0, 0xde, 0xef, 0xd3, 0xf0, 0xf5, 0x1b, 0x81, 0x87, 0x1f, 0x81, 0x05, 0x06, 0xfb, 0x09, 0xf8, 0x0f, 0x15, 0xe7, 0xff, 0xf1, 0xed, 0x0b, 0x15, 0xf9, 0x0c, 0x03, 0x1f, 0xc2, 0xe0, 0x4c, 0x2c, 0xcf, 0xb6, 0x0b, 0x8a, 0x81, 0x58, 0x49, 0x3a, 0x2a, 0xb7, 0xf7, 0x1f, 0x7f, 0x50, 0xfe, 0xae, 0xe5, 0x01, 0x1d, 0x2c, 0xc2, 0x53, 0x00, 0x4c, 0x2c, 0xd8, 0xef, 0xf2, 0xf0, 0x04, 0x7f, 0x20, 0xe4, 0xc8, 0xd8, 0xf3, 0x42, 0xdf, 0xbb, 0x29, 0x2b, 0x7f, 0xe1, 0x35, 0x3c, 0xc0, 0xf0, 0x2b, 0xfb, 0x57, 0xff, 0xdf, 0x0f, 0x03, 0xcc, 0x47, 0x2f, 0xe3, 0x00, 0x5a, 0xc4, 0xb8, 0x0c, 0x21, 0x1a, 0xf3, 0x1c, 0x2b, 0xbe, 0x81, 0xb6, 0xa7, 0x1b, 0xe0, 0xf3, 0x7f, 0x0d, 0x6f, 0xd6, 0xe3, 0xd9, 0xc5, 0xc2, 0xe8, 0x36, 0xf0, 0xda, 0x51, 0x03, 0x1f, 0xf3, 0xbb, 0xf8, 0x00, 0xe8, 0xd2, 0x03, 0x16, 0x99, 0x37, 0x32, 0x81, 0xff, 0xfe, 0x8e, 0x00, 0x24, 0x07, 0xe9, 0x03, 0xff, 0x03, 0x7f, 0x15, 0xb3, 0x11, 0xf9, 0x03, 0x11, 0x13, 0x58, 0xcc, 0xf9, 0x13, 0xde, 0x47, 0xf2, 0x26, 0xe2, 0x7f, 0x6e, 0x30, 0xfb, 0x23, 0x43, 0x18, 0x2a, 0x09, 0xe7, 0x00, 0x05, 0x06, 0x08, 0xfb, 0x81, 0xf8, 0x4e, 0xee, 0x08, 0xe9, 0xf5, 0xfb, 0xb9, 0x14, 0xf6, 0x7f, 0xe0, 0xf6, 0xfa, 0x36, 0xec, 0xd0, 0xf0, 0x09, 0x37, 0x06, 0x29, 0xc8, 0x08, 0xf9, 0x17, 0xf6, 0xfc, 0x11, 0xf3, 0xf2, 0x87, 0x4b, 0x81, 0x13, 0xc5, 0xcf, 0x16, 0xe9, 0x45, 0x81, 0x08, 0xc4, 0x6f, 0x97, 0x01, 0xf7, 0x0d, 0x03, 0x0a, 0xca, 0x0c, 0xb5, 0x31, 0x40, 0x0f, 0x14, 0x1f, 0x1f, 0x28, 0x02, 0x1a, 0x22, 0x01, 0x37, 0xe9, 0x81, 0xf9, 0x2d, 0xe4, 0xdb, 0x16, 0x1e, 0xe9, 0xf9, 0x06, 0xcf, 0x49, 0x02, 0xe4, 0x9d, 0x81, 0xe9, 0x27, 0xb1, 0xb3, 0xfa, 0xf2, };
const int32_t bias3[32] = {1738, 33, 822, -307, 47, -53, -158, -190, 1767, 2174, -74, -182, -709, 14838, -318, 446, -307, -392, 25, 433, -171, -359, 19, -404, -548, 341, 3485, 237, -445, 28, 4, 1173, };
const int32_t shift3[32] = {-5, -5, -6, -6, -6, -5, -6, -6, -4, -4, -6, -6, -6, -7, -6, -6, -4, -4, -6, -6, -5, -6, -6, -6, -4, -6, -5, -6, -5, -6, -5, -4, };
const int32_t multiplier3[32] = {1527750912, 1716731136, 1358380800, 1771478400, 1705005568, 1282958080, 1392236416, 1700197248, 1843852544, 1622699392, 1592191744, 1571793920, 1513274880, 1471202688, 1788565376, 1621573120, 1128752128, 1698206720, 1176158336, 2109175040, 1297058560, 1654134272, 1797995392, 1345786752, 2072219392, 1766947968, 1277825024, 1865411072, 1634889216, 1716508544, 1091753216, 1431501568, };
const unsigned char CHWweight4[288] = {0x13, 0x27, 0x06, 0x2a, 0x7f, 0x49, 0x2b, 0x79, 0x4d, 0x16, 0x3b, 0x38, 0x2f, 0x7f, 0x66, 0x21, 0x5e, 0x4a, 0x26, 0x39, 0x1b, 0x5c, 0x7f, 0x3a, 0x45, 0x5f, 0x27, 0x2c, 0x48, 0x37, 0x42, 0x7f, 0x63, 0x1d, 0x54, 0x42, 0xe6, 0xc4, 0xd6, 0xd2, 0x81, 0x9d, 0xe6, 0xa9, 0xba, 0xd4, 0xba, 0xd8, 0xb0, 0x81, 0xbe, 0xd8, 0xb0, 0xd9, 0x2a, 0x3c, 0x20, 0x4c, 0x7f, 0x4d, 0x27, 0x5c, 0x3d, 0xed, 0xcc, 0xd8, 0xbe, 0x81, 0xb3, 0xcf, 0xb0, 0xcf, 0xe1, 0xb9, 0xe0, 0xcb, 0x81, 0xb7, 0xe2, 0xaf, 0xcf, 0x3b, 0x5e, 0x1d, 0x3a, 0x7f, 0x41, 0x2e, 0x6b, 0x46, 0xda, 0xb8, 0xd4, 0xc4, 0x81, 0xa9, 0xe0, 0xb2, 0xc0, 0x26, 0x40, 0x25, 0x3b, 0x7f, 0x55, 0x25, 0x4d, 0x48, 0x1e, 0x3f, 0x36, 0x50, 0x7f, 0x50, 0x30, 0x5c, 0x3e, 0x17, 0x29, 0x20, 0x42, 0x79, 0x54, 0x4f, 0x7f, 0x4a, 0x29, 0x41, 0x2e, 0x52, 0x7f, 0x45, 0x2f, 0x4e, 0x28, 0x10, 0x46, 0x34, 0x29, 0x7f, 0x5e, 0x1d, 0x4a, 0x3b, 0x33, 0x53, 0x36, 0x44, 0x7f, 0x54, 0x20, 0x3f, 0x20, 0xeb, 0xb4, 0xd2, 0xc1, 0x81, 0xa2, 0xdd, 0x9c, 0xab, 0x2d, 0x43, 0x25, 0x53, 0x7f, 0x54, 0x2b, 0x52, 0x36, 0x14, 0x37, 0x1d, 0x38, 0x7f, 0x58, 0x28, 0x52, 0x44, 0x16, 0x32, 0x34, 0x2b, 0x7f, 0x72, 0x1d, 0x58, 0x44, 0xd0, 0xb3, 0xd2, 0xc0, 0x81, 0x9c, 0xe8, 0xb6, 0xb5, 0x2b, 0x40, 0x1c, 0x55, 0x7f, 0x48, 0x3b, 0x5e, 0x37, 0x25, 0x4e, 0x3f, 0x41, 0x7f, 0x65, 0x27, 0x51, 0x31, 0xe1, 0xbb, 0xe1, 0xa0, 0x81, 0xb9, 0xa9, 0x96, 0xd3, 0x20, 0x52, 0x2e, 0x3f, 0x7f, 0x5e, 0x21, 0x3e, 0x37, 0x5c, 0x6e, 0x2e, 0x38, 0x7f, 0x38, 0x21, 0x69, 0x3a, 0x22, 0x48, 0x34, 0x3f, 0x7f, 0x5e, 0x2b, 0x47, 0x2d, 0x2f, 0x68, 0x4f, 0x3b, 0x7f, 0x68, 0x18, 0x2c, 0x27, 0xf1, 0xbd, 0xc5, 0xbe, 0x81, 0xa7, 0xc0, 0xa5, 0xc3, 0xf7, 0xcd, 0xcd, 0xc5, 0x81, 0xa1, 0xcc, 0xa3, 0xc3, 0xe5, 0xc0, 0xd1, 0xca, 0x81, 0xa0, 0xe7, 0xb8, 0xc4, };
const int32_t offsetBias4[32] = {79697.0, 77636.0, 92959.0, 84043.0, -3803.0, 9846.0, 82087.0, 4196.0, -11167.0, 6638.0, -6741.0, 77155.0, 80842.0, 30733.0, 78552.0, 72204.0, 88219.0, 62833.0, 80734.0, 70079.0, 76817.0, -40327.0, 99296.0, 82661.0, -68981.0, 77107.0, 40988.0, 78000.0, 90938.0, -31983.0, 8559.0, 82665.0, };
const int32_t offsetRBias4[32] = {0.0, 0.0, 0.0, 0.0, 0.0, 0.0, 0.0, 0.0, 0.0, 0.0, 0.0, 0.0, 0.0, 0.0, 0.0, 0.0, 0.0, 0.0, 0.0, 0.0, 0.0, 0.0, 0.0, 0.0, 0.0, 0.0, 0.0, 0.0, 0.0, 0.0, 0.0, 0.0, };
const int32_t shift4[32] = {-8, -8, -8, -8, -8, -8, -8, -8, -8, -8, -8, -8, -7, -7, -8, -8, -8, -9, -7, -8, -8, -7, -8, -8, -8, -8, -8, -8, -9, -8, -8, -9, };
const int32_t multiplier4[32] = {1230337408, 1383929984, 2114224896, 1791424512, 1923360768, 1653305856, 1838680192, 1837174272, 1081514752, 1101787648, 1974298624, 1723527424, 1129348864, 1788175104, 1334967296, 1604766080, 1246007296, 1248451584, 1111553024, 1759763200, 1285896704, 1216529280, 1955374080, 1754548480, 1732268160, 1732280960, 1624567552, 1828809984, 1503670400, 1847084800, 1646635904, 1749415552, };
const unsigned char weight5[512] = {0xbf, 0xc6, 0x2f, 0x1a, 0xdc, 0xea, 0x1d, 0x02, 0x7f, 0x70, 0xb5, 0xed, 0x1e, 0x8c, 0x0e, 0xbb, 0x11, 0x3c, 0xe8, 0x48, 0xaa, 0x0a, 0xea, 0xe3, 0x57, 0x2b, 0x31, 0x01, 0x02, 0x05, 0xf1, 0xe2, 0xea, 0xe8, 0x97, 0xf9, 0x2c, 0xb7, 0xf4, 0x5b, 0xf0, 0xfc, 0x36, 0x3e, 0x45, 0xf0, 0x31, 0xdb, 0xed, 0x05, 0x48, 0x2f, 0x40, 0x4f, 0x81, 0x68, 0x0c, 0xe5, 0xf9, 0x29, 0xe2, 0x79, 0x0f, 0x07, 0xe0, 0x7f, 0xe5, 0x08, 0x05, 0x27, 0x03, 0x02, 0xf2, 0xfc, 0xe3, 0x21, 0xd5, 0xce, 0xd9, 0x12, 0x0e, 0x25, 0xe3, 0xbd, 0x01, 0xea, 0x06, 0xf7, 0xdc, 0xe7, 0xdf, 0xca, 0xf5, 0x0c, 0xe7, 0xe7, 0xd8, 0x12, 0xf3, 0x07, 0x01, 0xda, 0x6d, 0xf2, 0xe1, 0x01, 0x81, 0x75, 0xd1, 0xeb, 0x55, 0xe8, 0xe4, 0xd8, 0x2b, 0xdd, 0xdd, 0x03, 0x07, 0x18, 0xf6, 0xe0, 0xe4, 0x45, 0x38, 0xf9, 0x82, 0x00, 0xbd, 0x81, 0x1d, 0xd6, 0xcc, 0xfe, 0xf9, 0x74, 0x00, 0xf5, 0x34, 0x42, 0xde, 0x5c, 0x1e, 0x89, 0xcd, 0xea, 0x23, 0x07, 0xbc, 0xf1, 0x1b, 0x08, 0xee, 0x18, 0xc2, 0x25, 0xf7, 0xe7, 0xcc, 0xe7, 0x55, 0x2e, 0x0d, 0xfa, 0xe6, 0x04, 0x0e, 0xfe, 0xe3, 0xc8, 0xf8, 0x02, 0x00, 0xfb, 0x03, 0xe7, 0x16, 0x05, 0x06, 0xbe, 0xff, 0x0a, 0xfb, 0xff, 0xf2, 0xd6, 0xfa, 0x00, 0x81, 0xfd, 0xf2, 0x99, 0xad, 0x0f, 0x1c, 0xd3, 0xf8, 0x0b, 0x0a, 0xfe, 0x09, 0xee, 0xdb, 0xf8, 0xf7, 0xfc, 0xfe, 0x08, 0x81, 0xf2, 0x00, 0x02, 0x0d, 0x06, 0x05, 0xe1, 0x17, 0x06, 0xdd, 0x0e, 0xd0, 0xef, 0x0a, 0xdd, 0x26, 0xfc, 0xee, 0x1d, 0x1f, 0x0a, 0xfc, 0xf1, 0xfd, 0xf2, 0x0b, 0xf4, 0x04, 0xfb, 0x13, 0xe8, 0x11, 0x1a, 0xf6, 0x46, 0x01, 0xfd, 0xec, 0x0b, 0x13, 0x37, 0x05, 0x28, 0x81, 0x0a, 0x06, 0x5b, 0x06, 0xf3, 0x04, 0xf4, 0x19, 0x98, 0x2a, 0xe0, 0xfa, 0x00, 0x3d, 0x04, 0xfd, 0xce, 0x7f, 0x1d, 0x09, 0x5b, 0xe1, 0xfa, 0x00, 0x19, 0x06, 0xb4, 0xe3, 0xf1, 0x10, 0x06, 0x08, 0xf3, 0x11, 0xfa, 0xa6, 0x17, 0x3b, 0x28, 0x16, 0x00, 0xd6, 0x10, 0x24, 0x7f, 0x45, 0x1c, 0x21, 0x4d, 0xe5, 0x0c, 0x0d, 0x18, 0xf4, 0x02, 0xef, 0x10, 0xf8, 0x13, 0x64, 0xf8, 0x45, 0xdb, 0xd4, 0xf5, 0xe7, 0x06, 0xfd, 0x9a, 0xdb, 0x57, 0xf0, 0xda, 0x49, 0x81, 0xd1, 0xe1, 0xa0, 0xf3, 0x0e, 0xfa, 0xe9, 0xf0, 0xff, 0x00, 0xb2, 0x17, 0x90, 0x26, 0xf6, 0x8c, 0xf6, 0x1e, 0xf1, 0xc1, 0xe4, 0x24, 0xb5, 0xfc, 0x00, 0xea, 0x2b, 0xf9, 0x71, 0xfe, 0x05, 0x0d, 0x0a, 0x0d, 0xd1, 0x12, 0xf5, 0xf7, 0x02, 0xdb, 0x05, 0xf7, 0x02, 0x8c, 0xd0, 0xff, 0x11, 0xf0, 0x13, 0x81, 0x20, 0x0b, 0xfc, 0xda, 0xe8, 0x1d, 0x20, 0x9a, 0x18, 0xa9, 0xf7, 0x30, 0xd3, 0x7f, 0x8c, 0xd5, 0x0d, 0x45, 0xf2, 0xb9, 0xe9, 0xf1, 0x0a, 0x36, 0x45, 0xff, 0x57, 0xb8, 0x0f, 0x52, 0xf2, 0xfa, 0xdb, 0x1f, 0x08, 0xd9, 0xf1, 0x07, 0x33, 0x3b, 0x14, 0xf3, 0x14, 0xd1, 0xfe, 0x24, 0x97, 0x1b, 0x12, 0xdd, 0x39, 0x00, 0xf7, 0x81, 0x4c, 0xf8, 0xfc, 0x0a, 0x8d, 0x0c, 0xf3, 0xbc, 0xf7, 0xfe, 0x47, 0xe2, 0xf6, 0x22, 0xf9, 0xf7, 0xee, 0x69, 0x30, 0x7f, 0x34, 0xf5, 0x04, 0xc8, 0xcd, 0xad, 0x07, 0xaa, 0x11, 0xe7, 0x11, 0x2e, 0xd7, 0x17, 0xe5, 0xed, 0x01, 0x07, 0x06, 0x27, 0x01, 0xe0, 0x9b, 0xe7, 0x23, 0xf5, 0x4f, 0x27, 0xd1, 0xfb, 0x9e, 0x06, 0xc3, 0x33, 0x21, 0x3d, 0x1d, 0x4a, 0x08, 0xca, 0x81, 0xcd, 0x4c, 0x0e, 0x01, 0xff, 0x03, 0xda, 0x15, 0xed, 0x10, 0x3d, 0x2f, 0x1c, 0x0f, 0x4b, 0xdd, 0x00, 0x58, 0xf8, };
const int32_t bias5[16] = {24827, -44145, 13070, 66904, 4328, 27981, 26379, -31155, -7882, -26408, 85434, -3384, -33729, -4534, -29943, -26451, };
const int32_t shift5[16] = {-9, -8, -8, -9, -8, -8, -8, -8, -8, -8, -8, -8, -8, -9, -8, -8, };
const int32_t multiplier5[16] = {2023816832, 1286007936, 1210948480, 1937815424, 1099039872, 1384012672, 1353976320, 1197780352, 1729872384, 1280466560, 1452728192, 1452894080, 1119083776, 1958094208, 1196068480, 1234043264, };
const unsigned char weight6[1024] = {0x08, 0xce, 0xcf, 0x7f, 0xf5, 0x14, 0xe5, 0xe2, 0x20, 0xf4, 0xd5, 0xb5, 0xfe, 0xe2, 0x11, 0xac, 0xec, 0x7f, 0xed, 0x8d, 0x0d, 0xfc, 0x6a, 0x00, 0x23, 0x74, 0x10, 0x7b, 0x49, 0xde, 0x70, 0xd2, 0x38, 0xc1, 0xd1, 0x21, 0x2e, 0xe4, 0x38, 0xe7, 0xf8, 0xe8, 0x00, 0x81, 0xf8, 0xfd, 0xd5, 0x33, 0xfb, 0xbf, 0x34, 0xda, 0xda, 0xd9, 0x1d, 0x4c, 0x7f, 0xe6, 0xbb, 0xbf, 0x16, 0xee, 0x5f, 0x1e, 0xfb, 0xcf, 0x04, 0x49, 0x12, 0x06, 0x0a, 0xce, 0x39, 0x09, 0xd1, 0x7f, 0x02, 0x04, 0xfb, 0xec, 0x14, 0xd9, 0xd2, 0x3c, 0xf1, 0xe9, 0xec, 0xed, 0x19, 0xf9, 0xc6, 0x81, 0xeb, 0xa2, 0xf3, 0xf6, 0x23, 0xc5, 0xd4, 0x7f, 0x30, 0xb3, 0xea, 0xca, 0x15, 0xce, 0xc4, 0xa9, 0xf9, 0xb4, 0x1d, 0xbb, 0xfe, 0x7f, 0x18, 0xc3, 0xe3, 0xd9, 0xed, 0xcb, 0xdc, 0xef, 0x34, 0xbf, 0xcd, 0x0b, 0xba, 0xe3, 0xd9, 0x4b, 0xf7, 0xda, 0x34, 0xf7, 0x03, 0xee, 0xe9, 0x07, 0x81, 0xfb, 0x3f, 0xeb, 0xde, 0x30, 0x7f, 0x18, 0xe2, 0xc7, 0x22, 0xf0, 0x2c, 0xec, 0x18, 0x1b, 0x1e, 0x23, 0xc8, 0xfd, 0xd5, 0x15, 0x0a, 0x16, 0xf5, 0x7f, 0x27, 0x2b, 0xed, 0xe0, 0x39, 0x0c, 0x0e, 0x34, 0xf2, 0xfc, 0xc4, 0xfc, 0x9b, 0x1b, 0xd6, 0xec, 0xf1, 0x2c, 0x7f, 0x1a, 0x1a, 0xb7, 0x24, 0xcb, 0xf3, 0xe6, 0x01, 0x14, 0xc7, 0x81, 0x10, 0x83, 0x15, 0xdc, 0x14, 0xef, 0xc9, 0x16, 0xc9, 0xc8, 0x0c, 0xff, 0x11, 0xef, 0x0d, 0x06, 0xc7, 0xf6, 0x1d, 0x7f, 0xea, 0x93, 0x29, 0xe2, 0x22, 0x05, 0x29, 0xef, 0xeb, 0x1e, 0x57, 0x03, 0x14, 0x81, 0xef, 0xf9, 0x20, 0x28, 0xd8, 0x26, 0xed, 0xe2, 0xae, 0xd0, 0xd4, 0x42, 0xfc, 0x87, 0x0f, 0x09, 0xe5, 0x09, 0x0b, 0xe5, 0xf9, 0xf2, 0x7f, 0x35, 0xb0, 0x1a, 0x38, 0xd1, 0xf1, 0xf2, 0x14, 0x26, 0xb8, 0xca, 0xca, 0xae, 0xc1, 0x1b, 0xfa, 0x81, 0xff, 0xaa, 0x74, 0x09, 0xc6, 0x0c, 0x14, 0x08, 0x56, 0xf6, 0x37, 0xda, 0x02, 0xa0, 0x2d, 0xe0, 0x3d, 0x85, 0x7f, 0x02, 0x1e, 0x8f, 0x0a, 0xca, 0xf3, 0xf5, 0x00, 0xf0, 0x1e, 0x07, 0x7f, 0x28, 0xaa, 0x1f, 0x3d, 0xe6, 0xf9, 0xca, 0x0d, 0x38, 0x11, 0x12, 0xfa, 0xde, 0xed, 0xee, 0x08, 0x30, 0xfa, 0xeb, 0xe4, 0x7f, 0xc8, 0x7f, 0x06, 0x32, 0xf5, 0xf5, 0xd3, 0xe9, 0xf2, 0xdf, 0x48, 0xce, 0xba, 0xf5, 0xf0, 0x30, 0x0f, 0x12, 0xfd, 0x01, 0x59, 0x14, 0x19, 0xff, 0xc8, 0xe0, 0x0f, 0x01, 0x1b, 0x4f, 0x7f, 0x1a, 0xbd, 0x86, 0x20, 0x40, 0xf4, 0x1a, 0x48, 0xe9, 0x16, 0x03, 0xc9, 0x7f, 0x32, 0xdb, 0x30, 0x19, 0xcf, 0x39, 0xed, 0x0c, 0xe7, 0xef, 0x7f, 0x8a, 0xfb, 0x08, 0x0c, 0x04, 0xf7, 0x9f, 0x6a, 0xcc, 0x7f, 0x0b, 0xd9, 0x3a, 0x41, 0xed, 0x27, 0x01, 0xf8, 0x41, 0x09, 0xac, 0xd9, 0xcb, 0xda, 0x38, 0x0d, 0xc7, 0xea, 0x45, 0xd9, 0xee, 0xfe, 0xf3, 0x11, 0xfa, 0xd0, 0x81, 0xe0, 0xa1, 0xfa, 0xe1, 0xcd, 0xfa, 0x01, 0x7f, 0x21, 0xc4, 0xd9, 0xb0, 0x23, 0xda, 0xf1, 0x3a, 0x07, 0x06, 0xf4, 0xd0, 0x87, 0xfe, 0x5c, 0x8a, 0xe7, 0x7f, 0xd8, 0x3e, 0xf3, 0xd9, 0x26, 0x23, 0x25, 0x23, 0xf6, 0xa7, 0x12, 0xa0, 0x0b, 0x08, 0xd1, 0xfc, 0x04, 0xe4, 0x16, 0xf1, 0x7f, 0x0f, 0xc0, 0x18, 0x2f, 0xd7, 0xe1, 0x29, 0x15, 0x1b, 0x12, 0x0b, 0x08, 0xe7, 0xc5, 0xf0, 0x81, 0x04, 0x42, 0xe2, 0xce, 0x49, 0x25, 0x03, 0xf8, 0x24, 0x7a, 0x00, 0x27, 0xe4, 0x27, 0xf4, 0x29, 0x13, 0x1d, 0x2b, 0x81, 0xcf, 0xcf, 0xcd, 0xf3, 0x7f, 0xe8, 0x1b, 0xff, 0x02, 0x07, 0xe3, 0xf3, 0xb0, 0x12, 0x0d, 0x28, 0xbd, 0xe1, 0xe7, 0xfb, 0xf3, 0xd0, 0x15, 0xff, 0x15, 0xe9, 0xdc, 0xed, 0x81, 0xf4, 0xea, 0x23, 0xfa, 0x36, 0xcb, 0xec, 0x87, 0xc3, 0x02, 0xc2, 0x21, 0xfc, 0xe7, 0xad, 0x81, 0xe4, 0xe1, 0x29, 0xed, 0x37, 0xd8, 0x2b, 0x44, 0x01, 0xd0, 0x06, 0x07, 0x25, 0xa6, 0x35, 0xe1, 0x7f, 0x14, 0xe2, 0xd2, 0xd8, 0x06, 0xf2, 0x7f, 0x17, 0xec, 0xe7, 0xe5, 0x23, 0xed, 0xf5, 0x28, 0x38, 0x19, 0x03, 0xee, 0xf7, 0xf5, 0xe1, 0x7f, 0x50, 0x08, 0x2a, 0x00, 0xfb, 0xfb, 0xfb, 0x06, 0xfe, 0x22, 0xf2, 0xde, 0xca, 0xb9, 0x0e, 0x3f, 0x34, 0x04, 0x2c, 0x21, 0x06, 0xf9, 0x1e, 0x7f, 0x26, 0xe2, 0xb8, 0x11, 0x4c, 0xf0, 0x81, 0xa4, 0x5e, 0xdd, 0xe2, 0x00, 0x11, 0xdf, 0x65, 0x59, 0x65, 0xc4, 0xa9, 0x35, 0xee, 0x39, 0xfc, 0xe8, 0x30, 0xf1, 0x00, 0xca, 0xd6, 0xf8, 0x81, 0x18, 0x48, 0xf7, 0xfd, 0x32, 0x23, 0x02, 0x24, 0xd2, 0x47, 0x00, 0xf3, 0x2c, 0x04, 0xa7, 0xd7, 0x09, 0xa1, 0x81, 0xf8, 0xd0, 0xfb, 0xfd, 0x17, 0x26, 0xeb, 0x9f, 0xfb, 0x7f, 0xcc, 0x06, 0xeb, 0x52, 0xda, 0xf2, 0x09, 0x15, 0xf3, 0x65, 0xda, 0x7f, 0x68, 0xee, 0x14, 0x30, 0xff, 0x23, 0x11, 0x5f, 0xa4, 0x34, 0xc0, 0xfe, 0xfe, 0xfc, 0x27, 0x81, 0x03, 0xfc, 0x12, 0x14, 0xf6, 0x20, 0xed, 0xf5, 0x00, 0x15, 0xea, 0x04, 0xbe, 0xb5, 0x27, 0x7f, 0xdc, 0xd7, 0xd4, 0xdb, 0x2c, 0x03, 0x34, 0x0a, 0xfe, 0x08, 0x28, 0xce, 0x4d, 0xda, 0x0e, 0x61, 0x06, 0x81, 0x4e, 0x4a, 0xbf, 0xf3, 0xef, 0x05, 0xec, 0xf0, 0x27, 0x69, 0x2e, 0xf2, 0xc3, 0xa8, 0x27, 0xd9, 0xd2, 0x81, 0x21, 0x04, 0x25, 0x31, 0x3a, 0xf8, 0xca, 0xe5, 0x4c, 0xc0, 0x3e, 0x57, 0xd4, 0x2c, 0x20, 0x81, 0xa5, 0xe3, 0xef, 0xf2, 0x19, 0xeb, 0xd2, 0x02, 0xbf, 0x17, 0x0a, 0xc3, 0xcc, 0x25, 0x28, 0x14, 0xcf, 0xd9, 0x00, 0x81, 0xf8, 0xfc, 0x24, 0xd1, 0x37, 0x81, 0x04, 0xc2, 0xbc, 0xfc, 0x00, 0xb2, 0xca, 0xcd, 0x38, 0xf6, 0xb6, 0xeb, 0x35, 0xcf, 0x2e, 0x81, 0x1b, 0xe9, 0x0b, 0x05, 0x0f, 0xb9, 0x1e, 0xe8, 0x6e, 0x43, 0xce, 0x10, 0x1e, 0xf5, 0x2d, 0xb0, 0xab, 0xcb, 0x6b, 0xa4, 0xd1, 0x13, 0x9e, 0x03, 0x7a, 0x9f, 0x78, 0xe5, 0x81, 0x08, 0xb8, 0x39, 0xfb, 0xc7, 0xff, 0x15, 0xf3, 0xdc, 0xa8, 0xfb, 0x81, 0x08, 0x2c, 0xf7, 0xea, 0x30, 0x1f, 0xe3, 0x02, 0x84, 0x11, 0xe9, 0x19, 0xdd, 0x7f, 0xff, 0xbe, 0xe6, 0xfd, 0x1d, 0x1b, 0x1b, 0xf6, 0x08, 0xc4, 0x7f, 0x0d, 0x1a, 0xf6, 0xfc, 0x2a, 0xf6, 0xf4, 0x18, 0x12, 0xdb, 0xf2, 0xf1, 0x63, 0x00, 0xaf, 0xf7, 0x52, 0x16, 0x30, 0x2f, 0xb5, 0xd2, 0xe2, 0x12, 0xd1, 0x7f, 0x6b, 0x7c, 0xe8, 0x38, 0x00, 0xd3, 0x0f, 0xfb, 0x1e, 0xec, 0xcb, 0xba, 0x81, 0x05, 0x77, 0xe8, 0x10, 0x26, 0x41, 0x8f, 0x2d, 0xc6, 0xf0, 0xfb, 0x0b, 0xee, 0x09, 0xd9, 0x7f, 0x09, 0xdd, 0x1c, 0x1e, 0x18, 0xdc, 0xc6, 0x59, 0xf6, 0x2a, 0x7f, 0xd4, 0x95, 0xcf, 0xe3, 0x2e, 0xe9, 0x38, 0xe5, 0xcc, 0x70, 0x18, 0x1e, 0x6f, 0x15, 0xe6, 0x56, 0x2f, 0x81, 0xdd, 0x24, 0xec, 0x33, 0xbc, 0xf3, 0xf2, 0x38, 0x1c, 0x10, 0xf5, 0x7f, 0x01, 0x17, 0x10, 0xef, 0x50, 0xe2, 0x01, 0x09, 0x09, 0xe9, 0x11, 0x27, 0x12, 0x7f, 0xeb, 0x2e, 0x13, 0xd9, 0xcc, 0x08, 0x1c, 0xd8, 0x20, 0x08, 0x12, 0x18, 0xe0, 0xf9, 0x03, 0xe4, 0xb0, 0x64, 0x35, 0xfe, 0xc7, 0x81, 0xe4, 0xe7, 0xe1, 0x97, 0x12, 0xd5, 0x73, 0xc2, 0xfd, 0xf8, 0x35, 0x29, 0x16, 0x81, 0x46, 0x16, 0x19, 0x0e, 0xf9, 0xee, 0xf6, 0xe0, 0x07, 0x39, };
const int32_t bias6[64] = {14300, -8932, 8227, 2420, 564, 12461, 11290, 974, 690, 13634, 5112, -1457, 1171, 597, 18592, -474, 2800, -1747, 657, 1339, 360, 1646, -67, -1462, -5518, 9997, 13153, 16166, 4555, -20, -695, 8511, 4883, 4589, -995, 4571, 2473, -2565, -1991, -1102, 956, -2300, -457, 2252, 5196, -1622, 2559, -2279, 815, -183, -1842, -739, 864, -1104, 4728, -336, -2826, -2835, 451, -2294, 3106, -1730, 8730, -1446, };
const int32_t shift6[64] = {-7, -6, -6, -6, -5, -7, -7, -5, -6, -6, -5, -5, -5, -5, -7, -4, -6, -5, -6, -4, -4, -5, -5, -5, -6, -7, -7, -7, -6, -4, -5, -6, -6, -6, -5, -6, -5, -5, -6, -5, -4, -5, -6, -5, -6, -5, -5, -5, -5, -5, -5, -6, -6, -5, -6, -5, -6, -5, -5, -4, -5, -5, -6, -5, };
const int32_t multiplier6[64] = {1518513792, 1679731456, 2064513024, 1708422656, 1275813760, 1459693824, 1636553984, 1595196416, 1712909056, 1166826496, 1147687936, 1144925440, 1262666752, 1295543168, 1288931456, 1171991424, 1326080128, 1427399424, 1443917696, 1635228928, 1220948864, 1486828416, 1642437632, 1190113536, 1923226752, 1497080320, 1510221312, 1737298816, 1406115072, 1177424256, 1206782208, 1211938944, 1519783680, 1177792896, 1344320640, 1603821056, 1609231872, 1870480256, 1490350336, 1684561408, 1651074304, 1507085696, 1845691008, 1452435072, 1590257152, 1099805696, 1192520064, 1147124736, 1384878080, 1101735296, 1386541696, 1906094336, 1842375040, 1256932224, 1692163456, 2113109760, 1953152128, 1411400960, 1893979904, 1177718784, 1219490176, 1269705728, 1180841984, 2003396096, };
const unsigned char CHWweight7[576] = {0xeb, 0xfb, 0xfa, 0xde, 0x5a, 0x7f, 0xe3, 0x0e, 0x4c, 0xda, 0x15, 0x13, 0x08, 0x7f, 0x4e, 0x02, 0x76, 0x5b, 0x07, 0xee, 0xdb, 0x07, 0xae, 0x81, 0xec, 0xbc, 0x9c, 0x1b, 0x3e, 0x2b, 0x23, 0x7f, 0x74, 0x0e, 0x46, 0x58, 0x11, 0x28, 0x2a, 0x11, 0x67, 0x7f, 0x03, 0x60, 0x71, 0xf3, 0x27, 0xde, 0xe9, 0x7f, 0x8b, 0x03, 0x64, 0x93, 0xcb, 0x1a, 0x22, 0x8c, 0x2d, 0x50, 0x81, 0x43, 0x4c, 0xd8, 0x29, 0x20, 0xea, 0x72, 0x7f, 0xcb, 0x66, 0x76, 0x12, 0x59, 0x15, 0x2c, 0x7f, 0x41, 0x08, 0x5c, 0x40, 0xec, 0x07, 0x7f, 0xfa, 0xa9, 0x0e, 0x12, 0x00, 0xdb, 0x04, 0x50, 0x48, 0xf9, 0x1b, 0x22, 0xef, 0x8b, 0x81, 0x10, 0x01, 0x08, 0x0a, 0x5b, 0x7a, 0x01, 0x5e, 0x7f, 0x1a, 0x22, 0x29, 0x23, 0x74, 0x7f, 0x1a, 0x4e, 0x44, 0xfc, 0xf7, 0xf3, 0xef, 0x8c, 0x81, 0xe2, 0xc9, 0xc8, 0x02, 0x1f, 0xba, 0xf8, 0x73, 0x9b, 0xed, 0x7f, 0xbb, 0x45, 0x72, 0x54, 0x44, 0x7f, 0x7d, 0x67, 0x63, 0x19, 0xed, 0xdb, 0xfe, 0xfd, 0x12, 0x48, 0x01, 0x4c, 0x7f, 0x0f, 0x45, 0x4b, 0x0c, 0x61, 0x7f, 0x0b, 0x48, 0x67, 0xdb, 0x20, 0x38, 0x13, 0x74, 0x7f, 0x1a, 0x5a, 0x7d, 0xd9, 0xda, 0xc7, 0xd0, 0xb8, 0xab, 0xd2, 0x8d, 0x81, 0xed, 0xe4, 0xf1, 0xd8, 0x81, 0xac, 0xd9, 0x90, 0xac, 0x06, 0xf4, 0x01, 0x03, 0xc0, 0xb7, 0x04, 0x97, 0x81, 0xdc, 0xdc, 0xd6, 0xe2, 0xc2, 0x98, 0xd0, 0xa3, 0x81, 0xf9, 0x14, 0x20, 0x07, 0x62, 0x71, 0x13, 0x7f, 0x7e, 0xfb, 0x18, 0x23, 0xfe, 0x5a, 0x75, 0x07, 0x67, 0x7f, 0x14, 0xba, 0x27, 0x20, 0x81, 0x59, 0x10, 0xaa, 0x4a, 0x3d, 0x0f, 0xb0, 0x7f, 0x0f, 0x81, 0x75, 0x1d, 0x8f, 0x04, 0x2f, 0x3b, 0x17, 0x12, 0x15, 0xfe, 0x93, 0x81, 0xa4, 0xca, 0x67, 0x81, 0xbe, 0x6e, 0x07, 0xfc, 0xe2, 0xbc, 0x91, 0x9a, 0xb4, 0x81, 0xaf, 0xd2, 0x95, 0xa3, 0x15, 0x6c, 0x5e, 0x21, 0x7f, 0x78, 0x0b, 0x01, 0xfb, 0xf7, 0xc7, 0xc5, 0xea, 0xe5, 0xf9, 0xf4, 0x69, 0x7f, 0xee, 0x42, 0xc5, 0xe3, 0x7f, 0x9a, 0xf3, 0x71, 0x91, 0x30, 0xf8, 0xe9, 0x7f, 0xcd, 0xb5, 0x7f, 0xd4, 0xb1, 0xef, 0x24, 0x48, 0xf5, 0x5e, 0x7f, 0x0f, 0x69, 0x6e, 0x03, 0x40, 0xd0, 0xc3, 0x7f, 0xb2, 0xb3, 0x6d, 0xd4, 0x0c, 0x61, 0x4d, 0x20, 0x7f, 0x63, 0x41, 0x7e, 0x26, 0x1a, 0x42, 0x3f, 0x24, 0x79, 0x7f, 0x1c, 0x65, 0x5b, 0xec, 0xf3, 0x07, 0x1c, 0x70, 0x76, 0x08, 0x76, 0x7f, 0xf7, 0x62, 0x2c, 0xb9, 0x4c, 0x7f, 0xe8, 0x02, 0x57, 0xfd, 0xaa, 0xa5, 0xc6, 0x03, 0x02, 0xe9, 0x7f, 0x77, 0x1e, 0x63, 0x6a, 0x12, 0x6c, 0x7f, 0xf6, 0x2d, 0x37, 0x02, 0xe3, 0xdc, 0xea, 0xc1, 0xc8, 0xc9, 0x81, 0x8c, 0xea, 0x3c, 0xeb, 0xd7, 0x7a, 0xbb, 0xfd, 0x7f, 0xb2, 0xcb, 0xab, 0x4c, 0x81, 0x52, 0x0e, 0x0f, 0x64, 0xd0, 0xf4, 0xe1, 0xd5, 0xd1, 0x89, 0x81, 0xe9, 0x89, 0x8d, 0xdb, 0xc9, 0xc9, 0xfb, 0xd7, 0xc5, 0x16, 0x7f, 0x68, 0x17, 0x30, 0x2c, 0x13, 0x75, 0x7f, 0xe8, 0x2d, 0x30, 0xf3, 0xda, 0xe1, 0x05, 0xa5, 0x81, 0xfa, 0xa5, 0xa5, 0x02, 0x81, 0x98, 0x43, 0x9a, 0xac, 0x51, 0x25, 0x0f, 0x10, 0x4d, 0x28, 0x60, 0x7f, 0xf7, 0x49, 0x2d, 0xd6, 0x19, 0x32, 0x39, 0x08, 0x69, 0x59, 0x21, 0x7f, 0x6b, 0x0c, 0x81, 0xe5, 0xbe, 0x83, 0x19, 0xc6, 0x19, 0x45, 0xfa, 0x3e, 0x59, 0x3e, 0x7f, 0x7d, 0x41, 0x6e, 0x78, 0x19, 0x33, 0x28, 0xd9, 0x81, 0x9f, 0x12, 0x36, 0x3d, 0xe1, 0x5d, 0x64, 0xf1, 0x6a, 0x7f, 0xf5, 0x11, 0x0e, 0x30, 0x46, 0x58, 0x29, 0x52, 0x7f, 0xb4, 0x19, 0x43, 0x2b, 0x31, 0x58, 0x34, 0x7f, 0x52, 0x2e, 0x51, 0xfb, 0xfa, 0xd6, 0xd5, 0xf3, 0x81, 0x99, 0xfe, 0xb3, 0xc1, 0xed, 0x16, 0x29, 0xea, 0x60, 0x6f, 0xfd, 0x74, 0x7f, 0xea, 0xf7, 0x03, 0xdb, 0x81, 0xa7, 0xec, 0xa5, 0xbd, 0x18, 0x3e, 0x2f, 0x3e, 0x59, 0xb0, 0x4e, 0x45, 0x81, 0x0c, 0x36, 0x1f, 0x0f, 0x4f, 0x46, 0xfa, 0x9f, 0x81, 0x0e, 0x13, 0x10, 0x18, 0x6f, 0x7f, 0x18, 0x3e, 0x63, };
const int32_t offsetBias7[64] = {23950.0, 54949.0, 46652.0, 77937.0, 89234.0, -438.0, 2869.0, 57978.0, 59025.0, 91.0, 15056.0, 68936.0, 73032.0, -2980.0, 1397.0, 177336.0, 32030.0, 94962.0, 61640.0, 88175.0, 84172.0, -1621.0, -58516.0, 89024.0, 63731.0, -1195.0, 4122.0, 13374.0, 14688.0, -59239.0, 68184.0, 18077.0, -3700.0, 4101.0, 67438.0, -1055.0, 90432.0, 84601.0, 78551.0, 44242.0, -2403.0, 82687.0, -36164.0, 37.0, -2425.0, -67474.0, -253.0, 64721.0, -48828.0, 25333.0, 54022.0, 69339.0, -15107.0, 93176.0, -2770.0, 38251.0, 52500.0, 62788.0, -43973.0, 60267.0, -22604.0, 32494.0, 3198.0, 74013.0, };
const int32_t offsetRBias7[64] = {0.0, 0.0, 0.0, 0.0, 0.0, 0.0, 0.0, 0.0, 0.0, 0.0, 0.0, 0.0, 0.0, 0.0, 0.0, 0.0, 0.0, 0.0, 0.0, 0.0, 0.0, 0.0, 0.0, 0.0, 0.0, 0.0, 0.0, 0.0, 0.0, 0.0, 0.0, 0.0, 0.0, 0.0, 0.0, 0.0, 0.0, 0.0, 0.0, 0.0, 0.0, 0.0, 0.0, 0.0, 0.0, 0.0, 0.0, 0.0, 0.0, 0.0, 0.0, 0.0, 0.0, 0.0, 0.0, 0.0, 0.0, 0.0, 0.0, 0.0, 0.0, 0.0, 0.0, 0.0, };
const int32_t shift7[64] = {-7, -5, -9, -8, -8, -6, -5, -8, -8, -6, -8, -6, -8, -8, -5, -8, -8, -8, -8, -10, -9, -8, -7, -8, -7, -6, -6, -6, -8, -8, -8, -7, -6, -7, -8, -6, -9, -8, -7, -7, -7, -8, -8, -7, -7, -7, -7, -8, -6, -8, -7, -8, -7, -8, -6, -9, -8, -8, -7, -8, -8, -7, -7, -8, };
const int32_t multiplier7[64] = {1616485632, 1695959680, 2132874112, 1184027008, 1284582656, 1865067264, 1175012992, 1300101632, 2009958784, 1522624128, 2129285632, 1280347520, 1297313408, 2065152768, 1318579968, 1149819904, 2050672896, 1396910464, 1917873024, 1955491200, 1855290752, 1456025216, 1479595648, 1936840960, 1701088384, 1989886592, 1190518144, 1113938944, 2004912384, 1171619840, 1403486592, 1934042752, 1176772736, 1806332544, 1192174208, 1154462080, 1280454656, 1310717952, 1461776512, 1254740480, 1892833024, 1847775488, 2102849280, 2027517184, 1604752000, 1433172224, 1554843520, 1661845376, 1100347648, 1319257216, 1359160576, 1236385408, 1502999808, 1772714624, 1818032000, 1750227584, 1814856064, 1278946304, 1335330432, 1173266176, 1641919488, 1188636544, 1299041792, 1545069056, };
const unsigned char weight8[1024] = {0x94, 0x3c, 0x25, 0xd6, 0xf4, 0xd9, 0xec, 0x1a, 0xc8, 0xe2, 0x25, 0xae, 0xcb, 0x97, 0xe6, 0x01, 0x7f, 0x1d, 0xd4, 0x94, 0x0a, 0x39, 0x1e, 0x2c, 0x1a, 0xe0, 0xdd, 0x5e, 0x32, 0x10, 0x07, 0x35, 0x28, 0xfb, 0xed, 0xf3, 0xa9, 0xf7, 0xc0, 0xe4, 0xfe, 0x2f, 0x20, 0xc2, 0xd4, 0xe8, 0xcf, 0xf4, 0x1c, 0x04, 0xf8, 0xfd, 0x05, 0x03, 0x0a, 0x2b, 0xe7, 0xdd, 0xce, 0x35, 0xfc, 0x0e, 0x32, 0xe2, 0x59, 0x1f, 0xe0, 0xdc, 0xff, 0xe1, 0x17, 0xe1, 0xab, 0xdb, 0xaf, 0xef, 0xcd, 0xd7, 0xe8, 0x04, 0x2e, 0x51, 0x95, 0x0b, 0x0c, 0xeb, 0xf9, 0xfb, 0xe9, 0x7f, 0x43, 0x1f, 0x15, 0x1a, 0xe1, 0xe1, 0x09, 0x18, 0xe2, 0x47, 0x46, 0xdb, 0x22, 0xdd, 0xfe, 0xb8, 0x42, 0x42, 0x09, 0x06, 0xe5, 0xdb, 0x06, 0xdc, 0x09, 0xfc, 0x1a, 0xf5, 0xff, 0xcd, 0xd2, 0xd5, 0xd8, 0xd9, 0xce, 0xef, 0x05, 0xef, 0xc4, 0x81, 0xea, 0xfd, 0x04, 0x06, 0xf3, 0xfb, 0xdd, 0xf1, 0xdc, 0x01, 0x23, 0xde, 0xf5, 0x24, 0xed, 0xf7, 0x3e, 0xf2, 0x22, 0xeb, 0xef, 0x0d, 0xfb, 0xb1, 0x0e, 0x08, 0xe4, 0x05, 0xee, 0xfc, 0xfb, 0xdd, 0xf1, 0x03, 0x0e, 0x17, 0x1b, 0x14, 0x09, 0xf1, 0x15, 0xf0, 0x15, 0x0d, 0xf1, 0xd5, 0xfc, 0xea, 0xfc, 0x0f, 0x0f, 0xe0, 0xdb, 0xf9, 0x01, 0xc7, 0xf6, 0xed, 0xf9, 0xf1, 0xd3, 0xf8, 0x81, 0x40, 0xdb, 0xb7, 0xe4, 0x2a, 0x0c, 0x3e, 0xcd, 0x3f, 0x22, 0x05, 0xe9, 0xcf, 0x57, 0x15, 0xe5, 0xf1, 0xf3, 0x0d, 0x32, 0x29, 0x05, 0x14, 0xf8, 0x25, 0x20, 0xa2, 0xf3, 0xc1, 0xc7, 0xb4, 0x09, 0xd5, 0xcb, 0x20, 0x2f, 0xf5, 0xe5, 0xf2, 0x00, 0xcf, 0x28, 0xf4, 0x22, 0xd0, 0x1e, 0x2c, 0xdf, 0x32, 0xcc, 0xdc, 0xfa, 0xfa, 0xf7, 0xe9, 0xc7, 0xd0, 0xa5, 0x1f, 0x37, 0xd2, 0xf4, 0xf5, 0xb5, 0xeb, 0xf1, 0x40, 0xd5, 0xb1, 0x04, 0x0a, 0x55, 0xec, 0x9f, 0xf4, 0x5d, 0xe0, 0x01, 0xef, 0xe7, 0xcd, 0x32, 0x24, 0x07, 0x0a, 0xfb, 0xe7, 0xfa, 0x0f, 0x12, 0x04, 0x35, 0xfa, 0xbf, 0x81, 0xe3, 0x39, 0xfb, 0x2a, 0xc1, 0x4a, 0x1c, 0xe4, 0xfb, 0x23, 0xed, 0xf8, 0xf0, 0x17, 0x11, 0xd8, 0xfa, 0xf5, 0xf0, 0x0f, 0xef, 0x1e, 0x0a, 0x18, 0x11, 0x09, 0xf4, 0x00, 0x04, 0x0f, 0x0f, 0x0f, 0x91, 0xbd, 0xf2, 0xf0, 0x43, 0x2a, 0x03, 0x33, 0x7f, 0x42, 0x59, 0x0f, 0xfc, 0x12, 0xf2, 0xbf, 0x02, 0x4e, 0xac, 0x3d, 0x26, 0x0c, 0xaf, 0xfe, 0xd6, 0xf0, 0x00, 0xf8, 0x7e, 0x82, 0xe3, 0x6e, 0xbd, 0xee, 0x18, 0x34, 0x74, 0xe3, 0xaf, 0x33, 0x0c, 0xec, 0x26, 0xe8, 0xe1, 0xde, 0x10, 0xfe, 0x09, 0x5b, 0xda, 0xf2, 0xa6, 0xc9, 0xf5, 0xcc, 0x9b, 0x32, 0xfc, 0xd7, 0x11, 0xe2, 0x23, 0xf3, 0x59, 0x81, 0xf9, 0xc5, 0x4e, 0xba, 0xf8, 0xfb, 0x22, 0x02, 0x08, 0x24, 0xf6, 0x0f, 0x08, 0x14, 0x1b, 0x05, 0x0d, 0xe3, 0x06, 0x12, 0xe4, 0x22, 0x10, 0x1b, 0x14, 0xf7, 0x1a, 0xf8, 0xed, 0xee, 0x00, 0x0a, 0xb7, 0x29, 0xe0, 0x20, 0xec, 0xfd, 0x15, 0xfe, 0x0b, 0x18, 0x09, 0xf9, 0x0d, 0xea, 0xc3, 0xf0, 0x14, 0xdb, 0x02, 0xb9, 0xf2, 0xcc, 0xfc, 0x04, 0x1f, 0x1b, 0xef, 0x03, 0x0f, 0x1a, 0xd2, 0xff, 0xa2, 0xf7, 0xc5, 0xfc, 0x13, 0xf8, 0xce, 0xeb, 0x2c, 0xf7, 0xe1, 0x21, 0xe3, 0x21, 0xf8, 0xcf, 0x09, 0xef, 0x19, 0x7f, 0x11, 0x10, 0x4f, 0x59, 0x47, 0xdb, 0x2e, 0x2f, 0x15, 0x21, 0xe6, 0x14, 0xef, 0x3b, 0x45, 0xe7, 0xed, 0xde, 0x00, 0xf5, 0x19, 0x1e, 0x1b, 0xd6, 0x0a, 0x11, 0x19, 0xbf, 0x11, 0xff, 0x1c, 0xde, 0xfd, 0x0b, 0x40, 0xfe, 0xf0, 0x04, 0x23, 0xff, 0xfe, 0x1e, 0xd2, 0x20, 0x47, 0xbf, 0x06, 0x5e, 0x13, 0x74, 0xe7, 0x17, 0xa1, 0xfe, 0x77, 0xed, 0x52, 0x37, 0x64, 0x22, 0x5b, 0x7f, 0x4e, 0x1c, 0xc4, 0x1e, 0xf7, 0x09, 0x40, 0x5e, 0xcd, 0xea, 0xd7, 0x1c, 0x51, 0xe6, 0xe1, 0x36, 0xde, 0x0d, 0x20, 0x49, 0x1f, 0x0c, 0xd3, 0x03, 0x2e, 0x15, 0xc9, 0xee, 0xb9, 0xb7, 0x0c, 0x3c, 0xd4, 0x06, 0x21, 0x19, 0x1d, 0xeb, 0x08, 0x20, 0x35, 0xfb, 0x36, 0xd2, 0x7f, 0x34, 0xec, 0x24, 0x0f, 0x43, 0xe9, 0xe3, 0xd7, 0x03, 0x02, 0x14, 0xdc, 0x11, 0xe7, 0x00, 0x1a, 0x2a, 0xf9, 0x00, 0x01, 0x10, 0xf6, 0xe3, 0x07, 0xd2, 0xe6, 0xf3, 0xde, 0x1c, 0xc4, 0x12, 0x08, 0xd9, 0x06, 0xcd, 0x05, 0x05, 0xf1, 0xf7, 0x0e, 0xfc, 0x24, 0xf0, 0x0a, 0x00, 0x2d, 0x11, 0xff, 0xf5, 0xf1, 0xf2, 0xf3, 0xdf, 0x18, 0xd8, 0xf8, 0xd2, 0xff, 0xf0, 0xf3, 0xfa, 0x13, 0x0e, 0x1f, 0x1a, 0x00, 0x13, 0x0c, 0x05, 0x1c, 0xe0, 0xf9, 0xfd, 0x94, 0x2c, 0xd8, 0xe2, 0x1c, 0xf7, 0xbe, 0xd4, 0xd0, 0xb2, 0x3e, 0x52, 0x00, 0x19, 0x22, 0x1d, 0xf4, 0x00, 0xdd, 0xdc, 0xf9, 0x5c, 0x11, 0x1e, 0xcc, 0x0f, 0x34, 0xe4, 0x58, 0x2e, 0x00, 0x19, 0x15, 0xfe, 0xf9, 0xf5, 0x11, 0x0b, 0x11, 0xdd, 0x1d, 0xea, 0xe5, 0xa9, 0xf3, 0x0a, 0xf6, 0x15, 0xfc, 0x23, 0x03, 0x15, 0x81, 0xfe, 0x7d, 0x28, 0x81, 0xa7, 0xcc, 0x1a, 0x0a, 0xbc, 0xfb, 0xf7, 0xe5, 0xb8, 0x13, 0xf6, 0x0c, 0x07, 0x03, 0x00, 0xcf, 0x99, 0x61, 0x49, 0x15, 0x3a, 0x69, 0xf7, 0xf2, 0xf8, 0xdf, 0xcc, 0x0b, 0xe7, 0x00, 0xf4, 0xca, 0xef, 0x18, 0xc9, 0x09, 0x0d, 0xea, 0xdf, 0x32, 0xca, 0xf6, 0xde, 0xed, 0x33, 0x4e, 0xf8, 0x0f, 0x11, 0xf2, 0xc9, 0xcb, 0xe8, 0xa7, 0xb8, 0xe4, 0xbf, 0x50, 0x24, 0x10, 0x37, 0x38, 0x7f, 0x47, 0xd6, 0x11, 0x1f, 0x0e, 0x03, 0x01, 0xd7, 0xe2, 0x23, 0xde, 0x1a, 0x05, 0xd9, 0x16, 0x02, 0x16, 0x0d, 0xd0, 0xaf, 0x0d, 0x11, 0xd5, 0xec, 0x34, 0xdf, 0x16, 0x20, 0x31, 0xc3, 0x56, 0x4d, 0xf1, 0x17, 0x4c, 0xff, 0x1f, 0xf7, 0xed, 0xf4, 0xe3, 0xff, 0xe9, 0x11, 0xe0, 0xff, 0xfe, 0x02, 0xd8, 0xf8, 0xf8, 0x01, 0xd8, 0xdf, 0xfa, 0x0a, 0x22, 0x16, 0xf0, 0xc4, 0xf0, 0x08, 0x3a, 0x81, 0x88, 0xdf, 0xaa, 0x2d, 0x01, 0x14, 0x8c, 0xca, 0xce, 0x13, 0xd9, 0x37, 0x40, 0xc5, 0xde, 0x0b, 0x8c, 0x19, 0xd5, 0x49, 0x25, 0x18, 0x0f, 0xbb, 0x19, 0x06, 0xbf, 0x0b, 0xf9, 0x0e, 0x3e, 0xe0, 0xf8, 0x17, 0x1c, 0xf5, 0xd6, 0x02, 0xf6, 0x19, 0xc4, 0xfa, 0xd8, 0xc1, 0xef, 0xd3, 0xff, 0x07, 0xd0, 0xc3, 0xd7, 0xd1, 0xf2, 0x06, 0x15, 0x1d, 0xfa, 0xc9, 0xd7, 0xd0, 0xf2, 0x46, 0xef, 0x23, 0x3e, 0xd4, 0x63, 0x55, 0x00, 0xe7, 0x11, 0x18, 0x0c, 0x99, 0xbb, 0xea, 0x19, 0x05, 0x8b, 0xf0, 0x14, 0xd1, 0xf6, 0x24, 0xe1, 0x16, 0x36, 0xf9, 0x09, 0x1c, 0xf0, 0x01, 0x20, 0xdb, 0x81, 0xf1, 0x3a, 0xe8, 0xe8, 0xdb, 0x05, 0xfd, 0xf9, 0x0a, 0x0e, 0x13, 0x1b, 0x09, 0xed, 0x0b, 0x38, 0x28, 0xee, 0x15, 0x06, 0x00, 0x1c, 0x2b, 0x00, 0xf5, 0x1b, 0x08, 0xb4, 0xe2, 0x0d, 0xfd, 0x54, 0x99, 0xe5, 0x28, 0xe8, 0x39, 0xdf, 0x0d, 0x4a, 0xe9, 0x1b, 0xcd, 0xf8, 0xca, 0x10, 0xad, 0x1f, 0xa9, 0xfd, 0xe4, 0xec, 0x0e, 0x10, 0x2d, 0x49, 0xcb, 0xcd, 0xda, 0xfe, 0x04, 0x3b, 0xc9, 0xcd, 0xe3, 0x05, 0xe3, 0x81, 0x44, 0x24, 0xc3, 0xf6, 0xa4, 0x31, 0xd3, 0xca, 0x22, 0x07, 0xa7, 0xf1, 0xe7, 0xa8, 0x76, 0xb3, 0x3a, 0x1e, 0x5f, 0x5f, 0x5c, 0x15, 0x0a, 0xb9, 0x0f, 0xe4, 0xac, };
const int32_t bias8[16] = {10678, -15065, 7890, 25016, 35637, -40382, -28007, -20759, -71400, -18315, -25707, -19220, 5922, 47445, 9514, 63612, };
const int32_t shift8[16] = {-9, -9, -8, -9, -9, -10, -9, -9, -9, -8, -9, -9, -9, -9, -9, -9, };
const int32_t multiplier8[16] = {1340122752, 1791263744, 1432295040, 1226356864, 1506312960, 1995034880, 1891400320, 2016631168, 1191416192, 1149286400, 1600259072, 1649889920, 1714996352, 1526851328, 1753862016, 1568925824, };
const unsigned char weight9[768] = {0x28, 0xcd, 0x15, 0x7f, 0x18, 0xee, 0x1c, 0x04, 0xf8, 0xf8, 0xbd, 0x02, 0x98, 0x03, 0x91, 0xff, 0x2a, 0xdd, 0x29, 0xf2, 0x0c, 0x51, 0xe5, 0x36, 0xe5, 0x39, 0xda, 0xfb, 0x8b, 0x39, 0x81, 0xe2, 0x0e, 0x5b, 0x00, 0xd2, 0xbf, 0x46, 0x06, 0x1f, 0xf1, 0x7f, 0x11, 0xf5, 0xb8, 0x1d, 0x53, 0x58, 0x18, 0xb6, 0x3f, 0xd0, 0x99, 0xec, 0x16, 0xc3, 0xe0, 0x81, 0x0b, 0xef, 0x09, 0x99, 0x35, 0x12, 0xec, 0x20, 0xda, 0xca, 0xaa, 0xe5, 0xbe, 0xba, 0x0b, 0xc1, 0xb0, 0xa4, 0xe5, 0x47, 0xa9, 0x7f, 0x0f, 0xf7, 0x6f, 0x08, 0x9c, 0x81, 0x45, 0x4c, 0x03, 0x34, 0xe8, 0xd4, 0xd3, 0xd8, 0x00, 0xa6, 0xb1, 0xec, 0x20, 0x35, 0x3d, 0x18, 0x37, 0x37, 0x81, 0x5a, 0x3b, 0xc6, 0xe6, 0x3d, 0xcd, 0x07, 0x1c, 0xf2, 0x2e, 0xa7, 0xcc, 0x08, 0x7f, 0x19, 0xd1, 0xc4, 0x66, 0xce, 0x54, 0x38, 0x2e, 0x41, 0xd7, 0x1d, 0x5d, 0x2b, 0xc9, 0xd7, 0xcf, 0xec, 0xbf, 0xa4, 0xfd, 0xe1, 0xca, 0xff, 0x81, 0x5f, 0xd7, 0x33, 0x0f, 0xd1, 0xdc, 0xf9, 0x0e, 0xea, 0x1a, 0x7f, 0xf9, 0x3b, 0x15, 0x1f, 0xcb, 0x02, 0x1d, 0x1d, 0x68, 0x49, 0xa0, 0x15, 0xfd, 0x27, 0xbb, 0x8e, 0x7f, 0x06, 0xfd, 0xfc, 0xdb, 0x63, 0xd2, 0x42, 0xfe, 0xfb, 0xec, 0x2c, 0x23, 0xff, 0xc3, 0x7f, 0xd7, 0x1e, 0x1d, 0x0a, 0xf4, 0x22, 0xf4, 0xc8, 0xd9, 0xce, 0x6a, 0x7f, 0x58, 0xe7, 0x02, 0x51, 0xff, 0x13, 0xd4, 0xfa, 0xe7, 0x79, 0xe4, 0x8a, 0xea, 0xf9, 0x17, 0xed, 0x81, 0x97, 0xc9, 0xcb, 0x26, 0xd0, 0x28, 0x0a, 0x49, 0x14, 0xcb, 0xf2, 0xc0, 0x04, 0x94, 0x81, 0x6e, 0xb9, 0xcc, 0x87, 0x7b, 0x3c, 0x9a, 0xd7, 0xd5, 0xff, 0xf8, 0x17, 0x01, 0xe8, 0x3c, 0x7f, 0x23, 0x08, 0x0d, 0xd1, 0x0f, 0x23, 0x17, 0xff, 0x02, 0x22, 0xc1, 0x1c, 0xbf, 0x47, 0x29, 0xf3, 0x3b, 0xf6, 0x19, 0x65, 0x81, 0x23, 0xcc, 0xf0, 0xf4, 0x17, 0x87, 0x8a, 0x30, 0xd9, 0xf5, 0xeb, 0x3e, 0x67, 0xf6, 0x94, 0x05, 0x5b, 0x91, 0x15, 0x53, 0x7f, 0x22, 0xab, 0x15, 0x68, 0x5f, 0xe6, 0x4c, 0x4c, 0xa3, 0x16, 0x7f, 0xd8, 0xfe, 0x69, 0x2f, 0x09, 0x1f, 0x81, 0x29, 0x18, 0x19, 0x03, 0x33, 0x27, 0xcd, 0x8f, 0xf3, 0x9e, 0xcb, 0x4c, 0x6f, 0xd6, 0x0e, 0xe6, 0x0b, 0xc5, 0x2c, 0x81, 0xd8, 0x19, 0xf7, 0x2e, 0xf9, 0xf2, 0xdb, 0xda, 0xda, 0x14, 0x7f, 0x00, 0xfb, 0xb4, 0x9b, 0x11, 0x8e, 0x16, 0x0d, 0xdd, 0x11, 0xf3, 0x9f, 0x57, 0xd5, 0xc2, 0x03, 0xbf, 0xe7, 0x04, 0x04, 0xeb, 0x81, 0x09, 0x13, 0x0b, 0xf3, 0xef, 0x16, 0xe7, 0x1c, 0x25, 0xf2, 0xc9, 0x02, 0x41, 0xfb, 0xae, 0x18, 0x89, 0xeb, 0xe8, 0x09, 0x55, 0x81, 0x4a, 0xed, 0xc4, 0xe8, 0xcb, 0x31, 0x35, 0xee, 0x6f, 0x3a, 0x81, 0x21, 0x0a, 0x67, 0x43, 0xe2, 0x4e, 0x3e, 0xbf, 0x14, 0x4d, 0xe0, 0x24, 0xfc, 0x0d, 0xfa, 0x57, 0xfa, 0xa7, 0x10, 0xcb, 0x7f, 0xf9, 0xe3, 0xf5, 0x37, 0x28, 0x44, 0xd2, 0x23, 0xcd, 0x10, 0x7f, 0x2a, 0x18, 0xc4, 0xd9, 0x35, 0xda, 0xfa, 0x9f, 0x27, 0xe9, 0x40, 0x4b, 0x2d, 0xe7, 0x5c, 0x25, 0x0d, 0x7f, 0x0c, 0x74, 0x6b, 0x66, 0xd6, 0xca, 0x37, 0x42, 0xea, 0xf7, 0x0f, 0xcf, 0xde, 0x34, 0xb8, 0x0e, 0x07, 0xf1, 0x3f, 0x7f, 0xcb, 0x40, 0xf8, 0xe6, 0x9a, 0xea, 0x0d, 0x81, 0x5b, 0xb5, 0xde, 0xbb, 0xfd, 0x2f, 0xb9, 0xff, 0xe6, 0x1f, 0x6d, 0x0b, 0x3b, 0xbe, 0x03, 0xd4, 0x29, 0xe9, 0x7f, 0xb7, 0xc1, 0x68, 0xc0, 0x17, 0x13, 0x22, 0x05, 0xed, 0xc8, 0xa9, 0x11, 0xbf, 0xdf, 0x2c, 0xaa, 0xd5, 0xe7, 0x99, 0x25, 0x7f, 0xfe, 0x4a, 0xb3, 0x23, 0x13, 0xdb, 0x81, 0x00, 0x5c, 0x07, 0x18, 0xff, 0x00, 0x33, 0x10, 0x18, 0x5d, 0x0e, 0xb0, 0x47, 0x28, 0x19, 0xda, 0x08, 0xfd, 0x81, 0xcc, 0x03, 0xfd, 0xc3, 0xc3, 0xf9, 0x07, 0xa1, 0x66, 0xb6, 0xcd, 0xee, 0xde, 0x17, 0x8c, 0xe2, 0xfd, 0x7b, 0x41, 0x7f, 0x36, 0x81, 0xfc, 0xc4, 0xcc, 0x0f, 0xf1, 0x44, 0xf3, 0xfc, 0x7f, 0xce, 0xbd, 0x36, 0x27, 0x49, 0xfc, 0xfb, 0xab, 0xe4, 0xdd, 0x5b, 0x5f, 0x18, 0x91, 0x7d, 0x59, 0xe2, 0xe5, 0xd3, 0x02, 0xf2, 0xbc, 0x09, 0x7f, 0xa6, 0xa5, 0x7f, 0x02, 0x6e, 0x0f, 0x15, 0xac, 0x10, 0x6b, 0xd1, 0xbe, 0x94, 0xc9, 0x5b, 0x5e, 0x1b, 0xfe, 0xb4, 0xe5, 0x2a, 0xda, 0x8d, 0xfb, 0xd3, 0x1e, 0x0b, 0xcc, 0xe7, 0x81, 0x10, 0xc0, 0x34, 0x2f, 0xe1, 0x20, 0xc5, 0x17, 0xea, 0x04, 0xbe, 0x81, 0x4a, 0xff, 0xf5, 0x9f, 0x10, 0xec, 0x1a, 0x81, 0x5a, 0x2f, 0xf6, 0xd0, 0x37, 0x97, 0xe8, 0x89, 0x1f, 0x2c, 0xba, 0xe7, 0x92, 0x02, 0x6f, 0x74, 0xe6, 0xf5, 0xdd, 0x3e, 0x3f, 0x7f, 0xea, 0x41, 0x10, 0xa1, 0x2c, 0xb7, 0x55, 0x3b, 0xae, 0xc9, 0x86, 0x50, 0x54, 0x98, 0xb5, 0xd7, 0x81, 0x15, 0x36, 0xcb, 0xff, 0x8e, 0x67, 0x12, 0x54, 0x1b, 0x7f, 0xb7, 0xea, 0x09, 0xff, 0x0c, 0x27, 0x52, 0x4a, 0x2e, 0x24, 0xfa, 0x91, 0xcd, 0xba, 0x31, 0xd2, 0xcf, 0x21, 0x27, 0x0a, 0x6a, 0x1b, 0x1f, 0x7f, 0x42, 0xdf, 0x18, 0xcc, 0xc3, 0x0e, 0xe7, 0xfe, 0x12, 0x0a, 0xca, 0x81, 0x21, 0xf8, 0x09, 0x10, 0x08, 0xfc, 0xdb, 0xfd, 0xfd, 0x00, 0x89, 0xff, 0x1b, 0xf5, 0xce, 0xdb, 0x0b, 0xf9, 0x00, 0xc4, 0xf0, 0x7f, 0x3f, 0xc9, 0x08, 0x29, 0xdd, 0x38, 0xd6, 0xd4, 0xf6, 0xd7, 0xff, 0x0f, 0x47, 0x20, 0x8e, 0x7f, 0x10, 0x4f, 0xd0, 0x47, };
const int32_t bias9[48] = {26604, 12733, 16126, -1201, 3850, 10876, 9447, 11225, 3430, 15990, 7387, 16385, 10494, -55302, 7233, 4839, 14100, -5863, 5080, 13030, 4246, -2059, -37784, -2009, 13841, 1871, 5499, 17406, 3326, 3352, 25194, -3748, 13916, 1740, 16484, 13394, 19646, -3738, 8061, 1011, 5375, 10624, 5014, 16922, 6600, 1947, -168, 13504, };
const int32_t shift9[48] = {-8, -6, -6, -6, -7, -6, -6, -7, -6, -7, -6, -7, -7, -9, -7, -5, -6, -7, -6, -8, -6, -6, -10, -6, -6, -6, -6, -7, -6, -6, -7, -6, -7, -6, -8, -6, -7, -6, -7, -6, -6, -7, -7, -7, -5, -5, -5, -7, };
const int32_t multiplier9[48] = {1861519488, 1211178368, 1178257792, 1466639616, 1751450496, 1172240256, 1453146368, 1600086272, 1264894208, 2003355264, 1297585152, 1495380736, 2035887360, 1320008320, 2071126784, 1293994496, 2055110016, 1201080704, 1587363072, 2072241152, 1635812992, 1741447552, 1616634624, 1212565376, 1099240320, 1368717568, 1598775808, 1992490240, 1907591296, 2086233472, 1274013568, 1354726144, 1822463872, 1728979840, 2011349376, 1301982336, 1386184576, 1562680960, 1572441472, 1325694720, 1310280704, 1969191552, 2044316544, 2118660608, 1112761344, 1538692736, 1292751104, 1969259648, };
const unsigned char CHWweight10[432] = {0x21, 0x7f, 0x28, 0xeb, 0x82, 0xd6, 0xfc, 0xf8, 0xf7, 0x00, 0x3c, 0xf8, 0xd2, 0x20, 0xcd, 0xed, 0x7f, 0xe6, 0xd8, 0x9e, 0xcf, 0x0f, 0x7f, 0x1e, 0xc1, 0xb9, 0xcd, 0x0a, 0x00, 0x13, 0x40, 0x8d, 0x38, 0x16, 0x81, 0x13, 0x13, 0x03, 0xfb, 0x7f, 0x8e, 0x14, 0x0f, 0xd7, 0xe9, 0x3c, 0x4f, 0x81, 0xde, 0xe4, 0x60, 0x05, 0xae, 0x5f, 0x02, 0x00, 0xfa, 0x18, 0xcd, 0x05, 0xda, 0x7f, 0x07, 0xf5, 0x18, 0xfb, 0xf3, 0xa3, 0xf1, 0x03, 0x7f, 0x1b, 0x12, 0x44, 0x06, 0x3b, 0x81, 0x2e, 0x1b, 0x0e, 0x1c, 0x07, 0xf2, 0xf0, 0x0d, 0x6e, 0x81, 0xff, 0x1d, 0xf7, 0xff, 0x04, 0x04, 0xfd, 0x8f, 0x00, 0xff, 0x7f, 0xfe, 0x01, 0xed, 0xfb, 0xec, 0x81, 0xf0, 0x10, 0x6d, 0x19, 0xe8, 0xe2, 0x07, 0xf7, 0xbc, 0x67, 0xf7, 0xe6, 0x7f, 0xa4, 0x91, 0x90, 0x41, 0x81, 0xf4, 0x1b, 0xc0, 0xdc, 0xf7, 0x2f, 0xfe, 0x7f, 0x1b, 0xc9, 0x0b, 0xa6, 0x03, 0x07, 0x01, 0xe1, 0x00, 0xe8, 0x7f, 0xf4, 0xf7, 0x0d, 0x02, 0xd6, 0xfd, 0xff, 0x81, 0xff, 0x07, 0x4e, 0x06, 0xf3, 0x7f, 0x14, 0x66, 0x3e, 0x71, 0x0f, 0x7f, 0x3e, 0xfc, 0x9c, 0xf4, 0xf4, 0x7f, 0xf2, 0xfb, 0x02, 0xfc, 0x00, 0x15, 0x00, 0xf5, 0x81, 0xf3, 0x22, 0x49, 0x1f, 0xfa, 0xde, 0xf0, 0x1d, 0x5d, 0x81, 0x02, 0x7a, 0x97, 0xe9, 0x73, 0xe1, 0xf6, 0x81, 0xd6, 0xf3, 0xda, 0xe6, 0xc7, 0x5b, 0xb4, 0xd2, 0x7f, 0xfa, 0x33, 0x1f, 0x0a, 0xd6, 0x7f, 0x37, 0xe0, 0x4c, 0xe5, 0x0a, 0x85, 0xde, 0x09, 0xf2, 0xf2, 0x01, 0x81, 0x7e, 0xee, 0xef, 0xf1, 0xf0, 0x3f, 0xeb, 0xec, 0x81, 0xce, 0x38, 0xcf, 0x24, 0xf0, 0x7f, 0xad, 0xba, 0xe7, 0xc6, 0x23, 0xd8, 0x20, 0x06, 0x7f, 0x01, 0x11, 0xe4, 0xdd, 0x0c, 0xbc, 0xf9, 0xd6, 0x5b, 0xe9, 0x1c, 0x7f, 0x37, 0x27, 0x45, 0x23, 0xf6, 0x9e, 0x31, 0x08, 0x7f, 0xb2, 0x0a, 0x17, 0xf4, 0xff, 0xed, 0x03, 0xef, 0x7f, 0xe9, 0xc8, 0x16, 0xdf, 0x17, 0x4c, 0x1b, 0x1f, 0x81, 0x19, 0xec, 0xea, 0xed, 0x01, 0x17, 0xf8, 0x01, 0x68, 0x0a, 0x14, 0x81, 0x0a, 0x0c, 0xfb, 0x1a, 0x08, 0x81, 0xf4, 0x27, 0x76, 0x47, 0x5e, 0x20, 0x58, 0x71, 0x58, 0x7f, 0x4c, 0x0f, 0x66, 0x0c, 0x7f, 0xf8, 0xe8, 0xbd, 0x19, 0xfc, 0xdd, 0xff, 0xff, 0xd6, 0x12, 0xf3, 0xa5, 0x7f, 0xf4, 0xff, 0xfe, 0xee, 0x01, 0xf3, 0x1c, 0x7f, 0x1a, 0xf2, 0x22, 0xed, 0x07, 0xef, 0x18, 0xf8, 0xad, 0x7f, 0xfd, 0xf5, 0x04, 0xed, 0x15, 0xe7, 0x41, 0x7f, 0x74, 0xfb, 0x47, 0x1e, 0x0a, 0x56, 0x14, 0x0f, 0x81, 0x16, 0xf3, 0xf6, 0xeb, 0xf6, 0x15, 0x07, 0x08, 0x86, 0xf6, 0xfe, 0x7f, 0x04, 0x0f, 0xfd, 0xfe, 0xcb, 0x7f, 0x04, 0x0e, 0x15, 0x15, 0x21, 0x81, 0x0b, 0xa9, 0x53, 0xfc, 0xf0, 0x30, 0x0a, 0xbc, 0xba, 0xaf, 0x9a, 0x81, 0x91, 0xcc, 0x24, 0xe7, 0xff, 0x14, 0x0a, 0xec, 0x03, 0x7f, 0x08, 0x19, 0xef, 0xfd, 0x81, 0xf5, 0xf0, 0xf6, 0xf5, 0x00, 0xda, 0x10, 0x00, 0xfc, 0x06, 0xbd, 0xba, 0x7f, 0x0e, 0xc4, 0x22, };
const int32_t offsetBias10[48] = {-1300.0, 12610.0, 10617.0, 24071.0, -1331.0, 28597.0, 1740.0, 4854.0, 21625.0, -594.0, 1702.0, -1417.0, 3381.0, 527435.0, 23240.0, 6736.0, 152.0, 82547.0, -1845.0, 840.0, -7609.0, -5333.0, 945606.0, 14611.0, -2638.0, -10305.0, -12955.0, 2773.0, 30075.0, 223.0, 535.0, -2231.0, 1961.0, 20157.0, 1817.0, 2216.0, -2532.0, 17523.0, 1127.0, 42035.0, -3225.0, 3671.0, 8253.0, -7027.0, -54778.0, 19478.0, 8747.0, -3481.0, };
const int32_t offsetRBias10[48] = {0.0, 0.0, 0.0, 0.0, 0.0, 0.0, 0.0, 0.0, 0.0, 0.0, 0.0, 0.0, 0.0, 0.0, 0.0, 0.0, 0.0, 0.0, 0.0, 0.0, 0.0, 0.0, 0.0, 0.0, 0.0, 0.0, 0.0, 0.0, 0.0, 0.0, 0.0, 0.0, 0.0, 0.0, 0.0, 0.0, 0.0, 0.0, 0.0, 0.0, 0.0, 0.0, 0.0, 0.0, 0.0, 0.0, 0.0, 0.0, };
const int32_t shift10[48] = {-5, -7, -8, -7, -6, -8, -6, -6, -7, -5, -6, -5, -6, -12, -7, -6, -6, -7, -6, -5, -7, -7, -12, -7, -6, -6, -6, -6, -7, -6, -5, -6, -6, -7, -8, -6, -5, -6, -5, -7, -6, -6, -6, -6, -8, -7, -8, -5, };
const int32_t multiplier10[48] = {1643937408, 1537956736, 1655894528, 1357163008, 1568087168, 1995890176, 1641076480, 1715045504, 1794267648, 1643629568, 1447842176, 1203683072, 1142220544, 2037150208, 1198033280, 1428711936, 1109409792, 1273442432, 1575474816, 1454148608, 2145663232, 1197078016, 1220784000, 1787395328, 1136220032, 1778423936, 1164680448, 1221713792, 1180636160, 1419664128, 1274386560, 1628375424, 1498910336, 1189895168, 1642599296, 1287444864, 1136203264, 1419185024, 1166993408, 1943029888, 1944432128, 1960276224, 1725291264, 1990277888, 2138042624, 1726697216, 1880350848, 1097562112, };
const unsigned char weight11[768] = {0xe6, 0xfa, 0xfe, 0x33, 0x0b, 0x34, 0x48, 0x29, 0xf0, 0xe1, 0x32, 0x4a, 0xe9, 0x33, 0x10, 0xc6, 0xe2, 0xcd, 0x38, 0x2d, 0xd2, 0x28, 0x30, 0x3a, 0x25, 0x33, 0x1a, 0xec, 0xed, 0xa2, 0x5a, 0x0c, 0xbe, 0x38, 0x06, 0xcb, 0xb3, 0x81, 0xf1, 0x00, 0x17, 0x79, 0x1a, 0xe7, 0xf7, 0xee, 0xc6, 0x00, 0x03, 0x09, 0x3f, 0x38, 0x1c, 0x48, 0x13, 0xe1, 0x2d, 0x20, 0xf7, 0x05, 0xbb, 0x39, 0x0b, 0xdb, 0xcf, 0x43, 0xb3, 0xf5, 0xd1, 0x3b, 0x36, 0xbb, 0x0a, 0xdd, 0x22, 0xfe, 0xc9, 0x2b, 0xf9, 0x40, 0x15, 0xde, 0x08, 0xd5, 0x21, 0x4f, 0xa5, 0xa5, 0xb2, 0x20, 0x0d, 0x21, 0x2d, 0x81, 0x68, 0xff, 0xe8, 0x32, 0xef, 0x35, 0x60, 0xc3, 0x3a, 0xd7, 0xa0, 0xcf, 0x07, 0x18, 0x06, 0xf9, 0x3c, 0xf1, 0xb3, 0xe2, 0xe5, 0xc3, 0xc3, 0x59, 0xf9, 0x0b, 0xdc, 0x03, 0x39, 0x57, 0xd6, 0xe0, 0x2d, 0x28, 0xd5, 0xf1, 0xea, 0xfb, 0xf0, 0xba, 0xff, 0xd7, 0x02, 0x3d, 0x50, 0x0e, 0x2b, 0x7f, 0x33, 0xf5, 0xd7, 0xd4, 0xb3, 0xc7, 0x1b, 0x2f, 0x11, 0x09, 0x53, 0x13, 0x7f, 0x94, 0x06, 0xd3, 0xf1, 0xdc, 0x3b, 0x14, 0x14, 0xec, 0x1c, 0x47, 0xd5, 0x21, 0x25, 0xfb, 0x06, 0x25, 0xd7, 0xfb, 0xe4, 0x47, 0x56, 0x2c, 0x07, 0x22, 0x16, 0xcc, 0xdb, 0xde, 0x09, 0xe3, 0x1d, 0x00, 0x3a, 0x21, 0x6d, 0x3f, 0x30, 0x07, 0xd8, 0xc6, 0xee, 0x06, 0xe6, 0xf7, 0xbc, 0xde, 0x7f, 0xbf, 0x2f, 0xc4, 0xa8, 0x02, 0xaa, 0x8e, 0x08, 0xd2, 0x43, 0xa9, 0xc7, 0x14, 0x1d, 0x26, 0xfe, 0x22, 0xe9, 0x0c, 0x45, 0xee, 0x03, 0xda, 0x1c, 0x44, 0x0b, 0x92, 0xed, 0xfc, 0x23, 0xb8, 0x09, 0xee, 0x1c, 0x0e, 0xb1, 0x44, 0xe1, 0xbb, 0x20, 0x2e, 0xe7, 0xe8, 0x1a, 0xcc, 0x31, 0x2f, 0xf3, 0x7f, 0x0a, 0xe0, 0xcc, 0xd6, 0x2a, 0xc9, 0x01, 0x17, 0x27, 0xdf, 0xe1, 0x08, 0xc9, 0xf8, 0x02, 0xe8, 0xdc, 0x41, 0xf2, 0x17, 0x3c, 0x0f, 0xf8, 0x24, 0x57, 0x19, 0x0f, 0xcd, 0xfc, 0xfa, 0xaa, 0x0c, 0x05, 0x5d, 0xd6, 0x3e, 0xba, 0xee, 0x10, 0x39, 0x20, 0x42, 0x11, 0x37, 0x52, 0xeb, 0x23, 0x81, 0xd1, 0xff, 0x6c, 0x0d, 0x14, 0x14, 0x08, 0x0d, 0xe7, 0xfb, 0xff, 0xfc, 0x12, 0xf3, 0x28, 0x35, 0xaa, 0xe9, 0x07, 0xb3, 0xc5, 0x1b, 0xe1, 0x30, 0x48, 0xe2, 0xaa, 0x92, 0x35, 0x7d, 0xfd, 0xdf, 0x0c, 0xb3, 0x40, 0xe6, 0xe0, 0xea, 0x50, 0x16, 0x5c, 0x28, 0x0e, 0xb2, 0x17, 0x11, 0x0f, 0x23, 0x44, 0x10, 0x3c, 0xa1, 0x25, 0x90, 0x2e, 0xfa, 0xbe, 0xe1, 0x10, 0xea, 0xda, 0xcc, 0x5e, 0x33, 0xf1, 0xdc, 0xe9, 0xb7, 0x22, 0x76, 0x02, 0x81, 0x09, 0x03, 0xc3, 0xc7, 0x03, 0xfa, 0x2c, 0x15, 0x11, 0x11, 0x1b, 0x2e, 0x19, 0xe3, 0x86, 0x13, 0x6a, 0x32, 0xc9, 0x2c, 0xc9, 0x44, 0x06, 0xe3, 0x23, 0x02, 0x5f, 0x0e, 0xe4, 0xe3, 0x08, 0x54, 0xea, 0xdc, 0x02, 0x67, 0x41, 0xf0, 0x1e, 0xe3, 0xf6, 0x38, 0xd5, 0x32, 0xf6, 0x37, 0xfc, 0xff, 0x28, 0xff, 0x36, 0xdd, 0x24, 0x7f, 0x35, 0x67, 0xfc, 0x0f, 0xfa, 0x36, 0x48, 0x13, 0x49, 0x21, 0x0f, 0xa8, 0xbb, 0x36, 0x65, 0xea, 0x43, 0x33, 0x2f, 0x3b, 0x7f, 0x07, 0x34, 0x65, 0xc7, 0x2e, 0xe3, 0x89, 0x38, 0x22, 0xc2, 0x47, 0xe8, 0x24, 0xe4, 0x46, 0xfa, 0x47, 0x17, 0xf8, 0xee, 0xff, 0xca, 0x73, 0x22, 0xf5, 0x26, 0xb8, 0x16, 0x18, 0x14, 0x4d, 0x02, 0xd4, 0xe4, 0xe4, 0x0e, 0xf7, 0x19, 0x01, 0xfd, 0xc7, 0x07, 0x26, 0x0f, 0x2c, 0xe0, 0x14, 0xd2, 0x2a, 0xa5, 0xd6, 0x19, 0x81, 0x1b, 0xfa, 0x13, 0x42, 0x4f, 0xeb, 0x19, 0xeb, 0x10, 0x1f, 0xfb, 0x16, 0x87, 0x22, 0x00, 0x16, 0xff, 0xf8, 0x23, 0xdf, 0xfe, 0x14, 0x1a, 0xfa, 0x02, 0xae, 0xf6, 0x08, 0xd8, 0xea, 0x4c, 0x31, 0x0e, 0x3a, 0x03, 0xd9, 0x13, 0x03, 0x2b, 0xc5, 0xe7, 0x1c, 0x19, 0x05, 0xe6, 0xc1, 0x2a, 0xfe, 0x0d, 0x26, 0x1a, 0x3f, 0x27, 0x13, 0x0a, 0x00, 0xb6, 0xf5, 0xf9, 0x0a, 0xdc, 0x1a, 0xf7, 0xff, 0xfb, 0xe3, 0xe6, 0xf2, 0x15, 0xfa, 0x2e, 0xee, 0x24, 0xf2, 0x7f, 0x1b, 0xc4, 0x92, 0x07, 0xc2, 0x1d, 0xd9, 0x0e, 0x06, 0x24, 0x30, 0xd9, 0xc5, 0x7d, 0x06, 0xfc, 0xa3, 0xd6, 0x18, 0x23, 0xe9, 0x15, 0xe5, 0x06, 0xd8, 0x8c, 0xe1, 0x57, 0x3e, 0x08, 0xd6, 0xd3, 0x98, 0x9b, 0xab, 0x1f, 0xe7, 0x46, 0x2a, 0x74, 0x01, 0xcd, 0x22, 0xc4, 0xe8, 0xe0, 0x7f, 0xc7, 0x59, 0x15, 0x18, 0x31, 0x2c, 0xf1, 0x36, 0x22, 0xd5, 0x49, 0x13, 0xec, 0xfd, 0xcc, 0x32, 0xed, 0xfa, 0xe9, 0x2c, 0x1e, 0xef, 0x02, 0x1a, 0x2f, 0x7f, 0x27, 0xd1, 0x11, 0x9f, 0xda, 0xdf, 0x1a, 0xdb, 0x19, 0x29, 0x04, 0xe6, 0x18, 0x27, 0x19, 0xc0, 0x42, 0x25, 0x24, 0xc4, 0x3d, 0xc9, 0x5b, 0x02, 0x03, 0xbb, 0x4f, 0xce, 0xfd, 0xe7, 0xee, 0x3c, 0x7f, 0xf4, 0x0e, 0xf3, 0x1a, 0x10, 0xec, 0xec, 0xef, 0xa7, 0x03, 0xdc, 0x10, 0x22, 0x0f, 0xd6, 0xd5, 0x02, 0xdc, 0x1a, 0x19, 0x11, 0x36, 0xf8, 0x21, 0xfd, 0xf3, 0x10, 0x36, 0xfb, 0x16, 0xd0, 0xfa, 0xdb, 0xe0, 0x05, 0xe0, 0x1e, 0xe8, 0xec, 0xfa, 0x42, 0x35, 0x2e, 0xf6, 0x7f, 0xdd, 0xe1, 0xb1, 0xf6, 0xdc, 0xbc, 0x17, 0x10, 0xef, 0xc6, 0x27, 0xfa, 0xcc, 0xef, 0xe1, 0x1b, 0x0f, 0x45, 0xca, 0xd1, 0xe5, 0xe3, 0x27, 0xd9, 0xf9, 0xd1, 0x06, 0x28, 0x0a, 0xd7, 0x1a, 0x1b, 0xf4, 0x0c, 0xe6, 0x1f, 0xe3, 0xd0, 0xeb, 0x2b, 0xf5, 0x1d, };
const int32_t bias11[16] = {-46830, -53071, -21236, -13375, 49423, 2949, -46944, -20588, -27726, -55366, -8073, -52870, 25718, -57574, -2267, -22490, };
const int32_t shift11[16] = {-10, -9, -9, -9, -9, -9, -10, -9, -10, -10, -9, -8, -9, -9, -9, -8, };
const int32_t multiplier11[16] = {1657785600, 1108256896, 1428456832, 1240547072, 1127347456, 1873683840, 2128239360, 1548854912, 2090565888, 1935504256, 1594821120, 1105949568, 1498295040, 1249311232, 1479102720, 1214674304, };
const unsigned char weight12[768] = {0x5e, 0xb3, 0xd6, 0x7f, 0x36, 0x09, 0x66, 0x7d, 0xdb, 0x7f, 0x7e, 0x15, 0x09, 0x45, 0xe6, 0xe9, 0x81, 0x09, 0x49, 0xf3, 0x12, 0x2b, 0x28, 0x12, 0xd3, 0x17, 0x17, 0x41, 0xf4, 0x20, 0xea, 0xf8, 0xda, 0xee, 0xea, 0x1b, 0xfe, 0x5c, 0x14, 0x81, 0xe7, 0xcd, 0x1d, 0x20, 0xd2, 0x1f, 0xd7, 0xe4, 0x14, 0x35, 0x3c, 0x70, 0x3b, 0xd5, 0x43, 0x81, 0xe6, 0x4a, 0xc5, 0x23, 0xf0, 0xac, 0xf8, 0xb4, 0x1b, 0x59, 0xf9, 0x2d, 0x26, 0x20, 0xcf, 0x3c, 0x18, 0x00, 0xfe, 0x7f, 0xe0, 0x34, 0xd9, 0xfd, 0x19, 0xfc, 0xa3, 0xa7, 0xba, 0x22, 0x67, 0x23, 0x59, 0x4d, 0x81, 0x4c, 0xed, 0x1e, 0xd5, 0x1e, 0x00, 0x11, 0x7f, 0xf1, 0x0a, 0xcf, 0xf9, 0x65, 0xfd, 0x30, 0xae, 0xdf, 0x2f, 0xd0, 0xef, 0xb8, 0x4f, 0xaa, 0xf6, 0x2b, 0x59, 0x61, 0x5b, 0x9f, 0x45, 0x32, 0x59, 0x7f, 0xab, 0x2a, 0xea, 0xfb, 0xd9, 0xe6, 0x10, 0x7f, 0x33, 0x19, 0x1f, 0x03, 0xbf, 0xd9, 0xb9, 0x28, 0x47, 0xfb, 0x03, 0x37, 0x2a, 0x7f, 0xe1, 0x3c, 0xeb, 0xf0, 0x01, 0xf5, 0xe0, 0x4d, 0xcf, 0x1b, 0xec, 0x4a, 0x17, 0xf4, 0x0a, 0x35, 0x0c, 0xd4, 0x7f, 0xe1, 0x1e, 0xd4, 0x09, 0x22, 0xe6, 0xdb, 0x11, 0x77, 0x1c, 0xc3, 0x3f, 0xf4, 0x45, 0x01, 0xf4, 0x23, 0x36, 0xf6, 0x28, 0x81, 0x98, 0x63, 0xd0, 0x43, 0x26, 0xdc, 0xf1, 0x1a, 0x2e, 0xf3, 0xb1, 0x59, 0x7f, 0xcd, 0x00, 0xed, 0x35, 0x40, 0x10, 0xfc, 0x4a, 0xb4, 0x20, 0x0d, 0x2d, 0x00, 0xb7, 0xac, 0x1e, 0xd4, 0x08, 0xca, 0x05, 0xee, 0x81, 0x36, 0xcf, 0xbe, 0x89, 0xf9, 0x70, 0xf9, 0x11, 0xc7, 0xcc, 0x14, 0xad, 0x87, 0x58, 0x7f, 0x15, 0x0f, 0x22, 0x53, 0x0a, 0x8e, 0x7f, 0xf0, 0x59, 0x7e, 0x21, 0x31, 0x1d, 0xbf, 0xee, 0x34, 0x98, 0xc4, 0x0d, 0x22, 0x1e, 0x3a, 0x0a, 0xf3, 0x1a, 0xd1, 0xdf, 0x1b, 0x81, 0x35, 0x0e, 0xf7, 0x00, 0x71, 0xea, 0x3f, 0xf3, 0x75, 0x42, 0x42, 0x2b, 0xec, 0xee, 0x46, 0x03, 0xf9, 0x5b, 0x6a, 0xbd, 0x7f, 0x3c, 0x1b, 0x1d, 0xd4, 0x16, 0x1b, 0xcf, 0x7f, 0xfb, 0x37, 0xbd, 0x1c, 0xd3, 0xf2, 0xbe, 0x2d, 0xcd, 0xc3, 0xda, 0x3c, 0x48, 0x68, 0xbe, 0x08, 0x60, 0xed, 0x0c, 0x16, 0x62, 0x5f, 0xee, 0xe1, 0x53, 0x81, 0x2f, 0x0d, 0x17, 0x1f, 0xe0, 0xec, 0x18, 0xe6, 0xd3, 0x00, 0xdd, 0x03, 0x0d, 0x24, 0x81, 0xec, 0xea, 0x36, 0xdb, 0x21, 0xda, 0x06, 0x2a, 0x0f, 0xf0, 0xdb, 0xf3, 0xe7, 0x7f, 0x53, 0xee, 0xb9, 0x3a, 0x4c, 0x32, 0x2a, 0xea, 0xdb, 0x0e, 0xec, 0xa7, 0x2e, 0x39, 0x7f, 0xf9, 0x04, 0xe5, 0xd6, 0x7f, 0x3f, 0x37, 0xc4, 0xf2, 0x22, 0x4e, 0x0b, 0xcc, 0x35, 0x5f, 0x14, 0x1f, 0x33, 0x41, 0x02, 0xed, 0x32, 0x3d, 0x5c, 0x33, 0xfe, 0x48, 0xef, 0x14, 0x10, 0xf6, 0x81, 0xd5, 0x4f, 0xd5, 0x28, 0x1f, 0x2f, 0x7f, 0xfc, 0x47, 0xba, 0xf1, 0x1c, 0x04, 0x06, 0x15, 0x1f, 0x13, 0xff, 0x20, 0xaa, 0x77, 0x53, 0x4a, 0x9e, 0xef, 0x39, 0x82, 0xea, 0x50, 0x0b, 0x7f, 0xce, 0xc5, 0x36, 0xd0, 0xac, 0x57, 0x69, 0x5e, 0x4c, 0xf9, 0x2f, 0x7f, 0xce, 0x0e, 0xfe, 0x16, 0x0b, 0x28, 0x01, 0xa6, 0x4e, 0x52, 0xec, 0x34, 0xb4, 0x49, 0xee, 0xeb, 0xd9, 0x91, 0x33, 0xda, 0x09, 0x81, 0xc5, 0xed, 0x47, 0x23, 0x27, 0x18, 0x17, 0x2d, 0x09, 0x45, 0x7f, 0x02, 0xe4, 0x24, 0x67, 0xc1, 0x7f, 0xcd, 0x18, 0xf8, 0xe0, 0x3c, 0x39, 0x74, 0x00, 0x3b, 0xe5, 0xdf, 0xbc, 0x2e, 0x08, 0x7f, 0xfe, 0x4d, 0xe6, 0xab, 0xc8, 0x06, 0x2a, 0x7f, 0xf8, 0xe6, 0x26, 0xd0, 0xec, 0xd0, 0xf8, 0x10, 0x48, 0xd7, 0xde, 0x1c, 0x14, 0x7f, 0x00, 0x47, 0xbc, 0x0c, 0x3e, 0x0c, 0x23, 0xed, 0x0b, 0x16, 0xd3, 0xfc, 0x94, 0xf8, 0x24, 0x3a, 0xe4, 0x6b, 0x19, 0xc6, 0xed, 0x7a, 0x81, 0x08, 0xb9, 0xb5, 0xed, 0x2a, 0xdf, 0xf2, 0x3e, 0xc4, 0x62, 0x4c, 0xf1, 0x81, 0xdd, 0xf2, 0xde, 0xa3, 0x33, 0x78, 0x0e, 0xa5, 0xc6, 0xc6, 0x00, 0x1d, 0xec, 0xf7, 0x5a, 0xb7, 0x6a, 0x64, 0xd5, 0x0e, 0x7f, 0x85, 0x93, 0x94, 0x2c, 0x91, 0x00, 0x19, 0xfc, 0x81, 0xd3, 0x1c, 0xd9, 0xb2, 0xf3, 0xbe, 0x1d, 0xe9, 0x2b, 0x1f, 0x88, 0x2e, 0xf1, 0x3f, 0x48, 0x25, 0x64, 0x54, 0xec, 0x11, 0xd2, 0xc7, 0xb7, 0xde, 0xf7, 0xf2, 0x81, 0xa0, 0xe7, 0x5b, 0x46, 0x1f, 0xf9, 0x46, 0xa0, 0x59, 0xf0, 0x09, 0x2f, 0xab, 0x8a, 0xe7, 0x81, 0x0d, 0x4e, 0x15, 0x19, 0x81, 0xe3, 0xce, 0x51, 0x56, 0xd5, 0x4d, 0x2f, 0x8b, 0x71, 0x9a, 0xb3, 0x7f, 0x11, 0x45, 0x5a, 0x2f, 0x4b, 0x09, 0x27, 0xf1, 0xf4, 0x59, 0xee, 0xff, 0xd3, 0xec, 0x67, 0x81, 0x05, 0x2d, 0xed, 0x08, 0xfa, 0x83, 0xae, 0x98, 0xd7, 0xe2, 0xef, 0xce, 0x17, 0xdc, 0x36, 0xe8, 0x0b, 0x13, 0xd4, 0x6b, 0xad, 0x8a, 0x21, 0xa9, 0xc6, 0x00, 0xf1, 0xa9, 0x37, 0x04, 0x7f, 0xe6, 0x7f, 0x7d, 0x84, 0x15, 0xe4, 0x6a, 0xc5, 0x5d, 0x3b, 0x70, 0x47, 0x01, 0xf7, 0x56, 0x31, 0xf9, 0x3b, 0x02, 0x08, 0x63, 0x37, 0xf5, 0x81, 0xee, 0xcd, 0x56, 0x50, 0xe2, 0x16, 0x03, 0xd5, 0xe0, 0xbe, 0x0f, 0xa6, 0x2c, 0x23, 0x1f, 0x34, 0xe4, 0xfe, 0xcb, 0x20, 0xf0, 0x7f, 0x19, 0xc1, 0x05, 0xe4, 0xfa, 0x7f, 0x9f, 0x1d, 0x57, 0x02, 0xa2, 0xf5, 0xad, 0xfd, 0xe7, 0xdf, 0x12, 0x37, 0xfc, 0x02, 0x11, 0xfd, 0x12, 0xf8, 0x7f, 0x15, 0x00, 0xee, 0x46, 0xea, 0x53, 0x2a, 0x3b, 0xfe, };
const int32_t bias12[48] = {12895, 7423, -1134, 1871, 6791, 12428, -771, 15555, -2459, 4103, -395, 11106, 15088, -5376, -2873, -3606, 3071, -1550, -208, 8482, 3252, 2130, 5865, 13666, 1617, -3501, 974, 5058, -208, 1947, -800, -6271, 339, -7056, -10151, 3977, -6804, -246, 2607, -7519, 3764, 3290, -9826, 6919, -2525, -2675, -598, 10045, };
const int32_t shift12[48] = {-6, -6, -6, -6, -6, -7, -6, -7, -6, -6, -5, -6, -6, -6, -6, -6, -5, -7, -6, -7, -5, -5, -5, -6, -6, -5, -6, -7, -6, -7, -6, -6, -7, -5, -6, -6, -6, -6, -7, -7, -6, -7, -6, -6, -6, -6, -6, -6, };
const int32_t multiplier12[48] = {1178745856, 2021895296, 1903725696, 1235578240, 1849275776, 2127737088, 1657371264, 1680923520, 1888759168, 2141070720, 1094826112, 1346588672, 1316074496, 1713000064, 1463009536, 1078835968, 1619762688, 1368401152, 1656107904, 1889988224, 1416011008, 1111800704, 1095238400, 1551528064, 1308889472, 1153032832, 1096012928, 1788085760, 1731396864, 1404455936, 1844559488, 2031231232, 2119734016, 1115364096, 1513920384, 1721315328, 1316273920, 1390621440, 1965526784, 1736505600, 1931505536, 2003209600, 1429422976, 1245002624, 1746003712, 1501520768, 2051411072, 1451518976, };
const unsigned char CHWweight13[432] = {0x20, 0x48, 0x2d, 0x2e, 0x7f, 0x64, 0x19, 0x5b, 0x52, 0xed, 0xc1, 0xc7, 0xd1, 0x81, 0x91, 0xdd, 0xa4, 0xaf, 0x1a, 0x35, 0x2b, 0x35, 0x7f, 0x5b, 0x25, 0x62, 0x4f, 0x19, 0x42, 0x2f, 0x2b, 0x7f, 0x6e, 0x0e, 0x49, 0x40, 0xfc, 0x08, 0xfe, 0x26, 0x67, 0x53, 0x32, 0x7f, 0x57, 0xe2, 0xbe, 0xc7, 0xc4, 0x81, 0xa4, 0xe5, 0xae, 0xba, 0x2b, 0x3d, 0x1b, 0x4a, 0x7f, 0x44, 0x25, 0x47, 0x45, 0x42, 0x58, 0xdc, 0x41, 0x60, 0x81, 0x22, 0x29, 0x86, 0x1f, 0x2a, 0x1f, 0x3d, 0x7f, 0x5d, 0x2a, 0x4f, 0x49, 0x23, 0x42, 0x38, 0x37, 0x7f, 0x59, 0x25, 0x53, 0x3d, 0x1c, 0x46, 0x36, 0x35, 0x7f, 0x60, 0x23, 0x58, 0x46, 0x0c, 0x1e, 0x12, 0x32, 0x7f, 0x63, 0x17, 0x4e, 0x4c, 0x05, 0xaf, 0xa1, 0x50, 0x13, 0x90, 0x6b, 0x7f, 0xf0, 0xdd, 0xa9, 0xc3, 0xe3, 0x81, 0x92, 0xeb, 0xaf, 0xbd, 0x1a, 0x4b, 0x39, 0x34, 0x7f, 0x6a, 0x1a, 0x58, 0x46, 0x22, 0x47, 0x35, 0x39, 0x7f, 0x67, 0x1c, 0x43, 0x38, 0x13, 0x3b, 0x28, 0x26, 0x7f, 0x65, 0x21, 0x5f, 0x50, 0x27, 0x7d, 0x68, 0xe5, 0x70, 0x7f, 0xe7, 0x33, 0x49, 0x2d, 0x52, 0x41, 0x31, 0x7f, 0x6d, 0x19, 0x44, 0x47, 0x46, 0x72, 0x4c, 0x3d, 0x7f, 0x62, 0x10, 0x21, 0x19, 0xff, 0xdb, 0xe5, 0xd1, 0x81, 0x8f, 0xc5, 0xa4, 0xb3, 0x1d, 0x45, 0x31, 0x38, 0x7f, 0x5d, 0x15, 0x49, 0x3e, 0x11, 0x3b, 0x31, 0x2b, 0x7f, 0x62, 0x0e, 0x54, 0x44, 0x0f, 0x31, 0x26, 0x28, 0x7f, 0x66, 0x29, 0x73, 0x5b, 0x1e, 0x44, 0x42, 0x34, 0x7f, 0x56, 0x2d, 0x56, 0x3f, 0x39, 0x6c, 0x52, 0x41, 0x7f, 0x61, 0x2b, 0x3f, 0x20, 0xe5, 0x95, 0xa7, 0xc7, 0x81, 0x98, 0xde, 0xc4, 0xce, 0x2a, 0x60, 0x4f, 0x3c, 0x7f, 0x6d, 0x0e, 0x3b, 0x3c, 0xe5, 0xcb, 0xd1, 0xdb, 0x87, 0xa5, 0xd2, 0x81, 0x9b, 0x3a, 0x2b, 0xef, 0x7f, 0x5a, 0xdb, 0x5c, 0x40, 0xd9, 0xdc, 0xac, 0xd0, 0xc3, 0x81, 0x9e, 0xf1, 0xd7, 0xdc, 0x2b, 0x59, 0x4c, 0x33, 0x7f, 0x67, 0x1d, 0x46, 0x2f, 0xbd, 0x0d, 0x4c, 0x81, 0xdf, 0x53, 0xaf, 0xdd, 0x17, 0xe2, 0xd4, 0xd2, 0xca, 0x81, 0xad, 0xc4, 0x9c, 0xba, 0x14, 0x46, 0x43, 0x2c, 0x7f, 0x7f, 0x04, 0x46, 0x50, 0xcc, 0xa9, 0xda, 0xd8, 0x88, 0x9f, 0xb0, 0x81, 0x8b, 0xe9, 0xc9, 0xd0, 0xbf, 0x81, 0xa5, 0xdd, 0x9b, 0xca, 0x1e, 0x36, 0x2e, 0x37, 0x7f, 0x5b, 0x0a, 0x35, 0x38, 0xd9, 0xbb, 0xcd, 0xf1, 0xfe, 0x09, 0x24, 0x7f, 0x6a, 0xcf, 0x93, 0xab, 0xd2, 0x81, 0xa1, 0xe8, 0xb7, 0xbc, 0x1b, 0x3e, 0x28, 0x50, 0x7f, 0x60, 0x3d, 0x70, 0x48, 0xd3, 0x9d, 0xfd, 0xc9, 0xb8, 0x1c, 0x18, 0x64, 0x7f, 0xf3, 0xc6, 0xd1, 0xcc, 0x81, 0x9e, 0xc1, 0x8b, 0xb5, 0x1a, 0x38, 0x36, 0x45, 0x7f, 0x71, 0x37, 0x60, 0x59, 0x23, 0x6c, 0x52, 0x20, 0x7a, 0x7f, 0xf7, 0x30, 0x4e, 0xe3, 0xc2, 0xd6, 0xc9, 0x81, 0x8d, 0xda, 0x9d, 0x9f, 0x1d, 0x53, 0x3a, 0x34, 0x7f, 0x60, 0x30, 0x4d, 0x4a, 0x3c, 0x7f, 0x58, 0x14, 0x19, 0x1b, 0xde, 0x8a, 0xa2, };
const int32_t offsetBias13[48] = {81156.0, 34392.0, 77812.0, 79789.0, 72421.0, 14999.0, 75496.0, 56416.0, 94128.0, 78695.0, 83747.0, 75584.0, 40129.0, -39193.0, 84123.0, 76411.0, 96417.0, 74125.0, 87376.0, 79789.0, 38813.0, 85911.0, 72675.0, 83755.0, 84095.0, 90942.0, -60300.0, 82896.0, 16553.0, 48755.0, -3253.0, 93893.0, 6009.0, -31871.0, 97488.0, -78616.0, -42990.0, 66571.0, 13417.0, -62416.0, 87503.0, 42932.0, -30503.0, 87786.0, 79803.0, -48185.0, 85505.0, 33735.0, };
const int32_t offsetRBias13[48] = {0.0, 0.0, 0.0, 0.0, 0.0, 0.0, 0.0, 0.0, 0.0, 0.0, 0.0, 0.0, 0.0, 0.0, 0.0, 0.0, 0.0, 0.0, 0.0, 0.0, 0.0, 0.0, 0.0, 0.0, 0.0, 0.0, 0.0, 0.0, 0.0, 0.0, 0.0, 0.0, 0.0, 0.0, 0.0, 0.0, 0.0, 0.0, 0.0, 0.0, 0.0, 0.0, 0.0, 0.0, 0.0, 0.0, 0.0, 0.0, };
const int32_t shift13[48] = {-8, -8, -8, -7, -8, -8, -8, -8, -7, -7, -7, -8, -8, -7, -7, -7, -8, -5, -8, -8, -8, -8, -8, -8, -7, -7, -7, -6, -8, -6, -8, -8, -7, -8, -8, -7, -7, -7, -7, -6, -8, -8, -8, -7, -7, -7, -7, -8, };
const int32_t multiplier13[48] = {1458946176, 1178571008, 1850541696, 1463044736, 1766285312, 1494044672, 2029040768, 1458288384, 1299449728, 1411185792, 1252146432, 1412502272, 1422666240, 1561234688, 1366150656, 2124909056, 1076788608, 1249929472, 1857164416, 1989595648, 1090404864, 1226951424, 2000062848, 1257885440, 1565863296, 1101871232, 1337211136, 1936411264, 1394822784, 1612763392, 1814991744, 1792470528, 1136633344, 1958545792, 1378448000, 1493899392, 1527385472, 1130494720, 1196354304, 1176048640, 2102006400, 1770563328, 1863576320, 1363789440, 1106488448, 1386016384, 1205541760, 1713695360, };
const unsigned char weight14[1536] = {0x09, 0xdd, 0xe4, 0xc2, 0xc1, 0x7f, 0x13, 0xe4, 0xca, 0x20, 0xf8, 0x66, 0xe7, 0xd1, 0xd7, 0x09, 0xfe, 0xe6, 0x0b, 0x91, 0xda, 0x34, 0xe6, 0x72, 0x67, 0xc1, 0x32, 0x15, 0x38, 0x16, 0x19, 0x2f, 0xe6, 0xf0, 0x13, 0x19, 0xa7, 0xd2, 0x0e, 0x07, 0x31, 0xf1, 0xea, 0x25, 0xd6, 0x4d, 0xef, 0x17, 0xcb, 0x81, 0x13, 0x0b, 0x68, 0x17, 0x12, 0x1d, 0xb9, 0xc5, 0xda, 0x8a, 0x14, 0xad, 0x9f, 0x28, 0xd5, 0xa6, 0x07, 0x14, 0xa1, 0x03, 0xeb, 0x01, 0x2a, 0xc7, 0xd1, 0x26, 0x2d, 0x0c, 0x91, 0x0b, 0x10, 0x1b, 0x2e, 0xcb, 0x16, 0x08, 0xf1, 0xc3, 0x0e, 0x0d, 0xdb, 0xfe, 0x09, 0x63, 0xb2, 0xf2, 0xd7, 0xb8, 0x04, 0x23, 0xe7, 0xb5, 0xd4, 0x0a, 0x08, 0x65, 0x66, 0xdc, 0x27, 0x4b, 0x10, 0x27, 0xc9, 0xfd, 0x42, 0x7f, 0x7d, 0x65, 0xb8, 0x38, 0x3b, 0xf6, 0xe0, 0xcd, 0x4a, 0xe8, 0xdb, 0xd5, 0x04, 0xfa, 0xd1, 0xea, 0xa4, 0xd3, 0xf8, 0xc2, 0xe6, 0xf9, 0xbb, 0x12, 0x0a, 0x0b, 0x13, 0x14, 0x06, 0x37, 0x5d, 0xf1, 0xc2, 0xe3, 0xee, 0x94, 0xe8, 0x27, 0xff, 0xf3, 0x7f, 0x04, 0x51, 0x0e, 0xd5, 0x11, 0xf3, 0x1f, 0xbd, 0x3c, 0x2a, 0x10, 0xe5, 0x11, 0x15, 0x4d, 0xc3, 0xd3, 0xe2, 0x3d, 0x25, 0x0b, 0x53, 0x25, 0x04, 0xfa, 0xea, 0x04, 0x0e, 0x1c, 0x35, 0x28, 0xea, 0x49, 0x1c, 0xe6, 0xb9, 0x7f, 0xc9, 0x08, 0x22, 0x2c, 0xd0, 0x00, 0x28, 0x3d, 0x03, 0xa6, 0x05, 0x0f, 0xfb, 0xd0, 0x06, 0xf9, 0x1b, 0xc9, 0x20, 0x3b, 0x16, 0xfd, 0x42, 0x21, 0xb4, 0xe6, 0xe8, 0x1c, 0xfc, 0x0f, 0x2d, 0xd1, 0x1c, 0x15, 0x48, 0x28, 0xd6, 0xb7, 0xe6, 0xe8, 0x13, 0x1e, 0x16, 0xca, 0x27, 0x07, 0x88, 0xd1, 0x08, 0xd4, 0xa9, 0x45, 0xe0, 0x11, 0xdf, 0xe3, 0xa9, 0xef, 0xfc, 0x17, 0x35, 0xf0, 0xa6, 0xa2, 0xbf, 0x7f, 0x6e, 0xc2, 0x1e, 0xda, 0x8f, 0xec, 0x49, 0xdc, 0x42, 0x85, 0x00, 0x15, 0x0e, 0x2b, 0x3a, 0x49, 0x8d, 0xce, 0xe1, 0x0b, 0xbf, 0x21, 0xf4, 0xf1, 0xd1, 0xf5, 0xcf, 0xff, 0xec, 0x3c, 0x15, 0xec, 0x04, 0xcf, 0xfd, 0x11, 0xb3, 0x81, 0x4f, 0x0f, 0x07, 0xf8, 0x4e, 0x00, 0x34, 0x25, 0xf1, 0x17, 0xbb, 0x61, 0xe2, 0xfb, 0x10, 0xf0, 0x43, 0xbc, 0x24, 0x0b, 0xfc, 0xca, 0x1e, 0x0b, 0xde, 0x12, 0x09, 0xf0, 0xf2, 0x14, 0xe7, 0xfa, 0xda, 0xce, 0xed, 0x0e, 0xfb, 0x1e, 0xfa, 0x81, 0xa8, 0x04, 0x4c, 0xce, 0xd2, 0x05, 0x50, 0x2f, 0x38, 0x0f, 0x29, 0xbd, 0x24, 0x93, 0xdf, 0x33, 0xd8, 0x97, 0x4a, 0xd6, 0xa7, 0x17, 0xcd, 0x0f, 0xe6, 0xec, 0x11, 0x0a, 0xbe, 0xf9, 0xf8, 0xec, 0x08, 0xe0, 0x42, 0xfc, 0xf1, 0x66, 0x15, 0x25, 0x2b, 0x03, 0x2f, 0x16, 0xc9, 0xf7, 0x22, 0xe4, 0xdd, 0x51, 0x96, 0x0e, 0xb8, 0x7f, 0xbe, 0x51, 0xe4, 0x48, 0x0e, 0x3e, 0x12, 0x2c, 0xe2, 0xfd, 0xd9, 0xf6, 0xfe, 0x70, 0xc2, 0x15, 0xf1, 0x09, 0x24, 0x75, 0xa1, 0x0e, 0x6d, 0xce, 0xc8, 0xd6, 0x0f, 0xfd, 0x7a, 0x0f, 0xdc, 0xe0, 0xd5, 0x0e, 0x1c, 0xe7, 0x48, 0x21, 0xfe, 0xba, 0xf2, 0xc3, 0xc8, 0x46, 0xbf, 0x3a, 0x00, 0x0e, 0xef, 0xcd, 0x68, 0xbb, 0xf5, 0xf8, 0x16, 0x06, 0xf1, 0x01, 0x48, 0xeb, 0xb1, 0xa0, 0xec, 0xf5, 0x05, 0xea, 0x03, 0x08, 0x2b, 0xee, 0x2b, 0x82, 0xfc, 0x22, 0x62, 0xf8, 0xf7, 0x21, 0x0e, 0xfe, 0xb4, 0x2f, 0xeb, 0x20, 0x06, 0xf8, 0x7f, 0x1b, 0x7f, 0x6d, 0x03, 0xd5, 0x1e, 0xbd, 0x10, 0x02, 0xfb, 0x4e, 0x27, 0xb8, 0x06, 0x30, 0x15, 0x32, 0xe9, 0x2a, 0xe9, 0xe4, 0x09, 0xe3, 0xfb, 0xcb, 0xf7, 0xc4, 0xfc, 0xaa, 0x3a, 0x2b, 0xfe, 0xf9, 0xaa, 0xef, 0x0c, 0xf0, 0xd4, 0xcf, 0x05, 0xfa, 0x27, 0x14, 0x30, 0xef, 0xed, 0x50, 0xce, 0x2e, 0x22, 0xff, 0x87, 0xcc, 0x07, 0x20, 0x0e, 0xe0, 0x26, 0x11, 0x4a, 0x03, 0xcf, 0xfd, 0xf6, 0x2c, 0xf8, 0xde, 0xf8, 0x4e, 0xce, 0xe7, 0xe5, 0x06, 0xfd, 0x38, 0xea, 0x19, 0xd7, 0xeb, 0x12, 0xdb, 0x12, 0x1f, 0x02, 0x04, 0xfc, 0x10, 0xc9, 0xf4, 0x4a, 0xea, 0x25, 0xda, 0x81, 0x1f, 0xd0, 0xaf, 0xe1, 0x05, 0x11, 0xf5, 0xe5, 0xcb, 0x12, 0xf5, 0x34, 0x11, 0x06, 0x0e, 0x07, 0x81, 0xea, 0xd3, 0x25, 0x04, 0xf0, 0x2f, 0x05, 0xe4, 0xc8, 0xed, 0xc3, 0xfb, 0xfd, 0xf4, 0x1c, 0x54, 0x07, 0xe3, 0xed, 0x14, 0xd4, 0x00, 0x1c, 0x27, 0x03, 0xd7, 0xf2, 0x1a, 0xe9, 0xd1, 0xe8, 0x69, 0x24, 0xf4, 0x81, 0xe0, 0x20, 0x0e, 0x2c, 0xcf, 0x3c, 0xf3, 0xfe, 0xe5, 0xf3, 0x07, 0xe6, 0xeb, 0x00, 0x24, 0xd0, 0x11, 0x2a, 0xae, 0x27, 0x34, 0xf6, 0x48, 0x10, 0x2a, 0x27, 0xd4, 0xe7, 0xe2, 0x34, 0xd3, 0xfc, 0xf6, 0x1d, 0xee, 0x12, 0xe6, 0xee, 0x46, 0xf1, 0xda, 0x24, 0x1f, 0xf0, 0x11, 0x08, 0x2b, 0x32, 0x2c, 0x2c, 0xef, 0x10, 0x57, 0xe7, 0x2e, 0x3e, 0x2e, 0xec, 0x01, 0x11, 0x09, 0x25, 0x17, 0xe2, 0x81, 0x43, 0xc9, 0xc5, 0xde, 0xb7, 0x3a, 0xce, 0xfe, 0xd6, 0xc9, 0x26, 0xe4, 0xf2, 0x10, 0x24, 0xff, 0xba, 0x19, 0xf0, 0xed, 0xe0, 0xff, 0x0c, 0xe7, 0x35, 0x9f, 0x10, 0x08, 0x17, 0xff, 0xfc, 0xf3, 0xd6, 0xbb, 0x38, 0x10, 0xed, 0x2f, 0x4f, 0xee, 0x01, 0x20, 0x17, 0x2f, 0xa8, 0x27, 0x1a, 0x30, 0x05, 0x46, 0xff, 0x30, 0x0f, 0xf0, 0x23, 0xb7, 0x24, 0x44, 0x04, 0xcf, 0x0a, 0xe6, 0x47, 0x10, 0x20, 0xe4, 0x13, 0x0f, 0xd1, 0x1e, 0x0b, 0x50, 0x11, 0xcf, 0xe9, 0x35, 0xf8, 0x7f, 0x67, 0xb5, 0x15, 0xe6, 0xf0, 0x1f, 0x38, 0xee, 0x00, 0x1b, 0xb8, 0x1e, 0x7f, 0xe8, 0xd3, 0x1b, 0x2a, 0x02, 0x11, 0xf7, 0x41, 0xea, 0xb5, 0x0c, 0x3b, 0x4c, 0x2c, 0xc4, 0x2c, 0x16, 0x27, 0x9c, 0x39, 0xd8, 0x4b, 0x10, 0x12, 0xbd, 0xfa, 0xd3, 0xb4, 0xc3, 0xa0, 0xd0, 0x23, 0xc5, 0xeb, 0xe6, 0x11, 0x1f, 0xe0, 0x44, 0xe2, 0xdc, 0xe0, 0x1d, 0xe6, 0xc8, 0xe5, 0xc8, 0x08, 0xe4, 0x27, 0x08, 0xf8, 0x20, 0x1c, 0xe9, 0xd7, 0xf5, 0xef, 0x30, 0xeb, 0x3a, 0x02, 0x1a, 0x54, 0xe0, 0xe4, 0x26, 0xda, 0xe9, 0x01, 0xbf, 0x2c, 0x9f, 0x1a, 0x81, 0x29, 0x02, 0xd5, 0x1c, 0xc9, 0xfc, 0x1b, 0x55, 0xc9, 0x56, 0xfd, 0x58, 0x15, 0xc4, 0xc4, 0xe9, 0x07, 0x61, 0xf9, 0x7f, 0xf0, 0x43, 0x88, 0xee, 0x1b, 0xd2, 0x46, 0x41, 0xce, 0xdc, 0xc5, 0x9e, 0x3e, 0x4e, 0x1b, 0xcc, 0x43, 0x84, 0xfe, 0x0d, 0x08, 0xc0, 0x03, 0xd7, 0xfb, 0xa5, 0x24, 0x47, 0xce, 0xfd, 0xc0, 0xd0, 0xe7, 0x4e, 0xb6, 0xdd, 0xd5, 0xdd, 0xc5, 0x07, 0x7f, 0x14, 0xea, 0xfa, 0xfb, 0x2b, 0x15, 0x48, 0x12, 0x2a, 0x5c, 0xd9, 0xec, 0xf1, 0x0f, 0x01, 0xd9, 0x33, 0x46, 0xb2, 0xe4, 0xf1, 0x14, 0xd5, 0xf1, 0x14, 0x26, 0x11, 0xfb, 0xfa, 0x34, 0xdf, 0xf6, 0xca, 0xfd, 0xc7, 0x13, 0xea, 0xba, 0xc9, 0xfe, 0x4a, 0x0e, 0x32, 0xf9, 0x26, 0x10, 0x3c, 0x1f, 0x7f, 0x00, 0x03, 0xfe, 0xca, 0x0f, 0x4a, 0x0e, 0xd4, 0x02, 0xd7, 0xb4, 0x35, 0xf2, 0x37, 0x0f, 0x25, 0x1e, 0xff, 0x0d, 0x3a, 0xfd, 0x08, 0x4a, 0x12, 0x34, 0xdf, 0xef, 0xe8, 0xf1, 0x14, 0x0e, 0x23, 0x0a, 0x05, 0x32, 0x0c, 0xfd, 0x0b, 0x31, 0x0b, 0x09, 0x0c, 0x4a, 0x1a, 0xa4, 0x07, 0x06, 0x03, 0x7f, 0xf9, 0x03, 0x26, 0xc4, 0xd7, 0xd5, 0xe7, 0x31, 0xfa, 0xc4, 0xee, 0x96, 0x02, 0xf7, 0x36, 0x08, 0x21, 0x1a, 0x0f, 0x1b, 0x06, 0x06, 0xaf, 0xe5, 0xe5, 0x31, 0xce, 0xb2, 0xff, 0x47, 0x0a, 0xfb, 0xd9, 0xbf, 0xec, 0xf3, 0xfc, 0x27, 0x0b, 0x47, 0xeb, 0xfe, 0xf7, 0xb0, 0x42, 0xd7, 0x0f, 0xd1, 0xd9, 0xc4, 0xc9, 0x19, 0xc1, 0x41, 0x5a, 0xff, 0xe7, 0xf3, 0x2e, 0x4d, 0x19, 0x2f, 0xcd, 0x24, 0x07, 0x38, 0xd8, 0xf3, 0xdf, 0xd8, 0xfd, 0x2a, 0xfb, 0xfd, 0xf5, 0x81, 0x26, 0x0a, 0x33, 0x08, 0xf3, 0xee, 0xec, 0x17, 0x04, 0xe9, 0x57, 0x10, 0x11, 0x9b, 0x60, 0x24, 0xe7, 0xfb, 0x8a, 0x68, 0x2f, 0x03, 0xd5, 0x11, 0xbf, 0x46, 0x1d, 0x58, 0xbb, 0x3f, 0x8c, 0xd4, 0x2a, 0x0c, 0x03, 0x09, 0x03, 0xef, 0xfe, 0xed, 0x77, 0x34, 0xa3, 0x4f, 0xbc, 0xff, 0x23, 0xd2, 0x14, 0x00, 0x5d, 0x5d, 0x74, 0x7f, 0xc5, 0xaf, 0x27, 0x2b, 0xeb, 0xcf, 0xf7, 0x66, 0xb5, 0x04, 0x03, 0x05, 0xed, 0x86, 0xb7, 0x12, 0xe4, 0xe3, 0xf1, 0xe8, 0xbd, 0xbd, 0xf9, 0xe5, 0x0f, 0xbf, 0xc2, 0x0b, 0x7f, 0xd0, 0xab, 0xb8, 0xf0, 0xc6, 0x1f, 0x2b, 0xa6, 0x45, 0xd0, 0x17, 0xe6, 0xbb, 0xd4, 0x0e, 0x61, 0x0a, 0xcc, 0xc5, 0xda, 0xe2, 0xf7, 0x99, 0xd5, 0xf5, 0x3c, 0x72, 0x09, 0x0b, 0x41, 0x20, 0x15, 0x28, 0xfa, 0xd8, 0xe4, 0xfa, 0xb5, 0xce, 0xf3, 0x15, 0xd9, 0xdb, 0xfd, 0x7f, 0x16, 0x3b, 0x5b, 0xdb, 0x1e, 0xea, 0x35, 0x32, 0x1a, 0xd4, 0x07, 0x2c, 0x34, 0x18, 0x10, 0x2f, 0x1d, 0xf7, 0xe3, 0x25, 0x57, 0x24, 0x09, 0xbf, 0xe3, 0x28, 0x2a, 0xdb, 0x13, 0x0d, 0x6a, 0x08, 0x31, 0x2d, 0x7f, 0x01, 0xe1, 0xfb, 0x32, 0x17, 0x1c, 0x1a, 0xdb, 0xd7, 0x53, 0x6e, 0xd3, 0xc8, 0xba, 0x45, 0x15, 0xe8, 0x0d, 0xf7, 0xf7, 0xe7, 0xf5, 0xc4, 0xa4, 0xc1, 0xe5, 0xd2, 0x35, 0xd7, 0xbb, 0x06, 0xea, 0x3c, 0xfc, 0xe9, 0xe3, 0x0b, 0x01, 0x05, 0xf4, 0x0c, 0x42, 0x2a, 0xd1, 0x38, 0xd8, 0xf6, 0xd8, 0x81, 0xef, 0x12, 0x06, 0x0b, 0xf3, 0xb7, 0xfb, 0x27, 0x2f, 0x13, 0x33, 0xe0, 0x1a, 0x1d, 0xcc, 0x14, 0x0c, 0x38, 0xee, 0x2f, 0x2b, 0xfb, 0x0c, 0xd4, 0xa2, 0x5f, 0x08, 0x3b, 0xff, 0x49, 0xec, 0x26, 0xe3, 0x12, 0x99, 0xff, 0x0e, 0xff, 0x5b, 0x19, 0xea, 0x44, 0xff, 0x6c, 0xc6, 0x60, 0x11, 0xd7, 0x19, 0xfb, 0xd7, 0xed, 0xc9, 0x1c, 0xb6, 0xfa, 0x9b, 0xc9, 0xa5, 0xae, 0x20, 0x1e, 0xec, 0x21, 0x19, 0x7f, 0x23, 0x25, 0xdd, 0x8f, 0xdd, 0x46, 0xf2, 0xb7, 0x08, 0xc7, 0x25, 0x0e, 0xcb, 0xc5, 0x17, 0xfa, 0x10, 0x0b, 0x1c, 0xf1, 0xdc, 0x41, 0xfa, 0x11, 0x49, 0xac, 0xf9, 0x11, 0x89, 0xcc, 0xf8, 0xf0, 0xe3, 0x07, 0x5a, 0x17, 0x05, 0xfb, 0xf9, 0x81, 0xda, 0xef, 0x09, 0x1d, 0xdf, 0xfc, 0x08, 0x01, 0xdc, 0x13, 0x28, 0xe9, 0x16, 0xcd, 0x0c, 0x00, 0x40, 0x0d, 0x0f, 0xec, 0x22, 0xff, 0xcf, 0xf5, 0xe7, 0xc8, 0xf7, 0xfb, 0xd2, 0x1a, 0x11, 0xe0, 0x32, 0x36, 0x28, 0x36, 0xea, 0x43, 0xd0, 0xec, 0x21, 0x40, 0xf3, 0xfb, 0xd1, 0xfc, 0xe4, 0xf1, 0x17, 0x00, 0x1c, 0xfc, 0xc6, 0xc4, 0x37, 0xc1, 0xd8, 0x0b, 0x07, 0x21, 0xbe, 0x7f, 0x08, 0x4c, 0xcf, 0xd8, 0x20, 0x08, 0xab, 0xad, 0xdf, 0x3f, 0x14, 0xfb, 0xc5, 0x57, 0xbd, 0xe5, 0x29, 0xfc, 0xea, 0x0a, 0xd8, 0xf6, 0xf5, 0x07, 0xfa, 0xe9, 0xf3, 0x22, 0x1a, 0x01, 0x08, 0x30, 0x21, 0xed, 0x03, 0x01, 0x07, 0x24, 0xe1, 0xa9, 0x81, 0x2d, 0xfd, 0x09, 0x04, 0xe9, 0xf7, 0x07, 0x20, 0x07, 0x1e, 0xfc, 0xe9, 0x00, 0x1b, 0xfe, 0x00, 0x26, 0xf6, 0xdd, 0x16, 0x03, 0x0e, 0x12, 0x10, };
const int32_t bias14[32] = {-21283, 79535, 8270, -22474, -21140, 1782, -9086, 77, -41407, 2327, -27462, 13920, 22361, -13508, -33576, -87681, 5106, 29082, -30439, -9664, -68088, 17470, -17616, -36643, 69719, -52198, -31963, 8842, 19280, 42647, -870, 5206, };
const int32_t shift14[32] = {-8, -9, -9, -8, -9, -9, -8, -8, -8, -8, -8, -8, -8, -8, -8, -8, -8, -8, -9, -8, -8, -8, -8, -9, -9, -8, -9, -8, -8, -8, -8, -8, };
const int32_t multiplier14[32] = {1285345408, 2086844288, 1771007104, 1154615552, 2051590528, 1108392192, 1318599040, 1360218240, 1086516224, 1090738432, 1213547136, 1273038848, 1518762624, 1445667968, 1220214272, 1181475200, 1215490688, 1317794048, 1679992192, 1259498240, 1410605824, 1237484800, 1379345152, 1790860672, 1897115776, 1398619136, 2061560448, 1108372224, 1079021184, 1471275904, 1237803264, 1586865024, };
const unsigned char weight15[6144] = {0x3c, 0x3f, 0xf8, 0xf6, 0xfc, 0xcb, 0xbc, 0xf0, 0x00, 0x2d, 0xf3, 0x15, 0x16, 0x04, 0x30, 0x27, 0x18, 0xfd, 0x4e, 0xe0, 0x2d, 0xfd, 0x95, 0xc7, 0x01, 0xed, 0xf6, 0xd3, 0x01, 0xf6, 0x18, 0x81, 0xfc, 0x0e, 0x5f, 0xf8, 0xcf, 0xc8, 0xf6, 0x02, 0xe3, 0xf9, 0xf8, 0xc4, 0xd8, 0xfe, 0xbb, 0x07, 0x12, 0x04, 0xda, 0x0c, 0x81, 0x01, 0xe5, 0xf8, 0x2b, 0xf9, 0xa8, 0xe4, 0xe8, 0x04, 0x16, 0xcd, 0xeb, 0x61, 0x60, 0x33, 0xde, 0xfd, 0xe1, 0x1b, 0x1a, 0x11, 0xbf, 0xf9, 0x28, 0x7f, 0xca, 0xca, 0x9b, 0x23, 0x10, 0x0f, 0x88, 0xfb, 0x01, 0x3d, 0xd1, 0xdc, 0xb8, 0x10, 0xf2, 0xdf, 0xf9, 0xf4, 0xb6, 0x16, 0xee, 0xfb, 0xbe, 0x81, 0xb2, 0xd3, 0xbb, 0xf0, 0x52, 0x04, 0x23, 0xda, 0xfa, 0xae, 0xe4, 0xcf, 0x10, 0xf8, 0x05, 0xdd, 0xfb, 0xbd, 0x3d, 0x28, 0x01, 0xd8, 0xe7, 0x19, 0x2d, 0xfd, 0x4d, 0xc8, 0x7f, 0x1f, 0x7f, 0x48, 0xf1, 0xdd, 0xdd, 0xd1, 0x54, 0x43, 0xbb, 0xd7, 0xfb, 0x43, 0xee, 0xe4, 0xc1, 0xef, 0xd4, 0x01, 0x95, 0x25, 0x01, 0x3d, 0xe4, 0x32, 0x11, 0x54, 0xc3, 0xde, 0x1c, 0x03, 0xde, 0xc9, 0xf5, 0xbf, 0xdf, 0x17, 0x1d, 0x2a, 0x00, 0x41, 0xee, 0x2b, 0xe7, 0x16, 0x0d, 0x0f, 0xec, 0x15, 0xc6, 0x7f, 0x1c, 0x28, 0xc4, 0x06, 0xeb, 0x95, 0xbd, 0x16, 0x06, 0xfe, 0xe7, 0x22, 0xe0, 0x05, 0x36, 0x7f, 0xf4, 0x38, 0xd8, 0x4d, 0x46, 0x20, 0xfb, 0x1a, 0x22, 0xe1, 0x08, 0xe1, 0xff, 0xec, 0x37, 0xe9, 0x11, 0x3d, 0x01, 0xdf, 0xdb, 0x15, 0x02, 0x2c, 0x1b, 0xc2, 0xe7, 0x02, 0xf5, 0x3c, 0x0f, 0x0a, 0x10, 0x07, 0x16, 0xee, 0xeb, 0x90, 0xf2, 0xba, 0x24, 0x0f, 0xd2, 0xda, 0x15, 0xf1, 0x03, 0xa8, 0xe8, 0xe2, 0x4c, 0xf4, 0xeb, 0x7f, 0x10, 0xde, 0x53, 0xf8, 0xb1, 0xec, 0x2f, 0xfb, 0x81, 0x44, 0x95, 0x1b, 0x0d, 0xe1, 0x23, 0x30, 0xe0, 0x97, 0xd9, 0x02, 0xd8, 0xd2, 0x1a, 0xfd, 0x2f, 0xe9, 0x1e, 0xd0, 0xff, 0xcc, 0xec, 0xe3, 0xe7, 0xfe, 0xf9, 0x0f, 0x47, 0xb6, 0xe3, 0xf7, 0xce, 0xdd, 0xf9, 0x14, 0x16, 0x0d, 0x5d, 0xe2, 0x06, 0xe3, 0x81, 0x13, 0xf9, 0x26, 0xbf, 0x0b, 0x6a, 0xca, 0x23, 0x11, 0x36, 0xf3, 0xce, 0x0d, 0x9c, 0xce, 0xe5, 0x21, 0x05, 0xce, 0x1d, 0x1f, 0xa9, 0x81, 0x36, 0xf2, 0xf8, 0x94, 0xe9, 0x05, 0xfb, 0x1a, 0x36, 0xe1, 0xf1, 0xd3, 0xe6, 0xc8, 0x43, 0x0e, 0x23, 0x3c, 0xf7, 0xd2, 0x1e, 0x12, 0x1a, 0x2a, 0x21, 0xe8, 0xf2, 0xd7, 0xf4, 0x81, 0xf9, 0xe3, 0xf4, 0xff, 0x22, 0xe8, 0xc6, 0x28, 0xe3, 0x33, 0x40, 0xca, 0x9a, 0xf9, 0x34, 0x0b, 0xf3, 0xfe, 0xd9, 0xd8, 0x28, 0x21, 0xda, 0x7b, 0x10, 0xf2, 0x05, 0x13, 0xe4, 0x17, 0xfb, 0x11, 0xd1, 0x81, 0xee, 0xe8, 0x22, 0x09, 0xfe, 0x1e, 0x02, 0xfe, 0xeb, 0x0b, 0xcd, 0x38, 0xd6, 0xfb, 0x03, 0x0e, 0x01, 0x49, 0x1f, 0xdb, 0xe4, 0x4e, 0xea, 0x20, 0x04, 0xa9, 0xf8, 0xf4, 0x7f, 0x11, 0xca, 0xaa, 0x12, 0x28, 0xfb, 0xe6, 0x0d, 0xff, 0x05, 0xe1, 0x0d, 0x07, 0x17, 0x2b, 0xd8, 0xf2, 0xe1, 0x44, 0xde, 0xc7, 0xef, 0x15, 0xf0, 0x36, 0x0f, 0x0f, 0x03, 0x9a, 0x18, 0xe0, 0x7f, 0xe4, 0xce, 0x01, 0x48, 0x23, 0xe2, 0xd8, 0x15, 0xf3, 0x00, 0x18, 0x4a, 0xed, 0x0d, 0xf7, 0xdf, 0xd2, 0xfc, 0x21, 0x0d, 0xe3, 0x05, 0xfb, 0x26, 0xf6, 0xff, 0xed, 0xf6, 0xbf, 0x0a, 0x7e, 0x81, 0x08, 0xfe, 0xd1, 0x1e, 0x2f, 0xd3, 0xf4, 0x29, 0x15, 0x4a, 0xc4, 0xfe, 0xf4, 0xe4, 0x61, 0x14, 0x3b, 0x17, 0xf8, 0xbf, 0xdb, 0x19, 0xe4, 0xda, 0x00, 0x04, 0x25, 0x12, 0x43, 0x43, 0x9d, 0x22, 0x14, 0x45, 0x93, 0x53, 0x37, 0x4d, 0x08, 0xfa, 0x15, 0x45, 0xb6, 0x0d, 0xd1, 0xff, 0xf3, 0x15, 0xc8, 0xb7, 0x33, 0xc7, 0x09, 0x72, 0xb1, 0x7f, 0xf0, 0xd5, 0xe5, 0xdd, 0x32, 0x00, 0x18, 0x02, 0xfd, 0xd3, 0x81, 0xea, 0x07, 0xfb, 0x04, 0x1f, 0x1e, 0x2b, 0xf0, 0xe1, 0xf1, 0xf4, 0x15, 0x0a, 0x11, 0xf2, 0xd4, 0x20, 0xea, 0xef, 0x06, 0xcc, 0x0b, 0xfc, 0x1a, 0x04, 0xda, 0x1e, 0x2b, 0x08, 0x05, 0x5a, 0xea, 0xe7, 0x67, 0xec, 0x04, 0x1f, 0x29, 0xfe, 0xd3, 0x1d, 0x33, 0x1f, 0xb2, 0x3f, 0x42, 0xc2, 0xed, 0x13, 0x17, 0xfd, 0x11, 0x03, 0xfd, 0x31, 0x81, 0xfb, 0x2a, 0x17, 0x2f, 0x4f, 0xe2, 0xd8, 0xd3, 0x10, 0x12, 0x7f, 0xe8, 0xfe, 0xc4, 0x12, 0xb2, 0x14, 0xc5, 0x16, 0x1d, 0xc2, 0x08, 0x21, 0xbf, 0xfb, 0x39, 0xef, 0xee, 0xc3, 0xd1, 0x45, 0xdf, 0x98, 0xc6, 0x20, 0x0a, 0x7f, 0xdb, 0xe0, 0xa7, 0x66, 0xed, 0x01, 0xc1, 0xcb, 0x1b, 0x14, 0xe8, 0x45, 0x0b, 0x09, 0x13, 0xe3, 0xd3, 0x40, 0x42, 0xe5, 0x0c, 0x20, 0x00, 0xf6, 0xf5, 0x01, 0xf4, 0xf6, 0x20, 0x02, 0xd5, 0x2d, 0xf5, 0xfb, 0x1e, 0xe4, 0x2b, 0x23, 0x81, 0x06, 0x27, 0x06, 0xb7, 0x71, 0x14, 0xf8, 0x1d, 0x1c, 0xed, 0xea, 0x0c, 0x79, 0x1f, 0x0c, 0xeb, 0xfc, 0x15, 0xe3, 0x51, 0xdd, 0xec, 0xf7, 0xf8, 0x14, 0x19, 0xa6, 0xe5, 0xe9, 0x1a, 0xe1, 0xd8, 0xea, 0xe7, 0x00, 0x11, 0x27, 0x1b, 0x07, 0xf3, 0xba, 0x08, 0xff, 0x02, 0xfb, 0x1a, 0xe9, 0x21, 0x0d, 0x01, 0x05, 0xd8, 0xeb, 0x7f, 0x21, 0xcf, 0x12, 0xfa, 0x4e, 0x81, 0xf7, 0xda, 0x03, 0x4a, 0x25, 0x0f, 0x0f, 0xdc, 0x14, 0x4b, 0xe2, 0xfe, 0x74, 0x03, 0xd3, 0x24, 0x25, 0x01, 0xee, 0xca, 0xed, 0x19, 0x3b, 0xf0, 0xef, 0xe3, 0x03, 0x44, 0x00, 0xf9, 0x44, 0xf1, 0x57, 0xd6, 0x5c, 0xcc, 0x58, 0x0e, 0xbb, 0x5c, 0xeb, 0x28, 0xef, 0x20, 0xf1, 0x28, 0x01, 0xe0, 0x81, 0xdd, 0x09, 0x2e, 0x54, 0xd6, 0xf2, 0xda, 0xa0, 0xb7, 0x32, 0x44, 0x13, 0x36, 0x0a, 0xaf, 0xde, 0x10, 0x4c, 0x81, 0x2a, 0x36, 0xf3, 0xd0, 0x0a, 0x16, 0xf9, 0xeb, 0x3c, 0x63, 0x14, 0x2a, 0xb7, 0xf8, 0x3d, 0x26, 0xed, 0xe3, 0x1c, 0x25, 0xfe, 0x30, 0x03, 0xf8, 0xfb, 0x03, 0xc1, 0x81, 0x3d, 0xf1, 0x0e, 0xd8, 0x32, 0x15, 0xfc, 0xec, 0x05, 0x0c, 0x15, 0x03, 0x49, 0x0d, 0xf3, 0xf1, 0xbd, 0x24, 0x37, 0xdf, 0xd7, 0xe5, 0xee, 0x5a, 0x0f, 0x71, 0xe8, 0xfe, 0x2a, 0x26, 0x75, 0xc0, 0x35, 0x83, 0xf1, 0x4d, 0x15, 0x37, 0xe7, 0xb1, 0xd1, 0x15, 0xc6, 0x00, 0x51, 0x15, 0x81, 0x1b, 0x4f, 0xf3, 0xea, 0x8e, 0xca, 0x23, 0x52, 0x28, 0xb6, 0x39, 0xab, 0xfe, 0xfb, 0xf8, 0xa8, 0x0f, 0x81, 0xf0, 0x07, 0xdf, 0xed, 0xe1, 0x22, 0xec, 0x30, 0xea, 0x15, 0xdc, 0x03, 0xff, 0x0d, 0x0a, 0xfb, 0xe7, 0xd6, 0x3a, 0xe7, 0xee, 0xe3, 0x2f, 0xed, 0x2d, 0xb3, 0x27, 0xd7, 0xf9, 0x3b, 0x85, 0xb8, 0x37, 0xdc, 0xb8, 0x3b, 0xdc, 0xd6, 0x0c, 0xfe, 0xdc, 0xe4, 0xf7, 0x56, 0x03, 0x9e, 0xe9, 0xac, 0x00, 0xf1, 0xbe, 0x3d, 0xd5, 0xc2, 0xbb, 0xe9, 0x81, 0xdd, 0x04, 0x06, 0x33, 0x25, 0xde, 0xf7, 0x14, 0xbf, 0x0e, 0xd3, 0x3d, 0x02, 0xf7, 0x02, 0x22, 0x7f, 0xfc, 0xef, 0xfb, 0xf1, 0x15, 0x26, 0x05, 0xc3, 0x17, 0x00, 0xad, 0xcf, 0x0d, 0x01, 0xea, 0x06, 0xe9, 0x65, 0xfa, 0x81, 0x89, 0xc5, 0x64, 0x06, 0x02, 0x04, 0xf2, 0x04, 0x6d, 0xf6, 0x35, 0x3b, 0x12, 0x07, 0x11, 0xbe, 0xc7, 0xe4, 0xe7, 0xfe, 0x2d, 0xbc, 0xde, 0x0d, 0xc0, 0x26, 0xa3, 0xfe, 0x02, 0x0f, 0xd3, 0x17, 0xfe, 0x02, 0x41, 0xf8, 0x09, 0xd8, 0x0a, 0x7b, 0xef, 0x19, 0x05, 0xec, 0xec, 0x29, 0x81, 0xbb, 0x1d, 0x60, 0xd5, 0x59, 0xdf, 0x29, 0xdd, 0x30, 0x22, 0xb7, 0x2d, 0x12, 0x33, 0x03, 0xe4, 0xf3, 0xb3, 0xf0, 0x29, 0x64, 0xfa, 0xf9, 0x81, 0x05, 0xa9, 0x3c, 0xee, 0x43, 0xa7, 0xf7, 0xfc, 0x1e, 0x03, 0x38, 0x6c, 0xe9, 0xd4, 0xf0, 0xe6, 0x40, 0xf7, 0xe1, 0x04, 0xd0, 0x06, 0xfe, 0x45, 0xf1, 0xaa, 0x2a, 0x10, 0x6b, 0xd7, 0x8f, 0x81, 0xb3, 0x20, 0x66, 0x3e, 0x18, 0xe8, 0x34, 0x13, 0xb5, 0x95, 0xfa, 0x03, 0x13, 0xc6, 0xe8, 0x64, 0x11, 0x0e, 0x2a, 0xb9, 0xb0, 0xf3, 0x81, 0xd5, 0x09, 0xb0, 0xae, 0x2c, 0x04, 0xe7, 0xf8, 0x15, 0x18, 0xc9, 0xea, 0xf2, 0xe6, 0xf6, 0xa9, 0x02, 0xc9, 0xea, 0x19, 0xf2, 0xf2, 0xa2, 0xf7, 0x02, 0x16, 0xe7, 0x03, 0x94, 0x29, 0xcb, 0xaf, 0xfe, 0x5c, 0x48, 0x96, 0xe4, 0x04, 0x0a, 0x1c, 0x02, 0x0c, 0xc5, 0xef, 0x68, 0xe6, 0xfb, 0x77, 0x01, 0x95, 0xd2, 0xca, 0xe8, 0xff, 0x50, 0xb8, 0xe0, 0xdb, 0xde, 0x06, 0x7f, 0x53, 0x81, 0xed, 0x03, 0xb5, 0x24, 0x12, 0x40, 0xf5, 0xcf, 0xac, 0x22, 0x15, 0x0f, 0xf8, 0x1a, 0xc8, 0xe6, 0xed, 0x7a, 0x31, 0xcf, 0xf3, 0xf5, 0xb2, 0xae, 0x3e, 0x02, 0x05, 0x1b, 0x07, 0x09, 0x24, 0xe8, 0xef, 0xf5, 0xd0, 0x05, 0x2b, 0xb5, 0x10, 0x8c, 0xb6, 0xef, 0x21, 0xc1, 0xdb, 0x02, 0xfc, 0x11, 0xff, 0x4b, 0x81, 0x01, 0xf8, 0x13, 0x17, 0x03, 0x57, 0xd3, 0x1a, 0xe8, 0xf7, 0x20, 0xd5, 0x5a, 0x57, 0xdb, 0xfd, 0xbf, 0xad, 0x52, 0xf8, 0x34, 0x27, 0x06, 0xc6, 0x36, 0xe5, 0xf3, 0x08, 0xcd, 0xf5, 0x86, 0x05, 0xd1, 0xef, 0xaa, 0xfb, 0xa6, 0x16, 0x04, 0xe5, 0xf2, 0xbb, 0x7f, 0xe4, 0x15, 0x13, 0xee, 0x2a, 0x81, 0x37, 0xf5, 0x30, 0xe5, 0xda, 0x13, 0xdc, 0x46, 0x15, 0x49, 0xf4, 0x08, 0x01, 0xd0, 0xa8, 0xdf, 0xff, 0xfd, 0xde, 0xf9, 0x0b, 0x03, 0xf9, 0xf1, 0x70, 0x9f, 0x15, 0xd4, 0xf9, 0x0b, 0x35, 0x4d, 0x4d, 0xfe, 0x04, 0x06, 0x03, 0xfb, 0x33, 0x10, 0x15, 0x0a, 0xe5, 0xe9, 0x2b, 0x81, 0xd3, 0xeb, 0x14, 0x2d, 0xf5, 0xd7, 0x04, 0xf6, 0xf0, 0xff, 0xef, 0x63, 0x61, 0x81, 0x1c, 0xdf, 0x55, 0x78, 0xe0, 0x25, 0xb5, 0x38, 0x21, 0xea, 0xdf, 0xfe, 0x74, 0xe8, 0xdb, 0xee, 0x1e, 0x3e, 0xbe, 0xb7, 0xe5, 0xc0, 0x22, 0x17, 0x3b, 0x85, 0x0a, 0xc4, 0x05, 0x15, 0xdd, 0x0e, 0xb3, 0x0c, 0xf9, 0xfe, 0xde, 0x2e, 0x15, 0xd9, 0xe5, 0x57, 0xdf, 0x32, 0x05, 0xb1, 0x5f, 0xf3, 0x1c, 0xe1, 0x08, 0x4e, 0x22, 0x16, 0x03, 0x05, 0xeb, 0xfb, 0x03, 0x0e, 0x81, 0xf4, 0x52, 0x7c, 0x1c, 0xe2, 0x7e, 0xc2, 0xa3, 0xd5, 0xf0, 0xb2, 0xf4, 0x09, 0xeb, 0xfd, 0x6b, 0x97, 0x2c, 0x01, 0xd5, 0x47, 0xd2, 0xd2, 0x45, 0xec, 0x4b, 0x81, 0x62, 0xc8, 0xf2, 0x38, 0x08, 0xc4, 0xec, 0xfc, 0xe5, 0xfc, 0xe9, 0x81, 0x03, 0x0e, 0x0d, 0x16, 0x16, 0xda, 0xf1, 0x18, 0xd6, 0xd3, 0x0d, 0x32, 0x00, 0x09, 0x1a, 0x23, 0x05, 0x34, 0x46, 0x24, 0x05, 0xfc, 0x17, 0xee, 0x03, 0x09, 0x37, 0x06, 0xc0, 0x15, 0x81, 0x10, 0x1c, 0xef, 0x08, 0x70, 0x12, 0x26, 0xf2, 0xeb, 0x1d, 0x19, 0x18, 0x12, 0x14, 0xd9, 0xb2, 0xdd, 0xda, 0x13, 0xfd, 0x0c, 0xe2, 0x12, 0x07, 0xfa, 0x28, 0xe6, 0xf4, 0x18, 0xd6, 0xea, 0xef, 0x81, 0xee, 0xea, 0xcf, 0xe3, 0x01, 0xd4, 0x07, 0xcd, 0x5f, 0x27, 0xe3, 0x12, 0x2f, 0x4e, 0xef, 0x0e, 0x37, 0x04, 0x3c, 0x27, 0xf6, 0xc4, 0xd4, 0xb3, 0xe5, 0x69, 0x12, 0xcc, 0x72, 0x06, 0xa4, 0x1f, 0xb2, 0xec, 0xe9, 0xe2, 0x0b, 0xd7, 0x0a, 0xdd, 0xa0, 0xdf, 0x04, 0xfd, 0x44, 0x07, 0x67, 0xf9, 0x3c, 0xe4, 0x18, 0x26, 0xc1, 0xe2, 0xb4, 0x23, 0x0c, 0x81, 0x71, 0x7f, 0xbe, 0x4a, 0xc1, 0xdd, 0x91, 0x6d, 0x43, 0xf5, 0xbc, 0xfa, 0xf6, 0x0d, 0x02, 0xf9, 0xe4, 0xf3, 0x00, 0x29, 0xf2, 0x39, 0xbb, 0xe3, 0x0a, 0xeb, 0xf1, 0x47, 0xac, 0xfd, 0xdc, 0x5e, 0x0b, 0x0e, 0x12, 0xe3, 0xf8, 0x29, 0x1e, 0x0e, 0x62, 0x2a, 0x0c, 0xcb, 0x1d, 0xc0, 0xf4, 0x29, 0x1d, 0x11, 0xee, 0x16, 0x00, 0xfc, 0xfc, 0x1f, 0xa5, 0xd2, 0xe9, 0x81, 0x13, 0x1e, 0xf4, 0xef, 0xfb, 0x7f, 0xe7, 0xe5, 0x27, 0xcd, 0xcc, 0xf2, 0xdb, 0x0e, 0x39, 0xe1, 0xf5, 0x11, 0x08, 0xd4, 0x20, 0x20, 0xeb, 0x41, 0xb9, 0xfe, 0x26, 0x2a, 0x59, 0xd6, 0x01, 0xff, 0x0d, 0x1d, 0xf4, 0xa7, 0xbd, 0x9b, 0x28, 0x29, 0xa3, 0x81, 0x21, 0x0d, 0x1f, 0xda, 0x19, 0xef, 0x12, 0x55, 0xaa, 0x29, 0xf5, 0x1a, 0xfc, 0x00, 0xd7, 0x06, 0xd1, 0x33, 0x06, 0xec, 0xe4, 0x28, 0x1a, 0x63, 0x35, 0xa4, 0xf5, 0xac, 0x81, 0xf0, 0xcd, 0x0a, 0x5c, 0xee, 0xed, 0xc7, 0xea, 0xf0, 0x11, 0xde, 0x59, 0x0c, 0xef, 0xed, 0x0f, 0xd6, 0x47, 0x04, 0x05, 0xf8, 0xeb, 0xe4, 0x32, 0xbb, 0xf9, 0x36, 0xe6, 0x48, 0xb0, 0x2c, 0xd1, 0x2f, 0xca, 0x81, 0xcd, 0x18, 0xd5, 0xb5, 0x3b, 0xe3, 0xd8, 0x26, 0x85, 0x27, 0x0c, 0x1a, 0xf0, 0x5a, 0xe4, 0x0f, 0xbf, 0x0c, 0x30, 0x19, 0xe2, 0x54, 0xed, 0x64, 0x11, 0x0f, 0xe1, 0x57, 0x12, 0xef, 0x81, 0x30, 0x0e, 0xec, 0xae, 0xf9, 0x16, 0xfa, 0x27, 0xf8, 0xee, 0xb7, 0xec, 0x0c, 0x46, 0xf2, 0x55, 0x01, 0xec, 0x14, 0xf2, 0xdb, 0x30, 0xdf, 0x04, 0xe0, 0x02, 0x05, 0x30, 0xeb, 0xa5, 0xe6, 0xdb, 0xf2, 0xda, 0x21, 0xd8, 0xe2, 0xdc, 0xf1, 0xed, 0x0e, 0x28, 0x81, 0x3f, 0x1a, 0xec, 0xd5, 0x10, 0xf5, 0xfb, 0x01, 0x1a, 0xfd, 0x0e, 0xed, 0x1b, 0x26, 0x2c, 0x2d, 0xf6, 0x2e, 0x27, 0x11, 0xf6, 0x7f, 0xfc, 0x0f, 0xf4, 0xae, 0xe4, 0xd7, 0x2c, 0x24, 0xe4, 0x02, 0x09, 0x09, 0xd8, 0xf6, 0x03, 0x24, 0xf4, 0x02, 0xed, 0xec, 0xdf, 0x0e, 0x10, 0x05, 0xd6, 0xa6, 0x4b, 0x18, 0x9c, 0x00, 0x95, 0x7f, 0x41, 0xd1, 0xf6, 0xc0, 0x2a, 0xf6, 0x04, 0x3b, 0x12, 0x31, 0x53, 0xfe, 0xd4, 0xff, 0xf2, 0x3c, 0xc2, 0x0e, 0xfa, 0xda, 0x10, 0x27, 0x4a, 0xc8, 0xef, 0xf5, 0xf1, 0xaa, 0xd0, 0xeb, 0xde, 0xbf, 0xe6, 0x10, 0x40, 0xe3, 0xf2, 0x1e, 0x0c, 0x35, 0x2e, 0x02, 0x04, 0xf6, 0x1a, 0x07, 0xa0, 0xb8, 0x7f, 0xde, 0xe6, 0xe8, 0xf9, 0xdb, 0x0a, 0x54, 0x36, 0x4d, 0x1c, 0x1a, 0xb8, 0x1d, 0xe7, 0x0e, 0xd6, 0x17, 0x00, 0xcd, 0x14, 0x3b, 0xf8, 0xe5, 0x22, 0x5d, 0xb0, 0xe5, 0xdd, 0x67, 0xf0, 0x2a, 0x23, 0xae, 0x3e, 0x23, 0xe7, 0x0c, 0x4a, 0x44, 0xc5, 0x81, 0x91, 0xb4, 0x0d, 0xf2, 0x14, 0x60, 0x3e, 0x66, 0x3c, 0x09, 0x42, 0x06, 0x15, 0x31, 0x0a, 0x18, 0x22, 0x06, 0x48, 0x7f, 0xff, 0x15, 0xa4, 0xdc, 0x25, 0x9c, 0xe4, 0x1b, 0xde, 0x47, 0x2b, 0x3d, 0x34, 0x15, 0x78, 0x1e, 0xf6, 0x81, 0xf2, 0xef, 0xe6, 0x23, 0x34, 0xe8, 0x11, 0xe5, 0xa9, 0x08, 0xfb, 0x3f, 0x1f, 0xec, 0xf5, 0x27, 0xfa, 0xa9, 0xee, 0x1d, 0xf8, 0x09, 0x37, 0xd1, 0xeb, 0x1c, 0x28, 0xc3, 0x7b, 0x20, 0x27, 0x22, 0x50, 0xdb, 0x17, 0xf1, 0x1e, 0x02, 0xdd, 0x12, 0x01, 0x11, 0xf6, 0x17, 0xfb, 0x9e, 0x12, 0x42, 0xfb, 0x12, 0x0f, 0x24, 0x1b, 0x06, 0x21, 0x21, 0xeb, 0x81, 0xfe, 0xdc, 0xb5, 0xe6, 0xeb, 0xd6, 0xfe, 0x12, 0x13, 0xd1, 0xd5, 0xe1, 0xec, 0x18, 0x31, 0xf0, 0x4f, 0xfa, 0x4b, 0xef, 0x7f, 0xf1, 0xf9, 0xc5, 0x11, 0x3f, 0x11, 0xc2, 0xe6, 0x54, 0x24, 0xeb, 0x28, 0x1a, 0x23, 0xf9, 0xee, 0x38, 0x22, 0x31, 0xeb, 0x81, 0xc8, 0x05, 0xc0, 0xc6, 0x06, 0xbf, 0xde, 0x18, 0xbd, 0xe1, 0xfe, 0x44, 0x9e, 0xa9, 0xaf, 0xe2, 0x33, 0xf2, 0x43, 0x1e, 0x21, 0xff, 0xdb, 0xa5, 0x54, 0x0c, 0x90, 0x87, 0x07, 0x53, 0xfa, 0xf1, 0x2b, 0x16, 0xf4, 0xc8, 0x3f, 0xea, 0xde, 0xd5, 0xc0, 0xff, 0x00, 0x15, 0x28, 0xc4, 0xf3, 0x01, 0xf0, 0xe7, 0x11, 0x1f, 0xcc, 0x81, 0xda, 0x2c, 0x6a, 0x14, 0x37, 0xfc, 0x20, 0xf9, 0xe3, 0xfb, 0x8a, 0x51, 0xda, 0x8c, 0xcc, 0xad, 0x49, 0x13, 0x05, 0x0d, 0x61, 0x61, 0x2a, 0xe7, 0x3e, 0x12, 0xf7, 0x63, 0xef, 0xc4, 0x1d, 0x81, 0xb3, 0x4c, 0xb1, 0xd4, 0x47, 0x81, 0xf6, 0x13, 0xe7, 0x1d, 0xa6, 0x28, 0x2e, 0xd7, 0x04, 0x09, 0xf9, 0x2f, 0xba, 0xcc, 0x30, 0x41, 0xd5, 0x34, 0x3f, 0x84, 0x23, 0xfd, 0x53, 0xdc, 0xfa, 0x2c, 0xe8, 0xac, 0xce, 0xf3, 0xe1, 0x60, 0xe8, 0x05, 0xed, 0x42, 0xfa, 0xfa, 0xfc, 0x23, 0xff, 0xb8, 0xf0, 0x1d, 0xde, 0x81, 0xf0, 0xdb, 0x42, 0xcf, 0xba, 0xd3, 0x21, 0xf6, 0x10, 0x27, 0x51, 0xf5, 0x34, 0xe7, 0xc8, 0xa3, 0x10, 0xc9, 0x98, 0x05, 0x11, 0xfe, 0x14, 0x04, 0x1e, 0x1f, 0x39, 0x0e, 0x54, 0x41, 0x2d, 0x1f, 0xd2, 0xdd, 0x00, 0xb3, 0xcf, 0xf4, 0x30, 0x36, 0x03, 0xed, 0x2f, 0x7f, 0xd3, 0xee, 0x1c, 0xeb, 0x06, 0x15, 0xc6, 0xf5, 0xf6, 0x09, 0x81, 0xf1, 0x01, 0x5e, 0xfa, 0xcd, 0x0b, 0xe8, 0xb7, 0xf2, 0xf5, 0xef, 0xf2, 0x1b, 0x4e, 0xb7, 0xd5, 0xd6, 0xf6, 0x2e, 0x23, 0x24, 0x53, 0xdb, 0x54, 0xf1, 0x14, 0x81, 0x3d, 0xf4, 0x09, 0xd6, 0xee, 0xff, 0x04, 0xdf, 0xce, 0xfa, 0x3b, 0xf4, 0x25, 0xf7, 0x01, 0x24, 0x1e, 0xf4, 0xf2, 0xe2, 0x18, 0x18, 0x27, 0xdc, 0xf5, 0xf9, 0xec, 0x12, 0xb6, 0x19, 0xe8, 0xda, 0x4b, 0x21, 0x1d, 0xe6, 0x29, 0xf0, 0xe2, 0x7f, 0xf3, 0x65, 0xef, 0xef, 0xf5, 0x44, 0x86, 0xeb, 0xd4, 0xab, 0x2b, 0x0e, 0x26, 0x30, 0xdc, 0x0c, 0x90, 0x00, 0x35, 0x23, 0xfc, 0x05, 0x00, 0x26, 0x7f, 0x24, 0x0b, 0xbe, 0x1c, 0xfd, 0xe6, 0x0f, 0x11, 0xf7, 0xd9, 0x18, 0x0f, 0xfd, 0x14, 0x38, 0x0d, 0xeb, 0x02, 0xde, 0x08, 0xf6, 0x00, 0xd0, 0xed, 0xea, 0x2f, 0x22, 0x81, 0x05, 0xe8, 0xca, 0x3a, 0xb8, 0xf6, 0x0a, 0xc7, 0x36, 0x0c, 0xa1, 0x41, 0x17, 0x08, 0x2b, 0xd7, 0xdb, 0x67, 0xfe, 0x05, 0xd8, 0x3b, 0x00, 0xc3, 0xe2, 0x05, 0x05, 0xf9, 0xc4, 0x7f, 0xb2, 0x4b, 0xd5, 0xc3, 0x03, 0xb8, 0x10, 0xf7, 0xfb, 0xf1, 0x0d, 0xac, 0xec, 0xe1, 0x4c, 0xf2, 0x05, 0xe8, 0xf5, 0x34, 0xc3, 0x30, 0x03, 0x3b, 0x1c, 0x17, 0xff, 0x01, 0x39, 0xb0, 0x2f, 0xf2, 0xfd, 0x81, 0x01, 0x1f, 0xe8, 0x40, 0xda, 0x1c, 0xf9, 0x1a, 0x1a, 0xdd, 0xda, 0x0a, 0x2c, 0xd9, 0x04, 0x2c, 0xf0, 0xcd, 0xf2, 0xe4, 0xfb, 0x06, 0x11, 0x18, 0xe0, 0x07, 0xf8, 0xf0, 0x51, 0x2b, 0x07, 0x4d, 0xf1, 0x1b, 0x48, 0xf7, 0x25, 0xc2, 0x81, 0x43, 0xe3, 0x20, 0x52, 0x23, 0x0c, 0x01, 0xf9, 0x54, 0x02, 0xe4, 0x02, 0x50, 0x11, 0xc2, 0xe9, 0xd5, 0xff, 0x0c, 0xdb, 0x18, 0x03, 0x10, 0xc8, 0x1d, 0x4a, 0xe7, 0x27, 0x05, 0x0a, 0x10, 0xec, 0xfd, 0xcb, 0x00, 0xdc, 0x0f, 0x29, 0xf6, 0x2d, 0x1f, 0xe7, 0x2a, 0x81, 0xfa, 0xee, 0xfe, 0xf5, 0x33, 0x1d, 0xf1, 0xe4, 0xdd, 0x5d, 0x19, 0x50, 0xd0, 0x08, 0x7f, 0x1c, 0xc3, 0x00, 0xec, 0xb0, 0x32, 0xea, 0xbc, 0x40, 0xec, 0x3e, 0x81, 0x21, 0x28, 0x33, 0x78, 0x0d, 0x67, 0x23, 0x00, 0xdb, 0xb2, 0xce, 0x4b, 0xcc, 0x29, 0xe9, 0xee, 0x1c, 0x0d, 0xb9, 0x20, 0x26, 0x30, 0x29, 0xde, 0xd8, 0xf6, 0x14, 0xe7, 0x81, 0xf8, 0xd4, 0x29, 0x53, 0xd6, 0x62, 0xe2, 0x1a, 0x0a, 0x24, 0x1d, 0xd2, 0xce, 0xe4, 0x2e, 0xb1, 0x15, 0x7d, 0x22, 0x04, 0xaa, 0xf2, 0xe0, 0x58, 0x27, 0x25, 0xe9, 0x81, 0x44, 0x11, 0x0c, 0xfb, 0xcd, 0x17, 0xf4, 0xeb, 0xf8, 0x40, 0x1d, 0x1d, 0x2d, 0xfb, 0x2d, 0xeb, 0x1b, 0x2a, 0x31, 0x0a, 0xf2, 0xd0, 0x1d, 0xf9, 0x27, 0x0b, 0x54, 0xc4, 0x07, 0x27, 0xe1, 0x2a, 0x33, 0xcb, 0x05, 0x0c, 0x10, 0x0a, 0xc2, 0x14, 0x0c, 0x32, 0xf4, 0xf0, 0x47, 0x1a, 0x01, 0xef, 0x2a, 0xd0, 0xfe, 0x09, 0x17, 0x81, 0xf3, 0x05, 0x7f, 0x57, 0xb9, 0xe2, 0xee, 0x19, 0xdd, 0xef, 0xe9, 0xf0, 0xe9, 0x29, 0xdd, 0xec, 0x28, 0x16, 0xc2, 0xfd, 0xfb, 0x0c, 0x39, 0x3c, 0x29, 0xe7, 0xcc, 0xfc, 0xe8, 0x08, 0x31, 0xf4, 0x20, 0xe7, 0xf6, 0xb6, 0x0e, 0xfd, 0xf3, 0x25, 0xc7, 0x11, 0xfc, 0x7c, 0x0d, 0x22, 0xc1, 0x13, 0xfd, 0xfe, 0xfa, 0x1e, 0xf1, 0x7f, 0xfa, 0x37, 0xe3, 0x1f, 0xf8, 0xad, 0xcf, 0x26, 0xde, 0xf8, 0x7f, 0x75, 0x5e, 0x94, 0xe4, 0xdc, 0xb8, 0x06, 0x23, 0x2b, 0xe8, 0x34, 0x1a, 0x1d, 0x06, 0x55, 0x6e, 0xda, 0x60, 0x90, 0x29, 0xdb, 0x1d, 0xea, 0x72, 0xe3, 0xe1, 0xf6, 0x65, 0x53, 0x75, 0xea, 0xfb, 0xab, 0xf4, 0x05, 0x01, 0xf3, 0xc1, 0xd9, 0x22, 0x00, 0xf5, 0x21, 0x2c, 0xe4, 0x36, 0xfc, 0xc3, 0x0d, 0x97, 0xe0, 0x22, 0x0c, 0x39, 0x05, 0xef, 0x14, 0x7f, 0xee, 0x3b, 0xd5, 0x0e, 0xa2, 0xf6, 0x08, 0x1f, 0x35, 0x0b, 0x00, 0x12, 0x19, 0x0e, 0xdc, 0xe7, 0xb9, 0xfe, 0xdd, 0x21, 0x06, 0xf1, 0xf3, 0x0d, 0x0f, 0x08, 0x81, 0xea, 0x0d, 0x1f, 0x00, 0xf8, 0x55, 0x57, 0x02, 0x0d, 0xf0, 0x7c, 0xf9, 0x10, 0x02, 0x3a, 0xc8, 0x59, 0x68, 0x14, 0x15, 0xdb, 0xd4, 0x0a, 0xee, 0x02, 0x81, 0xe7, 0x37, 0xe1, 0xde, 0x0e, 0x02, 0x2a, 0xc7, 0x14, 0xe5, 0x29, 0xf7, 0xc1, 0x4a, 0xad, 0xf7, 0x05, 0x29, 0xfe, 0x21, 0x20, 0x7f, 0xb4, 0x28, 0xde, 0x0f, 0x15, 0x04, 0xfa, 0x42, 0xfb, 0xec, 0xec, 0xbf, 0x05, 0xd9, 0xed, 0xca, 0xfb, 0x2d, 0xe7, 0xec, 0x01, 0xed, 0xfe, 0xeb, 0xf4, 0xdc, 0xf5, 0xc6, 0x4c, 0xfe, 0x8f, 0x81, 0xf7, 0x2b, 0xb6, 0xa1, 0x1b, 0x1a, 0x16, 0x38, 0x84, 0xff, 0xee, 0xff, 0xda, 0x46, 0x28, 0x47, 0x2c, 0xec, 0xe5, 0xae, 0xeb, 0x0d, 0x0d, 0xa7, 0x03, 0xcc, 0x0e, 0xf3, 0xf7, 0x02, 0x1b, 0x2a, 0x02, 0xf0, 0xfe, 0xc8, 0x1b, 0x24, 0x00, 0xd9, 0xe4, 0x0f, 0xf5, 0xe1, 0x0c, 0xc2, 0x7f, 0x15, 0xca, 0xed, 0x11, 0xc4, 0x31, 0xfb, 0x07, 0x28, 0x00, 0x56, 0x48, 0xe1, 0x42, 0x0f, 0xf6, 0x0d, 0x2f, 0x26, 0x2a, 0xeb, 0x1a, 0x2f, 0xfc, 0xff, 0xf7, 0xde, 0xff, 0x0a, 0xe9, 0x15, 0xb4, 0x1a, 0xdf, 0x34, 0xe7, 0xda, 0xfb, 0x0c, 0x1d, 0xf9, 0x0e, 0x81, 0xe1, 0x1c, 0x7d, 0xf5, 0x12, 0xde, 0xc6, 0x08, 0xf7, 0xec, 0xee, 0xe6, 0xfa, 0x34, 0xbf, 0xdf, 0xe9, 0x28, 0x09, 0x2c, 0x81, 0xe1, 0x23, 0xff, 0xfd, 0x10, 0xc9, 0x03, 0xf2, 0x0b, 0x00, 0xf5, 0x29, 0x54, 0x72, 0xa2, 0xf7, 0x45, 0x32, 0xf4, 0xf9, 0xbe, 0x8c, 0xf9, 0xa6, 0xe2, 0xfc, 0xe7, 0x20, 0x1e, 0xdf, 0xcd, 0x98, 0xda, 0x3c, 0xdc, 0x7f, 0x61, 0x95, 0xa6, 0x12, 0xd4, 0xea, 0x06, 0x12, 0xeb, 0x05, 0x32, 0x04, 0x0c, 0xb9, 0x38, 0x35, 0x3b, 0x03, 0xec, 0x41, 0x7f, 0x13, 0x6e, 0xca, 0x0c, 0xf6, 0x1b, 0x06, 0x2c, 0xec, 0x40, 0x06, 0xbd, 0x5e, 0x4a, 0xe8, 0x10, 0x04, 0xd8, 0xed, 0x9f, 0xe7, 0x30, 0x33, 0xf5, 0x0f, 0xe6, 0x79, 0xe3, 0x91, 0xf1, 0x11, 0x4a, 0xcc, 0xd0, 0xa0, 0xd3, 0xf2, 0xf6, 0x0a, 0x2a, 0x43, 0x22, 0xce, 0x00, 0x7f, 0xd9, 0x6c, 0xfe, 0xe9, 0xd6, 0xfb, 0xc5, 0xdc, 0xdc, 0xc2, 0x04, 0x0c, 0x0f, 0xf1, 0x32, 0x81, 0xae, 0x03, 0xe0, 0x17, 0x0a, 0xc7, 0xee, 0xf9, 0xd3, 0xee, 0x06, 0x12, 0xcb, 0x32, 0x2a, 0xc4, 0xac, 0xcf, 0x06, 0xe7, 0x46, 0xbc, 0xbf, 0x62, 0x70, 0x5a, 0x42, 0x9e, 0xe7, 0x2c, 0x17, 0x13, 0xaa, 0x4a, 0x1b, 0xd8, 0x49, 0xd7, 0xf5, 0xd7, 0xa0, 0x7f, 0x3d, 0xad, 0xab, 0xe1, 0x5a, 0xc5, 0xf9, 0xca, 0xe5, 0xf0, 0x9e, 0x6a, 0xd1, 0x32, 0x1e, 0x98, 0xeb, 0xc6, 0x0b, 0x2a, 0xe9, 0x81, 0xe9, 0xf2, 0xf5, 0xfa, 0x07, 0xd5, 0xd6, 0x66, 0x3d, 0xa9, 0xfa, 0x02, 0x0e, 0xe1, 0xf5, 0xec, 0xd5, 0xf2, 0xd9, 0xcb, 0x27, 0xf7, 0x32, 0xf6, 0xf7, 0x33, 0xed, 0xf6, 0x2d, 0xd1, 0x34, 0x10, 0xf7, 0xe4, 0xff, 0xe2, 0xf0, 0x03, 0x11, 0x46, 0x2c, 0x96, 0xae, 0xd4, 0x16, 0x02, 0x21, 0x16, 0xfc, 0xfd, 0xce, 0xc9, 0x81, 0x14, 0x86, 0x3a, 0xe7, 0x05, 0xf1, 0xd3, 0xcc, 0xd7, 0x67, 0xe1, 0xae, 0x09, 0x4b, 0x28, 0x7f, 0xef, 0x33, 0x11, 0x16, 0xf1, 0x29, 0xe0, 0xa4, 0x10, 0x0d, 0xef, 0xf6, 0x0c, 0x19, 0xd6, 0x0e, 0xff, 0xe4, 0xee, 0xd1, 0xef, 0xbc, 0xea, 0x0a, 0xb6, 0xa1, 0x75, 0x17, 0x02, 0x81, 0x20, 0x27, 0x14, 0x36, 0xcf, 0xae, 0x0a, 0xf1, 0x2d, 0xf3, 0x14, 0x22, 0xfb, 0x0d, 0xeb, 0x19, 0xf1, 0xe7, 0x07, 0x26, 0x14, 0x0b, 0x84, 0xbb, 0xd4, 0x2b, 0x14, 0xd5, 0xfa, 0xa7, 0xf7, 0xe6, 0x19, 0xc5, 0x15, 0xad, 0xc9, 0xbb, 0x34, 0x33, 0x05, 0xd9, 0xf2, 0xec, 0x17, 0x7f, 0x08, 0x0b, 0xfe, 0x12, 0x12, 0x15, 0x15, 0xf2, 0xf1, 0xe2, 0x1a, 0xe2, 0xc5, 0x2d, 0xfc, 0x0d, 0x30, 0x02, 0x4d, 0x32, 0xf9, 0xee, 0x03, 0x7f, 0x07, 0xe2, 0x42, 0x1b, 0x03, 0xac, 0xe3, 0x0a, 0xb1, 0xc3, 0xd5, 0x89, 0x13, 0xb0, 0x0c, 0xa0, 0xc8, 0xb3, 0x04, 0x14, 0xf5, 0xee, 0x10, 0xe1, 0xc9, 0xcd, 0xda, 0x17, 0x34, 0xdb, 0xdb, 0x7a, 0xab, 0xde, 0xe2, 0xa1, 0x23, 0xe8, 0xad, 0xe0, 0x05, 0xd5, 0x0e, 0x81, 0xba, 0x20, 0x0c, 0xeb, 0xec, 0xcf, 0x08, 0x01, 0xf6, 0xfe, 0xc7, 0xeb, 0xcd, 0x3e, 0xe5, 0xc8, 0xcb, 0x11, 0xbd, 0x54, 0x94, 0xed, 0x2f, 0x2d, 0x1b, 0x3a, 0xc3, 0xce, 0x1a, 0x81, 0x03, 0x12, 0x54, 0xc4, 0xf1, 0x10, 0x75, 0xd2, 0x04, 0xbd, 0xcc, 0x5d, 0x25, 0x37, 0x0b, 0xbc, 0xd3, 0xe4, 0xd1, 0xed, 0x3e, 0x81, 0x09, 0x29, 0x62, 0xc7, 0x09, 0x1b, 0xea, 0x91, 0xfe, 0x2a, 0x02, 0x0a, 0xf2, 0x06, 0x72, 0x16, 0x7a, 0x7f, 0x9c, 0xc5, 0xf0, 0xa9, 0x33, 0xd7, 0x2c, 0x08, 0x15, 0xe7, 0x12, 0x0c, 0xca, 0x55, 0xa3, 0xec, 0x3e, 0x61, 0x01, 0x53, 0x41, 0xda, 0x0e, 0xac, 0x21, 0x40, 0xab, 0xd4, 0x08, 0x11, 0xd9, 0xf1, 0xe1, 0x5a, 0x07, 0xe2, 0x44, 0x15, 0x34, 0xa4, 0x0d, 0x25, 0x0c, 0x2b, 0xa5, 0x3a, 0x81, 0x2b, 0xfe, 0xc8, 0x40, 0x28, 0x10, 0x21, 0x36, 0x38, 0xe7, 0xc4, 0x1c, 0xeb, 0x11, 0xfd, 0xb5, 0xba, 0x33, 0x0d, 0x08, 0xd7, 0x81, 0x28, 0x08, 0x48, 0xfc, 0x15, 0xe8, 0xd3, 0x29, 0x35, 0x19, 0xd4, 0xe0, 0x15, 0xe3, 0x96, 0x16, 0xf6, 0xea, 0x1c, 0x0e, 0x09, 0x3d, 0x0f, 0xa2, 0xdd, 0xa8, 0x79, 0x21, 0x1a, 0xf8, 0x31, 0xdb, 0xfe, 0xd2, 0xe5, 0x35, 0x24, 0x03, 0xf2, 0xea, 0x05, 0x1f, 0xf2, 0x4a, 0xd2, 0xdf, 0xf3, 0x15, 0xe2, 0x13, 0x81, 0xcf, 0x3a, 0xee, 0x19, 0xe7, 0x7f, 0xcd, 0xcc, 0xfb, 0x31, 0xdb, 0xeb, 0x08, 0xf0, 0x0a, 0xb2, 0x0b, 0x18, 0x18, 0x09, 0xf2, 0x0f, 0x06, 0xae, 0x31, 0xde, 0xd9, 0xcf, 0x33, 0xa9, 0x1d, 0x02, 0x15, 0x08, 0x0f, 0x12, 0xc3, 0xec, 0x23, 0xc2, 0xe4, 0x1f, 0xef, 0xd4, 0x72, 0x1d, 0x45, 0xcf, 0xe2, 0x0f, 0x19, 0x01, 0x81, 0xf3, 0xe6, 0xa8, 0xac, 0xcc, 0xe7, 0x3d, 0xd0, 0x2b, 0xe5, 0x33, 0x0e, 0x05, 0x9f, 0x94, 0x27, 0x90, 0xf8, 0xf3, 0xbc, 0x7f, 0x2e, 0xc7, 0x00, 0xe6, 0x38, 0xd4, 0x1e, 0x26, 0x11, 0x34, 0x57, 0x2b, 0x05, 0x2e, 0x00, 0x1b, 0x4a, 0xe3, 0x66, 0xf5, 0x1f, 0x30, 0x4c, 0x05, 0xce, 0xc7, 0xf1, 0x33, 0xc3, 0x1f, 0x9c, 0x58, 0x21, 0x18, 0xd1, 0x49, 0xe9, 0x2a, 0xd8, 0xef, 0xda, 0xca, 0xac, 0x7f, 0x20, 0xef, 0xc7, 0xfb, 0xd8, 0xd6, 0xe3, 0x12, 0x2a, 0xcf, 0x26, 0xca, 0xee, 0x24, 0xb5, 0xd0, 0x85, 0xb8, 0x0d, 0x04, 0xfa, 0x27, 0xc3, 0x2b, 0x05, 0x22, 0xdb, 0xf3, 0x2f, 0x0d, 0x06, 0x58, 0xa1, 0xd5, 0xf3, 0x05, 0xf3, 0x01, 0xe6, 0x43, 0xcd, 0x9f, 0xff, 0x7f, 0xce, 0xe6, 0x13, 0xcc, 0xe0, 0x7f, 0xc5, 0x6e, 0x8f, 0x9a, 0x87, 0x28, 0xe3, 0xee, 0x75, 0xf1, 0x0c, 0x05, 0x9f, 0xd0, 0xe9, 0xe1, 0x90, 0x2a, 0x57, 0x99, 0xe0, 0x8d, 0xe2, 0x2c, 0x2e, 0xc8, 0x3f, 0x28, 0x1d, 0xfd, 0x14, 0x84, 0x7f, 0x0b, 0xfa, 0x3b, 0xd8, 0xfd, 0x49, 0x39, 0x07, 0xa4, 0x26, 0xc6, 0x98, 0xfd, 0x41, 0x22, 0x29, 0x1f, 0x0d, 0xf7, 0xf6, 0xb5, 0x50, 0x98, 0x26, 0x00, 0x15, 0xe9, 0x20, 0xd2, 0x27, 0x42, 0xf4, 0x26, 0x25, 0xb8, 0x57, 0xb6, 0xe9, 0x04, 0x06, 0xda, 0x3d, 0xbf, 0x57, 0x1d, 0xc8, 0x0b, 0x41, 0xd1, 0x0b, 0x7f, 0x37, 0xd7, 0x27, 0xd5, 0x22, 0x4a, 0xdc, 0x37, 0x10, 0x20, 0xfb, 0xc0, 0xf2, 0x07, 0x39, 0xf5, 0x0a, 0x09, 0x2d, 0xea, 0xf2, 0xb9, 0x30, 0xd4, 0xbc, 0x3f, 0x7f, 0xdd, 0xfd, 0xd4, 0xda, 0xf9, 0xd5, 0xa5, 0x3e, 0x16, 0xf2, 0xda, 0xaa, 0x1a, 0xba, 0x03, 0xe9, 0x81, 0xa8, 0x12, 0xff, 0x01, 0x54, 0x02, 0x32, 0x3e, 0xde, 0xee, 0xbf, 0x18, 0x50, 0x54, 0x02, 0xe5, 0xb5, 0xe3, 0xec, 0x1c, 0xe3, 0xbd, 0xe2, 0x54, 0x2b, 0x1c, 0x39, 0x52, 0x29, 0x09, 0x0c, 0x04, 0x08, 0xf4, 0x12, 0xf1, 0xee, 0xdc, 0x12, 0x5a, 0x4a, 0x3f, 0xc3, 0x21, 0xe4, 0xe1, 0x34, 0xf9, 0x35, 0xfc, 0x7f, 0xd1, 0x9b, 0x94, 0xec, 0x2f, 0xf8, 0x00, 0xf9, 0xb0, 0x81, 0x06, 0xd4, 0xee, 0xde, 0xfa, 0xe1, 0x41, 0x28, 0xf0, 0x02, 0xdd, 0x2d, 0xde, 0x0a, 0x1a, 0x31, 0xcc, 0xc0, 0xd3, 0x13, 0x07, 0xc3, 0x00, 0xd8, 0xdc, 0xec, 0xf3, 0x3e, 0x0c, 0x03, 0x1d, 0x4c, 0xff, 0xf2, 0x81, 0xeb, 0xea, 0x00, 0xf8, 0x02, 0xff, 0xf0, 0xf5, 0x32, 0x22, 0xf6, 0x1e, 0x29, 0x17, 0xc3, 0x21, 0x09, 0x03, 0x17, 0x3a, 0xe7, 0x0c, 0x0e, 0xed, 0xd8, 0xd6, 0x3f, 0x45, 0x5b, 0x30, 0xda, 0xee, 0x81, 0x22, 0x30, 0x3c, 0xe4, 0x09, 0xf9, 0xe1, 0xdb, 0x05, 0xde, 0x10, 0x32, 0x1c, 0xd4, 0x31, 0xee, 0xbd, 0x0b, 0x47, 0xfe, 0xe9, 0x0a, 0xa5, 0x1b, 0xe0, 0xf4, 0x06, 0xd1, 0xb2, 0xd6, 0x07, 0xf8, 0x01, 0x11, 0x25, 0x11, 0xdd, 0xf4, 0x08, 0x3a, 0x81, 0xc1, 0xb1, 0xe3, 0x12, 0x01, 0x1d, 0xd6, 0xe3, 0xf1, 0x0f, 0xcf, 0x41, 0xd7, 0x31, 0x3d, 0xfc, 0x18, 0x9f, 0xc2, 0xf2, 0xf7, 0xd3, 0xcd, 0xd8, 0x07, 0x19, 0xd4, 0x16, 0x16, 0x13, 0x0f, 0xf8, 0xca, 0xaa, 0xf8, 0x81, 0xae, 0xd8, 0x75, 0x25, 0xf3, 0xc6, 0x03, 0xeb, 0x05, 0xbd, 0x19, 0xe2, 0x12, 0xc6, 0xff, 0x20, 0xd3, 0xca, 0xf7, 0x43, 0xdb, 0xe5, 0xc2, 0x2d, 0xd8, 0x03, 0xde, 0xd4, 0x71, 0xf9, 0x1d, 0xdc, 0x15, 0x7f, 0x2b, 0x0f, 0x26, 0xf0, 0x13, 0xcf, 0x0b, 0xfd, 0x31, 0xcf, 0xf7, 0x2b, 0xe8, 0x1e, 0x23, 0x81, 0x20, 0xdc, 0x0a, 0x1a, 0x22, 0xf7, 0xf9, 0xd3, 0x15, 0xd7, 0xaf, 0x0a, 0x4a, 0xdd, 0xef, 0x15, 0x25, 0xfd, 0x0b, 0x1c, 0xcb, 0xca, 0x28, 0xfe, 0xff, 0x56, 0x1a, 0xc5, 0xdc, 0x38, 0x7c, 0xfc, 0x04, 0x2a, 0x0b, 0xe2, 0x0b, 0x06, 0xed, 0xdf, 0x4d, 0xf8, 0x99, 0x52, 0x0b, 0x7f, 0x18, 0x24, 0x19, 0x2f, 0xe0, 0x19, 0x11, 0x04, 0x23, 0x19, 0x1a, 0xdf, 0x40, 0xa2, 0xb7, 0x07, 0xdf, 0xce, 0xf2, 0x05, 0x29, 0x2b, 0xf2, 0xd7, 0xd8, 0xe6, 0x33, 0x81, 0xc3, 0x31, 0x17, 0xe2, 0x52, 0x1a, 0x3a, 0x17, 0x13, 0x28, 0x3c, 0xdd, 0x19, 0xf7, 0xe1, 0xd7, 0x40, 0x46, 0x40, 0xc0, 0x07, 0xfa, 0x25, 0xc8, 0xa9, 0xbb, 0x28, 0xe5, 0x0a, 0x12, 0x09, 0x7f, 0xe0, 0xbd, 0x71, 0x21, 0x39, 0x03, 0xd8, 0x08, 0x63, 0x09, 0xf1, 0xb4, 0x12, 0x1a, 0x2c, 0x6f, 0xee, 0x1a, 0x5c, 0x39, 0xe6, 0xda, 0x41, 0x4a, 0x56, 0xf0, 0xb4, 0x81, 0xcf, 0xbf, 0x30, 0x59, 0x43, 0xf8, 0x0d, 0x07, 0xee, 0x14, 0x22, 0x39, 0xc5, 0xf3, 0xf4, 0x86, 0x0d, 0xe0, 0x10, 0xe1, 0x07, 0x38, 0xd8, 0xd6, 0x97, 0xd0, 0xf3, 0x0a, 0x00, 0x4a, 0xdc, 0xdd, 0x0d, 0x5a, 0x16, 0x9f, 0xfa, 0x1f, 0x1b, 0xf7, 0x0a, 0xdc, 0x17, 0x7f, 0x3e, 0x0a, 0x56, 0xcd, 0x2c, 0x0e, 0x10, 0xe3, 0xd2, 0xdc, 0xed, 0xf4, 0xbf, 0xa4, 0x06, 0xf8, 0xd9, 0xca, 0x45, 0x06, 0xe9, 0x81, 0x4c, 0x0a, 0x29, 0x21, 0xb9, 0xc6, 0xfb, 0x38, 0x17, 0xd0, 0x11, 0x6d, 0x1a, 0xfb, 0x30, 0x0b, 0xf4, 0x2e, 0x36, 0x81, 0x37, 0xf9, 0xef, 0xc2, 0x4a, 0x19, 0x2f, 0xd7, 0xf6, 0x3c, 0xd7, 0x00, 0xe9, 0x0d, 0x10, 0xc4, 0x1e, 0xc4, 0x00, 0xc6, 0xdb, 0xf9, 0x15, 0x88, 0x01, 0xe0, 0xf3, 0xfd, 0x28, 0x96, 0x0e, 0xfc, 0x27, 0x81, 0xcc, 0x08, 0x04, 0x0d, 0x18, 0x06, 0x17, 0x07, 0x06, 0xfa, 0x25, 0xfa, 0xd4, 0x16, 0xe2, 0xf4, 0x16, 0x37, 0xee, 0x08, 0xc4, 0x00, 0xed, 0xff, 0xe1, 0x12, 0xf5, 0x11, 0xfe, 0x02, 0xee, 0xf6, 0xa8, 0xd5, 0x4f, 0xc9, 0xe3, 0xbc, 0xb5, 0xb8, 0x3d, 0xf8, 0xe3, 0xc5, 0x07, 0x08, 0x4c, 0x11, 0x62, 0x0a, 0x17, 0xc4, 0xf4, 0xe2, 0x15, 0xcd, 0xc8, 0xf3, 0xea, 0x7f, 0x2f, 0x34, 0x13, 0xca, 0x7f, 0xf2, 0xde, 0xe8, 0x0b, 0xba, 0xae, 0xb4, 0x3b, 0x06, 0x82, 0x75, 0xd1, 0x2e, 0x37, 0x90, 0x31, 0x06, 0xf5, 0x3f, 0x53, 0xe5, 0x0a, 0x09, 0xb5, 0x53, 0xe0, 0x1c, 0x28, 0xcc, 0x81, 0x36, 0xee, 0xf4, 0x42, 0xb2, 0x11, 0xd4, 0xa9, 0xff, 0xbb, 0xf2, 0x17, 0xea, 0xd3, 0x1b, 0x12, 0x0d, 0x1b, 0x07, 0x35, 0xf9, 0xab, 0x0a, 0x13, 0xe6, 0x10, 0x0e, 0x04, 0x01, 0xff, 0xc0, 0xfe, 0x0f, 0xde, 0xfd, 0x33, 0xea, 0xeb, 0x12, 0xfb, 0xe9, 0x39, 0x12, 0xfe, 0x7f, 0xb4, 0x03, 0xdd, 0xfd, 0x0d, 0x18, 0xd5, 0xf4, 0x30, 0x0e, 0xed, 0xf2, 0x03, 0x10, 0xeb, 0x65, 0x01, 0xac, 0xac, 0x10, 0xec, 0xb7, 0xe2, 0xb8, 0xfd, 0xc2, 0xd9, 0xc6, 0xce, 0xfc, 0xfd, 0x81, 0xb8, 0xe4, 0xe8, 0xbc, 0x22, 0x08, 0x0a, 0xad, 0xfa, 0x18, 0x46, 0xba, 0xf8, 0xf8, 0xd3, 0x3c, 0xea, 0x1c, 0x20, 0xf4, 0x21, 0xdf, 0x12, 0x4b, 0x2b, 0xac, 0x2f, 0x49, 0x54, 0xb9, 