
#define NNoutput &buffer0[160];

/* sram:93992, flash:469432 */
#define PEAK_MEM 93992
#define MODEL_SIZE 469432

static signed char buffer[93992];
static signed char *buffer0 = &buffer[0];
static int16_t *sbuf = (int16_t *)&buffer[89600];
static int16_t *kbuf = (int16_t *)&buffer[93128];
const int SBuffer_size = 3528;
const int KBuffer_size = 864;

const unsigned char weight0[432] = {
    0xfb, 0xf9, 0x0d, 0xf9, 0x01, 0x0a, 0xff, 0x10, 0xef, 0x56, 0xd0, 0xd8, 0xd3, 0x2c, 0x05, 0x85, 0x52, 0x2a, 0x46,
    0xc4, 0xee, 0xcb, 0x36, 0x0c, 0x81, 0x65, 0x22, 0x02, 0x00, 0xfc, 0xed, 0x15, 0x02, 0xfe, 0x1c, 0xd4, 0xf4, 0x21,
    0x07, 0xfb, 0x16, 0xf3, 0x0f, 0xe2, 0x95, 0xfb, 0x12, 0xf3, 0x16, 0xff, 0xe2, 0x22, 0xb4, 0x81, 0x5a, 0x12, 0xb9,
    0x3c, 0xd6, 0x0d, 0x36, 0xf2, 0x24, 0x81, 0x02, 0x03, 0x56, 0x3a, 0xf3, 0x77, 0x49, 0xb3, 0xaf, 0x00, 0xf9, 0x54,
    0x10, 0xd5, 0x70, 0x28, 0x9f, 0xf8, 0xfc, 0xfb, 0x18, 0x23, 0x0d, 0xea, 0xe5, 0xf7, 0x07, 0x02, 0x0a, 0x57, 0x7a,
    0x33, 0xa9, 0x81, 0xc2, 0xfc, 0xef, 0x03, 0x56, 0x73, 0x31, 0xae, 0x9d, 0xcb, 0x10, 0xc1, 0x29, 0x20, 0xb2, 0x36,
    0x14, 0xbc, 0x2a, 0x1f, 0x9b, 0x41, 0x3c, 0x81, 0x42, 0x23, 0x93, 0x44, 0x12, 0xc0, 0x2b, 0x22, 0xad, 0x34, 0x09,
    0xbe, 0x37, 0x00, 0x04, 0x01, 0x15, 0x23, 0x06, 0x0d, 0x17, 0x02, 0xf5, 0xe3, 0xf5, 0xa7, 0x81, 0xd6, 0xb8, 0x96,
    0xde, 0x10, 0x15, 0x09, 0x41, 0x5f, 0x22, 0x3b, 0x4e, 0x1e, 0x23, 0x13, 0x00, 0xfa, 0xe4, 0x08, 0xfe, 0xd4, 0x01,
    0x3f, 0x53, 0x19, 0xa4, 0x81, 0xd9, 0xfe, 0xcd, 0xe6, 0x4e, 0x4c, 0x1b, 0xbf, 0xb1, 0xe9, 0xf2, 0xc8, 0xdc, 0xfe,
    0xe9, 0xf0, 0x0d, 0xec, 0x0e, 0x07, 0xe1, 0x01, 0x12, 0x27, 0x10, 0x5d, 0x79, 0x37, 0x5e, 0x7f, 0x3e, 0xf5, 0xf6,
    0xfd, 0x94, 0x8a, 0xbf, 0x99, 0x9b, 0xc0, 0xdd, 0x30, 0x5b, 0xc4, 0xe7, 0x4e, 0xe1, 0xc7, 0x4b, 0xd4, 0x06, 0x60,
    0xca, 0xdf, 0x31, 0xf4, 0xe1, 0x49, 0x24, 0x3d, 0x7f, 0xe0, 0x0b, 0x6f, 0xb8, 0xec, 0x01, 0xfa, 0xfe, 0x02, 0xf1,
    0xf5, 0xf4, 0x0a, 0x1f, 0x03, 0x01, 0x10, 0x01, 0xc0, 0xa6, 0xe5, 0x45, 0x7f, 0x2d, 0x00, 0x08, 0xf7, 0xc8, 0xb2,
    0xeb, 0x3f, 0x58, 0x26, 0x50, 0x19, 0xcf, 0x34, 0x5a, 0xba, 0x15, 0x33, 0xe4, 0xef, 0xec, 0xbc, 0xf4, 0x15, 0x81,
    0x3e, 0x0a, 0x8b, 0x0c, 0x09, 0xcf, 0x38, 0x10, 0xe0, 0x28, 0x24, 0xbc, 0xfa, 0x05, 0xf6, 0xf9, 0xeb, 0x1b, 0xe6,
    0xc9, 0x48, 0xf9, 0x11, 0x10, 0xe0, 0x06, 0x1c, 0xba, 0xb3, 0x0f, 0x09, 0x00, 0x13, 0x02, 0xe2, 0x01, 0xed, 0x81,
    0xd0, 0x25, 0xd4, 0x08, 0x26, 0xd9, 0xfd, 0xf0, 0x17, 0xfb, 0x6b, 0x81, 0x0d, 0x3c, 0xbd, 0x07, 0xd9, 0x20, 0x07,
    0x4e, 0x9e, 0x19, 0x38, 0xc8, 0xfc, 0xdc, 0x25, 0x00, 0xf5, 0xe3, 0xf0, 0xb9, 0x94, 0xda, 0xc0, 0x9c, 0xd6, 0x13,
    0x27, 0x0f, 0x41, 0x7f, 0x21, 0x40, 0x76, 0x25, 0xfc, 0xf4, 0xff, 0x05, 0xeb, 0x05, 0x00, 0xe9, 0x02, 0x24, 0xe2,
    0xfa, 0xfc, 0xea, 0x0f, 0x0d, 0x12, 0xe6, 0x17, 0xca, 0xd7, 0x3a, 0x18, 0x11, 0x60, 0x7f, 0x17, 0x18, 0xe4, 0xed,
    0x3b, 0xe6, 0x1e, 0x34, 0xdb, 0xf1, 0xf1, 0xf1, 0xfa, 0x16, 0x1b, 0x06, 0xf6, 0xf2, 0xfb, 0xb9, 0xa6, 0xdc, 0x50,
    0x7f, 0x2e, 0xfc, 0xe9, 0x03, 0xc1, 0xb5, 0xdd, 0x4b, 0x6e, 0x26, 0xf2, 0xdc, 0xfd,
};
const int32_t bias0[16] = {
    15243,       -17970, 403506,     19718,  19990, 22912, 51826,  9610,
    -2147483647, 30982,  2147483647, -16076, 1897,  15358, -20766, 10285,
};
const float scales0[16] = {
    0.006841254380922728,  0.0014381292845313354, 0.00017052697459924592, 0.0036544593255791614,
    0.0022062411784181165, 0.001943744019862062,  0.0016301371181515574,  0.006099562712539671,
    7.753070854520384e-23, 0.001913742238035463,  9.530343831345357e-23,  0.0014412305888275583,
    0.008165010263844936,  0.004819933826271918,  0.0009485770702807758,  0.008500728471776724,
};
const int32_t shift0[16] = {
    -7, -9, -12, -8, -8, -9, -9, -7, 0, -9, 0, -9, -6, -7, -10, -6,
};
const int32_t multiplier0[16] = {
    1880509685, 1581239871, 1499971131, 2009060261, 1212893915, 2137169151, 1792354716, 1676635032,
    0,          2104181843, 0,          1584649791, 1122190466, 1324893322, 2085943037, 1168331225,
};
const unsigned char CHWweight1[144] = {
    0x0a, 0x28, 0xfa, 0xfe, 0x81, 0x1d, 0x05, 0x25, 0xf7, 0xfc, 0xdf, 0xf8, 0x0a, 0x7f, 0xed, 0xff, 0xf7, 0xfe,
    0xd0, 0xc2, 0xd2, 0xf5, 0x7f, 0xd7, 0xd3, 0xd6, 0xd5, 0xff, 0x14, 0xff, 0x06, 0x81, 0x0a, 0xff, 0x0e, 0xff,
    0xfe, 0xde, 0x03, 0xef, 0x7f, 0xed, 0xfa, 0xf5, 0xff, 0xec, 0x72, 0xf1, 0xee, 0x7f, 0xf4, 0xff, 0xff, 0xfc,
    0x09, 0x25, 0xfb, 0xe6, 0x81, 0x30, 0x0a, 0x18, 0xfe, 0x00, 0x0d, 0x01, 0x1c, 0x81, 0x17, 0xff, 0x0c, 0x00,
    0xf5, 0x8e, 0x00, 0x81, 0x91, 0x86, 0xcf, 0x84, 0xa1, 0xe1, 0xed, 0xff, 0x7f, 0x24, 0xf5, 0xe7, 0xf4, 0xfc,
    0xe2, 0x9e, 0xa5, 0x81, 0x86, 0x94, 0x0a, 0xe8, 0xdd, 0xfd, 0xd6, 0x0b, 0x10, 0x7f, 0xde, 0xfa, 0xfe, 0xfa,
    0x03, 0x06, 0xc1, 0xe3, 0x01, 0x7f, 0xf8, 0x0a, 0xe3, 0xff, 0x0f, 0x00, 0x0f, 0x81, 0x07, 0x0d, 0xd6, 0x0a,
    0xf2, 0xd2, 0xfc, 0x0a, 0x7f, 0xf1, 0xfe, 0xfb, 0x00, 0x00, 0x0e, 0x0d, 0x0c, 0x81, 0xbe, 0x01, 0x0b, 0x0b,
};
const int32_t offsetBias1[16] = {
    13110, 7220, -14135, 3439, 5072, 19338, 9475, 4231, -2147483648, 10492, -2147483648, 6972, 3849, 3409, 6020, 6402,
};
const int32_t offsetRBias1[16] = {
    0, 0, 0, 0, 0, 0, 0, 0, -96383, 0, -79999, 0, 0, 0, 0, 0,
};
const float scales1[16] = {
    0.007524761836975813,   0.037454959005117416, 0.012817817740142345,   0.015071411617100239,
    0.025854717940092087,   0.013918120414018631, 0.009351881220936775,   0.008759714663028717,
    1.4931364838696265e-22, 0.011834358796477318, 2.1539075826638783e-22, 0.03877892345190048,
    0.009463101625442505,   0.008002606220543385, 0.0560026578605175,     0.0065865605138242245,
};
const int32_t shift1[16] = {
    -7, -4, -6, -6, -5, -6, -6, -6, 0, -6, 0, -4, -6, -6, -4, -7,
};
const int32_t multiplier1[16] = {
    2068390784, 1286942592, 1761667456, 2071399040, 1776722688, 1912891904, 1285312768, 1203926016,
    0,          1626501888, 0,          1332433664, 1300598784, 1099869824, 1924236672, 1810499968,
};
const unsigned char weight2[128] = {
    0x81, 0xe2, 0xfb, 0x08, 0x03, 0x27, 0x07, 0x71, 0x00, 0xf7, 0x00, 0x0c, 0xac, 0xd4, 0xf1, 0xfd, 0x08, 0x14, 0x06,
    0xd7, 0x00, 0x20, 0xe4, 0x08, 0x00, 0x81, 0x00, 0x1b, 0xfb, 0x2d, 0xef, 0xc5, 0x06, 0x1b, 0x20, 0x52, 0x81, 0x03,
    0xed, 0xec, 0x00, 0xfb, 0x00, 0xd6, 0xff, 0x03, 0xfc, 0xa9, 0x7f, 0x16, 0x1f, 0x06, 0xff, 0x2f, 0x07, 0x7a, 0x00,
    0x01, 0x00, 0xe8, 0x58, 0xd3, 0x15, 0xfd, 0x09, 0x0c, 0x4e, 0x62, 0xff, 0xfc, 0x69, 0xfc, 0x00, 0x81, 0x00, 0x13,
    0xfd, 0x18, 0xed, 0x34, 0x01, 0xf2, 0x33, 0xdb, 0xff, 0xd3, 0x7f, 0xf4, 0x00, 0xd8, 0x00, 0xe6, 0x02, 0xcd, 0x14,
    0xe4, 0x09, 0x31, 0x1a, 0xab, 0x81, 0xff, 0x07, 0x14, 0x00, 0xff, 0x00, 0xec, 0xf0, 0xfc, 0xeb, 0x55, 0xf8, 0xe8,
    0x0f, 0xf6, 0x00, 0x7c, 0x7b, 0xe4, 0x00, 0x31, 0x00, 0xd7, 0x03, 0x7f, 0x19, 0x07,
};
const int32_t bias2[8] = {
    7048, 14398, 4580, -24831, -19355, 4901, 6400, -30468,
};
const float scales2[8] = {
    0.0025566869465004035, 0.0031795119591139184, 0.001946398531638726,  0.002445673019024161,
    0.0022336500835417007, 0.0033643086162842635, 0.0018742616681299204, 0.0023260531473233118,
};
const int32_t shift2[8] = {
    -8, -8, -9, -8, -8, -8, -9, -8,
};
const int32_t multiplier2[8] = {
    1405553513, 1747955185, 2140087818, 1344522961, 1227962120, 1849548222, 2060772498, 1278761241,
};
const unsigned char weight3[384] = {
    0xfd, 0xa1, 0x13, 0x14, 0xe8, 0x74, 0xdd, 0x7f, 0xe5, 0x56, 0xd9, 0xff, 0x2b, 0x8f, 0x12, 0x81, 0x7f, 0xdc, 0x09,
    0x9b, 0x02, 0x21, 0xd5, 0x1c, 0x0b, 0xe9, 0x85, 0x0f, 0xdf, 0x23, 0x7f, 0x02, 0x81, 0x17, 0x96, 0x88, 0xe4, 0x00,
    0x60, 0x51, 0x1a, 0xfe, 0x7f, 0x20, 0x18, 0xe5, 0x8e, 0xe0, 0x79, 0x02, 0xf9, 0x7f, 0xf3, 0xf8, 0x13, 0xe0, 0x91,
    0x15, 0x7d, 0x99, 0x36, 0xc7, 0x81, 0x31, 0x5f, 0x21, 0xeb, 0x81, 0x07, 0xd8, 0x21, 0xe7, 0xef, 0xc4, 0x05, 0xed,
    0xfa, 0x4f, 0xfc, 0x81, 0x14, 0x39, 0xfc, 0x1b, 0x05, 0xaf, 0x05, 0x7f, 0x7f, 0x01, 0xf4, 0x7b, 0xf1, 0xf5, 0x01,
    0xfd, 0x81, 0x01, 0x12, 0x84, 0x0d, 0x09, 0xf5, 0x1b, 0x81, 0x01, 0xfb, 0x79, 0xff, 0x03, 0xfc, 0xfe, 0x04, 0xfc,
    0x7f, 0xfa, 0xfe, 0x0c, 0x7c, 0x07, 0xf5, 0x81, 0xf6, 0xf9, 0xe4, 0x84, 0x09, 0xee, 0xfd, 0x58, 0x14, 0xfa, 0x81,
    0x1a, 0xf0, 0xf4, 0x02, 0xff, 0x84, 0xfb, 0xff, 0xfc, 0x81, 0xff, 0x9f, 0x2a, 0x14, 0x81, 0x1b, 0xda, 0x0d, 0x15,
    0x01, 0x95, 0x2c, 0x3a, 0xd9, 0x7f, 0xf2, 0x6d, 0x82, 0xf0, 0x2e, 0x81, 0x12, 0x26, 0xfe, 0x33, 0x15, 0xf8, 0x81,
    0xf4, 0xcf, 0x1e, 0x74, 0x02, 0xf6, 0x4e, 0xbc, 0xef, 0x81, 0x32, 0x44, 0x07, 0x7f, 0xfb, 0xec, 0x8c, 0xf5, 0x01,
    0xe0, 0x00, 0x0b, 0x59, 0xfe, 0x0c, 0x7f, 0x7c, 0x04, 0x15, 0xff, 0x43, 0xff, 0xec, 0x81, 0x07, 0x00, 0xef, 0xfa,
    0x81, 0xf3, 0xf6, 0xf2, 0x86, 0x0e, 0xfd, 0x02, 0x7f, 0x17, 0xf6, 0xcb, 0x65, 0xeb, 0xfa, 0x8c, 0xe8, 0x0c, 0x7f,
    0x10, 0x21, 0xf0, 0x18, 0x01, 0x81, 0xf4, 0xf5, 0xee, 0x8a, 0x0f, 0xf5, 0xfa, 0x81, 0xf5, 0xfe, 0x35, 0x9e, 0x0e,
    0xfc, 0x03, 0x70, 0xfe, 0x11, 0x50, 0x7f, 0xf8, 0x13, 0x0f, 0x95, 0x53, 0x00, 0x7f, 0xb5, 0xb5, 0x05, 0x11, 0x3a,
    0xfc, 0x12, 0x06, 0xaa, 0x0c, 0x7f, 0x83, 0x10, 0xc3, 0x7f, 0x07, 0x08, 0xcb, 0xfd, 0x67, 0x3d, 0xc1, 0x81, 0x13,
    0xac, 0xd2, 0xa2, 0x03, 0x05, 0x42, 0x0e, 0x7f, 0x0f, 0xb6, 0xfe, 0xda, 0x38, 0xf1, 0xe8, 0x09, 0xbc, 0x02, 0x7f,
    0x19, 0xbb, 0xf4, 0x16, 0xf4, 0x56, 0x01, 0x81, 0xe8, 0x67, 0xe0, 0x17, 0x24, 0x81, 0x01, 0x59, 0xff, 0xc1, 0x27,
    0xf4, 0x81, 0xf4, 0xc0, 0x36, 0x1a, 0x7f, 0x57, 0x05, 0xf4, 0x69, 0xb4, 0x0a, 0x81, 0x57, 0xc1, 0x03, 0xd1, 0xad,
    0x1e, 0xe9, 0xe6, 0xb9, 0xf2, 0xe0, 0x04, 0x6d, 0xfa, 0x81, 0x48, 0xe7, 0x50, 0xc2, 0xb2, 0x45, 0x81, 0x3e, 0x20,
    0x17, 0x81, 0x23, 0x83, 0xf1, 0x79, 0x12, 0x07, 0xca, 0x0b, 0x12, 0x77, 0x81, 0x22, 0x16, 0x0f, 0x7f, 0x9c, 0xee,
    0x32, 0xa3, 0x32, 0xb4,
};
const int32_t bias3[48] = {
    732,  -541, 1551,  165,   -182, 208,  122,  -51,  -160,  10,   -52,   82,   398,  76,   1463,  -221,
    -132, 100,  10872, 16601, 8370, 5579, -180, -595, 160,   6313, -148,  2747, 200,  4110, 1521,  7331,
    105,  1081, 206,   3345,  -131, -188, -13,  1849, -3465, 1034, -2745, 2137, 4381, 2056, -1698, -181608256,
};
const float scales3[48] = {
    0.010777368111610609,  0.011670908444844842,  0.01346091915202893,   0.01626279027747424,   0.01053932790194049,
    0.017296207564508483,  0.011728990397780515,  0.010104335987030685,  0.017627967725697368,  0.0334754867588041,
    0.029710768416342515,  0.03824563242610088,   0.043804597038635866,  0.012256581838693504,  0.016901658284839107,
    0.020986647011893043,  0.022312937424449224,  0.03233531694331807,   0.0023002426906415553, 0.001888343799083579,
    0.0030812553320074556, 0.0036833681150828927, 0.009450923123653773,  0.01476511512785822,   0.03681355139698107,
    0.003391666365885353,  0.013694749397283728,  0.007716471935160258,  0.010328612094145574,  0.004444249033487557,
    0.007380114878776068,  0.004422854616568734,  0.0047158404738319145, 0.00575455073764276,   0.004277209637388195,
    0.0024084036274413557, 0.0053095448966178444, 0.0041242786925471155, 0.0057397494046124275, 0.003649267747913648,
    0.0026972312095155508, 0.0034630302347363113, 0.002832455148388806,  0.0026762763971597396, 0.0013837087742813927,
    0.001665070339889985,  0.0027840068365459296, 7.229020718426697e-14,
};
const int32_t shift3[48] = {
    -6, -6, -6, -5, -6, -5, -6, -6, -5, -4, -5, -4, -4, -6, -5, -5, -5, -4, -8, -9, -8, -8, -6, -6,
    -4, -8, -6, -7, -6, -7, -7, -7, -7, -7, -7, -8, -7, -7, -7, -8, -8, -8, -8, -8, -9, -9, -8, 0,
};
const int32_t multiplier3[48] = {
    1481230194, 1604037443, 1850054641, 1117570438, 1448514197, 1188586333, 1612020166, 1388729364,
    1211384718, 1150208967, 2041708459, 1314109924, 1505114494, 1684531781, 1161473113, 1442191401,
    1533333384, 1111033030, 1264571793, 2076255964, 1693938033, 2024953036, 1298924983, 2029301971,
    1264903994, 1864588303, 1882192025, 2121087655, 1419553637, 1221625872, 2028630531, 1215745020,
    1296280359, 1581798862, 1175710433, 1324033896, 1459476588, 1133673095, 1577730303, 2006206161,
    1482818539, 1903821005, 1557158685, 1471298509, 1521403887, 1830764200, 1530523944, 0,
};
const unsigned char CHWweight4[432] = {
    0x12, 0x35, 0x33, 0x29, 0x7f, 0x70, 0x18, 0x5d, 0x57, 0x18, 0x34, 0x2e, 0x29, 0x7f, 0x71, 0x26, 0x70, 0x65, 0xe4,
    0xc5, 0xd0, 0xcd, 0x81, 0xa9, 0xdf, 0xa6, 0xc1, 0xe7, 0xd0, 0xdf, 0xcb, 0x81, 0x97, 0xdb, 0x9d, 0xa8, 0xe2, 0xbe,
    0xc2, 0xc9, 0x81, 0x8b, 0xd7, 0x9e, 0xac, 0x0d, 0x30, 0x35, 0x26, 0x7f, 0x73, 0x22, 0x65, 0x5a, 0x18, 0x34, 0x2f,
    0x2e, 0x7f, 0x75, 0x19, 0x4c, 0x4d, 0xe9, 0xc7, 0xce, 0xd2, 0x81, 0xa0, 0xe4, 0x9f, 0xb0, 0x20, 0x3a, 0x29, 0x40,
    0x7f, 0x60, 0x30, 0x5b, 0x49, 0xf6, 0xde, 0xe5, 0xda, 0x8b, 0x98, 0xde, 0x81, 0x8a, 0x0c, 0x25, 0x1c, 0x2a, 0x7f,
    0x72, 0x23, 0x74, 0x70, 0xe9, 0xbf, 0xce, 0xc9, 0x81, 0x8e, 0xe5, 0xa1, 0xb0, 0x15, 0x37, 0x2f, 0x2c, 0x7f, 0x65,
    0x2a, 0x6e, 0x5c, 0x2a, 0x43, 0x34, 0x4a, 0x7f, 0x6b, 0x3b, 0x72, 0x5e, 0x01, 0x26, 0x27, 0xf2, 0x61, 0x7f, 0xed,
    0x57, 0x7f, 0x06, 0x30, 0x3f, 0x0c, 0x62, 0x7f, 0x0a, 0x4e, 0x67, 0xf1, 0xc8, 0xd3, 0xd8, 0x81, 0x9a, 0xe0, 0x98,
    0xac, 0x00, 0x17, 0x17, 0xea, 0x57, 0x7f, 0xe9, 0x55, 0x7f, 0x0b, 0x07, 0x03, 0x37, 0x68, 0x57, 0xb8, 0x81, 0x96,
    0x15, 0x10, 0x0e, 0x37, 0x71, 0x61, 0xb8, 0x81, 0x8e, 0x24, 0x3e, 0x31, 0xb8, 0x81, 0x97, 0x25, 0x3d, 0x36, 0x32,
    0xa2, 0x2d, 0x44, 0x81, 0x46, 0x38, 0x9c, 0x40, 0x02, 0xe8, 0xc5, 0xf4, 0xbf, 0x81, 0xfd, 0xc4, 0x90, 0xe8, 0xd3,
    0xd3, 0xbc, 0x8e, 0x9d, 0xbe, 0x81, 0xa2, 0x04, 0xfd, 0x3a, 0x03, 0x18, 0x7f, 0xfd, 0x14, 0x70, 0x12, 0x46, 0xa1,
    0xfb, 0x3d, 0x81, 0xf7, 0x40, 0x8d, 0xf5, 0x36, 0x1d, 0x07, 0x7f, 0x62, 0xfc, 0x5f, 0x55, 0x01, 0xc5, 0xc0, 0xde,
    0x81, 0x83, 0xd7, 0x9a, 0x9e, 0xe3, 0xb5, 0xd9, 0xbf, 0x81, 0xb3, 0xc4, 0x8c, 0xa1, 0xfe, 0x4e, 0xe0, 0x06, 0x7f,
    0xda, 0xfe, 0x60, 0xe6, 0x03, 0xcc, 0xbc, 0xeb, 0x9f, 0x81, 0xf2, 0x9c, 0x96, 0x15, 0x1b, 0xc4, 0x0d, 0x0c, 0x81,
    0x0d, 0x08, 0x9a, 0xf0, 0xc5, 0x06, 0xc1, 0x81, 0xf9, 0xd2, 0x8e, 0xfd, 0x09, 0x05, 0x05, 0x0f, 0x22, 0x1f, 0xbc,
    0x81, 0x9c, 0xc1, 0xa6, 0x44, 0xb3, 0x86, 0x7f, 0xd3, 0x86, 0x66, 0x1a, 0xc5, 0x14, 0x25, 0x81, 0x41, 0x09, 0xbc,
    0x45, 0x0a, 0x12, 0xc7, 0x0e, 0xf4, 0x81, 0x04, 0xfa, 0x81, 0x67, 0x7f, 0x66, 0xec, 0xf1, 0xee, 0xf6, 0xe4, 0xc5,
    0x09, 0x02, 0x01, 0x0b, 0xfc, 0xf6, 0xd7, 0x84, 0x81, 0x29, 0x4a, 0x37, 0xaf, 0x81, 0x8e, 0x15, 0x24, 0x1e, 0xf3,
    0xad, 0x09, 0xc1, 0x8f, 0x38, 0xef, 0xbe, 0x7f, 0x04, 0x99, 0x99, 0x04, 0x81, 0x9b, 0x03, 0x9f, 0xaa, 0xfe, 0xca,
    0xc1, 0x0b, 0xa9, 0x81, 0x02, 0xb1, 0xa9, 0x12, 0x20, 0x14, 0xd0, 0xa7, 0xbb, 0xb6, 0x81, 0xa3, 0xe6, 0xef, 0x33,
    0xeb, 0xa0, 0x7f, 0x0f, 0x92, 0x53, 0xd3, 0xa4, 0xfd, 0xd2, 0x81, 0xdd, 0x10, 0xe8, 0xf6, 0x20, 0x8c, 0xaf, 0x15,
    0x81, 0x82, 0x25, 0xa0, 0x9f, 0xf5, 0x54, 0x31, 0x27, 0x7f, 0x59, 0x11, 0x7c, 0x61,
};
const int32_t offsetBias4[48] = {
    77772,  84990,  -29926, -30105, -39648, 81298,  76597,  -29480, 81407,  140,    80516,  -68704,
    176884, 94722,  61159,  70337,  -26792, 54108,  -3998,  168,    -612,   3082,   -55374, -81537,
    48512,  -14970, 63566,  -70920, -85019, 22582,  -68395, -18917, -53476, -23850, -28453, -3558,
    -35362, 26157,  -34920, -8019,  -20849, -76104, -61232, -52990, 663,    -45688, -70171, 43261744,
};
const int32_t offsetRBias4[48] = {
    0, 0, 0, 0, 0, 0, 0, 0, 0, 0, 0, 0, 0, 0, 0, 0, 0, 0, 0, 0, 0, 0, 0, 0,
    0, 0, 0, 0, 0, 0, 0, 0, 0, 0, 0, 0, 0, 0, 0, 0, 0, 0, 0, 0, 0, 0, 0, 0,
};
const float scales4[48] = {
    0.003204071894288063,  0.002867121249437332,  0.002599588828161359,   0.002367213601246476, 0.002617752645164728,
    0.0028196938801556826, 0.003513157833367586,  0.002552830148488283,   0.003415006911382079, 0.0015257432824000716,
    0.0020281251054257154, 0.0024445049930363894, 0.0016694295918568969,  0.002632774645462632, 0.002884836867451668,
    0.0028916329611092806, 0.0021982549224048853, 0.001695681014098227,   0.01665378361940384,  0.020731160417199135,
    0.010777696035802364,  0.004867331124842167,  0.008492630906403065,   0.005721207242459059, 0.0015171491540968418,
    0.009622934274375439,  0.005112366750836372,  0.007173338904976845,   0.004206240642815828, 0.016742995008826256,
    0.010218693874776363,  0.01757330819964409,   0.01031186617910862,    0.012893682345747948, 0.009982245042920113,
    0.013885194435715675,  0.010987895540893078,  0.006940274033695459,   0.014162602834403515, 0.009843745268881321,
    0.051198575645685196,  0.007278370670974255,  0.01283588632941246,    0.013700300827622414, 0.017866840586066246,
    0.01617673970758915,   0.01843954436480999,   4.4159767937637304e-14,
};
const int32_t shift4[48] = {
    -8, -8, -8, -8, -8, -8, -8, -8, -8, -9, -8, -8, -9, -8, -8, -8, -8, -9, -5, -5, -6, -7, -6, -7,
    -9, -6, -7, -7, -7, -5, -6, -5, -6, -6, -6, -6, -6, -7, -6, -6, -4, -7, -6, -6, -5, -5, -5, 0,
};
const int32_t multiplier4[48] = {
    1761457152, 1576216576, 1429139072, 1301389440, 1439124736, 1550143104, 1931378944, 1403433216,
    1877419904, 1677572480, 1114973568, 1343880832, 1835557248, 1447383168, 1585955840, 1589692032,
    1208503424, 1864420992, 1144439296, 1424634496, 1481275264, 1337921792, 1167218304, 1572633472,
    1668123136, 1322566016, 1405276672, 1971792384, 1156202624, 1150569856, 1404446592, 1207628544,
    1417252096, 1772094208, 1371949312, 1908366592, 1510164864, 1907728000, 1946493312, 1352914048,
    1759169664, 2000663296, 1764150784, 1882955008, 1227799936, 1111657088, 1267155840, 0,
};
const unsigned char weight5[768] = {
    0x81, 0x52, 0x26, 0x92, 0xe9, 0xae, 0xfc, 0x13, 0x0e, 0x03, 0x0b, 0x13, 0x0a, 0xfe, 0xe7, 0x09, 0x0b, 0xf0, 0xfe,
    0x00, 0x00, 0xf4, 0xdb, 0x02, 0xfa, 0xfd, 0x03, 0xf5, 0x02, 0xfe, 0xfd, 0x04, 0x32, 0x04, 0x03, 0x12, 0x14, 0x05,
    0xfc, 0xff, 0xf2, 0x06, 0x03, 0xff, 0xfa, 0xf3, 0xf4, 0x00, 0x06, 0x01, 0x0c, 0x31, 0x71, 0x81, 0xac, 0xd5, 0xfd,
    0xda, 0x10, 0x5a, 0xb7, 0xfc, 0x10, 0x14, 0xd2, 0x04, 0x1e, 0x00, 0x30, 0x12, 0x4d, 0x07, 0xe8, 0x2d, 0xc8, 0x3f,
    0x02, 0x32, 0x39, 0x20, 0x1b, 0x14, 0xef, 0xeb, 0x29, 0xfe, 0x1e, 0x12, 0xf5, 0x08, 0x09, 0x22, 0xfb, 0xff, 0x17,
    0x00, 0xd3, 0x44, 0x81, 0xf7, 0xd3, 0xf4, 0x22, 0xf6, 0xb4, 0xf6, 0x02, 0x1d, 0xe9, 0x13, 0x2f, 0x03, 0xf8, 0x20,
    0x0a, 0x07, 0x03, 0xfe, 0xfd, 0xf1, 0xfb, 0x03, 0xff, 0x06, 0x10, 0x04, 0x13, 0x06, 0x0d, 0x07, 0xf8, 0xf8, 0xfd,
    0x00, 0xfa, 0x03, 0xff, 0xfd, 0xed, 0x00, 0xfe, 0x02, 0x04, 0x00, 0x7f, 0xc5, 0x4c, 0xdb, 0xf4, 0xed, 0x0a, 0xfa,
    0xa1, 0xeb, 0x03, 0xee, 0xef, 0x3b, 0xca, 0xfc, 0x10, 0xe0, 0x0e, 0x0a, 0x0e, 0xfd, 0xf3, 0x33, 0xfd, 0x02, 0xff,
    0xf6, 0xfa, 0x00, 0xfe, 0x08, 0x09, 0x00, 0x06, 0x01, 0x0c, 0xf8, 0xfa, 0x0b, 0xfe, 0x08, 0xf9, 0x05, 0x05, 0xfe,
    0x02, 0x00, 0xf9, 0xf7, 0x03, 0x4e, 0xa3, 0x24, 0xf5, 0x7f, 0xfa, 0xfa, 0x01, 0x0f, 0xf5, 0xfd, 0x08, 0x06, 0x04,
    0x0b, 0x00, 0xfb, 0x03, 0x04, 0x0d, 0x07, 0xfb, 0x07, 0xf9, 0x07, 0x05, 0x07, 0x03, 0x02, 0x0a, 0x03, 0xff, 0x04,
    0x07, 0x01, 0x08, 0x02, 0xff, 0x00, 0x03, 0x05, 0xfa, 0x06, 0x02, 0x00, 0x07, 0x0f, 0x01, 0xc2, 0xe0, 0x2a, 0xcd,
    0xb4, 0xfd, 0xee, 0x12, 0x0e, 0xd5, 0xfc, 0x04, 0xf5, 0xff, 0xfe, 0x7f, 0x59, 0x7b, 0x3b, 0x2c, 0xf7, 0xd6, 0x64,
    0x90, 0x33, 0xff, 0x78, 0x2d, 0x63, 0x16, 0x55, 0x14, 0x15, 0x08, 0xcf, 0x2a, 0x4a, 0x01, 0x2c, 0x07, 0x28, 0x1a,
    0x10, 0x27, 0x00, 0x85, 0x81, 0xbd, 0xfe, 0x16, 0xda, 0xc9, 0xe9, 0xa9, 0x03, 0x08, 0xf3, 0x12, 0x0d, 0xfc, 0x0d,
    0xff, 0x07, 0xe7, 0xe4, 0xef, 0x02, 0xff, 0xff, 0xf6, 0x01, 0x03, 0x08, 0x1a, 0x00, 0x1c, 0x03, 0x08, 0xfe, 0xfc,
    0xf9, 0xff, 0x0a, 0x10, 0x02, 0xe3, 0x04, 0x12, 0x04, 0x07, 0xfa, 0x06, 0x00, 0xe4, 0x33, 0xf6, 0xff, 0x4c, 0xb7,
    0xd7, 0xb6, 0xaa, 0xd7, 0x2c, 0x36, 0xf7, 0xe7, 0x7f, 0xed, 0x0e, 0x7c, 0x0c, 0x01, 0x14, 0xf5, 0x17, 0x34, 0x02,
    0xf4, 0x12, 0x02, 0x37, 0xf0, 0x06, 0xed, 0x06, 0xfd, 0x13, 0xf8, 0xf4, 0x0d, 0xf9, 0x01, 0xff, 0xf5, 0x00, 0xff,
    0x05, 0x00, 0xfe, 0x00, 0x26, 0xe9, 0xe1, 0x06, 0x08, 0xfa, 0xfa, 0x01, 0x12, 0xff, 0x00, 0xfd, 0x04, 0x04, 0x8b,
    0x02, 0xf8, 0x7f, 0x00, 0xff, 0x01, 0x04, 0xfe, 0xff, 0x02, 0x00, 0x00, 0xfc, 0xf6, 0xfe, 0xfc, 0x00, 0xfb, 0x00,
    0x09, 0xfe, 0x00, 0x03, 0x04, 0x00, 0x03, 0xfd, 0x00, 0x00, 0x00, 0x00, 0xff, 0x00, 0xf6, 0xfd, 0x00, 0x20, 0xfc,
    0xe1, 0x1b, 0xff, 0xfe, 0x81, 0x68, 0xef, 0x10, 0xfe, 0xfd, 0x00, 0x02, 0xf9, 0x22, 0x20, 0x1e, 0xf9, 0xfe, 0xfd,
    0x03, 0xf7, 0x0c, 0xff, 0xff, 0xf4, 0x01, 0xf7, 0x01, 0x03, 0xf8, 0xf8, 0xfe, 0xf2, 0xf9, 0x0d, 0xfc, 0xfa, 0xfa,
    0x07, 0xfb, 0xfd, 0xfd, 0x00, 0x07, 0x7f, 0xdb, 0x0b, 0xfb, 0x0a, 0xc1, 0x16, 0xd8, 0x0d, 0x0e, 0xea, 0x2b, 0x0f,
    0x0b, 0xf3, 0x05, 0x01, 0xfa, 0xf3, 0xfd, 0x13, 0x06, 0xe3, 0x09, 0x00, 0x04, 0xf4, 0x02, 0xf9, 0xf3, 0xfc, 0xff,
    0xf8, 0x07, 0x03, 0xfc, 0x0d, 0x09, 0xf8, 0x0f, 0x02, 0xed, 0xfa, 0x08, 0xfd, 0x03, 0x00, 0xfa, 0xd9, 0x1c, 0x7f,
    0xd9, 0x9a, 0x78, 0xe0, 0xfe, 0x68, 0x97, 0xe8, 0x25, 0x0f, 0x07, 0xf2, 0x1f, 0xf3, 0x3c, 0x4f, 0x1a, 0xf2, 0xe5,
    0x0f, 0x07, 0xf0, 0x34, 0xe9, 0x0b, 0xd4, 0xee, 0xdb, 0xdf, 0x14, 0xd8, 0xdf, 0xef, 0xfb, 0xff, 0xff, 0xfc, 0xf2,
    0xee, 0xf8, 0xe4, 0xf7, 0xed, 0x00, 0x0a, 0x04, 0x03, 0x02, 0x09, 0x01, 0xfd, 0x00, 0x03, 0xff, 0x02, 0x01, 0x01,
    0x01, 0x01, 0x6b, 0x81, 0xff, 0xf8, 0xf8, 0xf9, 0x22, 0xfd, 0xfb, 0x45, 0x05, 0x0d, 0x10, 0x02, 0x03, 0x10, 0x14,
    0xf5, 0xfb, 0x06, 0x0b, 0xfd, 0x07, 0x01, 0xf9, 0x00, 0xfc, 0x01, 0xfd, 0x09, 0xf9, 0x01, 0x00, 0x7f, 0xbe, 0x92,
    0xdd, 0x07, 0xd6, 0xf5, 0x1a, 0x3d, 0xf8, 0x0a, 0xe8, 0xfc, 0xcb, 0x68, 0xfb, 0x0c, 0x28, 0x09, 0x03, 0x09, 0xfd,
    0xf9, 0xd6, 0xfb, 0x05, 0x02, 0xf9, 0xfc, 0xfb, 0xf7, 0x00, 0x04, 0xfb, 0x0a, 0x09, 0x13, 0xfd, 0x00, 0xff, 0x05,
    0x08, 0x07, 0x03, 0x03, 0xf2, 0x03, 0x00, 0x07, 0x02, 0xef, 0x02, 0x0d, 0xfb, 0xf9, 0x07, 0x1b, 0xfe, 0x05, 0xfd,
    0x05, 0x7f, 0x0e, 0x02, 0xfb, 0x0a, 0xfc, 0xfc, 0xfd, 0x02, 0x03, 0xe0, 0xfe, 0x01, 0xff, 0x01, 0xdd, 0xfe, 0xfe,
    0xfe, 0x00, 0xfd, 0x13, 0x02, 0x02, 0x02, 0x01, 0xfc, 0x01, 0x00, 0x02, 0x00, 0x00, 0xfb, 0x00, 0x00, 0x4e, 0xa9,
    0xff, 0x0c, 0x81, 0xfe, 0xcb, 0xca, 0xdb, 0x15, 0xfe, 0x76, 0x34, 0xfe, 0x11, 0xf9, 0x14, 0x19, 0xf6, 0x12, 0xec,
    0xeb, 0xeb, 0x16, 0xfe, 0x03, 0xf8, 0x11, 0xfb, 0x04, 0x14, 0x07, 0xfd, 0x06, 0xf8, 0x00, 0x08, 0xf7, 0x19, 0x03,
    0xfb, 0xfe, 0x03, 0x0f, 0x06, 0x20, 0xf4, 0x00,
};
const int32_t bias5[16] = {
    9733, 13412, 21542, 3973, -9826, 23792, 13351, 1632, 2622, 4853, -11933, -25459, 6340, 3823, -4180, 3023,
};
const float scales5[16] = {
    0.001771920848462211, 0.001980464176105557, 0.003688951817173038,  0.0022760810434258026,
    0.0053490772764775,   0.002065790874995428, 0.0022999865621449295, 0.0017175320150110578,
    0.002550105159275519, 0.003897011666997156, 0.003146739471137652,  0.0014349787336582342,
    0.004419097369181999, 0.00202798020796882,  0.004457477913068805,  0.0013035795550232396,
};
const int32_t shift5[16] = {
    -9, -8, -8, -8, -7, -8, -8, -9, -8, -8, -8, -9, -7, -8, -7, -9,
};
const int32_t multiplier5[16] = {
    1948247576, 1088771695, 2028022709, 1251288787, 1470343166, 1135680544, 1264430984, 1888446422,
    1401935137, 2142404821, 1729938319, 1577775803, 1214712235, 1114893910, 1225262199, 1433300878,
};
const unsigned char weight6[768] = {
    0x06, 0x20, 0xe1, 0x04, 0x16, 0xb4, 0x7f, 0xe4, 0xe8, 0xe7, 0x00, 0x19, 0xe7, 0xfe, 0xe9, 0xde, 0x22, 0xea, 0xda,
    0x02, 0x03, 0x0e, 0x1a, 0xf9, 0xfd, 0x81, 0x39, 0xa9, 0x5c, 0x11, 0x01, 0xcf, 0xf6, 0xd6, 0x0a, 0x01, 0x7f, 0x07,
    0xef, 0xd7, 0xfd, 0x09, 0x06, 0x04, 0x03, 0xfd, 0x00, 0x0c, 0x08, 0x3f, 0xf9, 0x0d, 0x0a, 0xfd, 0xef, 0x0e, 0xfd,
    0xc2, 0xfd, 0x81, 0xff, 0xfe, 0xfc, 0x10, 0xec, 0x9c, 0x4b, 0xbf, 0xd8, 0xea, 0x95, 0xb9, 0xfa, 0x77, 0xf8, 0xe1,
    0x7f, 0xf8, 0x38, 0x3f, 0xf5, 0xce, 0x01, 0x16, 0xfb, 0x0d, 0x15, 0x0e, 0xfe, 0x7f, 0xf8, 0x16, 0xf5, 0xfd, 0xf4,
    0xfb, 0x81, 0x02, 0xf7, 0xd9, 0xfd, 0xfe, 0xfc, 0x0e, 0xfb, 0x0f, 0x07, 0x0b, 0xf4, 0xc4, 0xfe, 0xe2, 0x26, 0x25,
    0xf0, 0x20, 0x81, 0xed, 0x09, 0x2e, 0x09, 0xe8, 0x03, 0x09, 0xeb, 0x01, 0x09, 0xe2, 0x03, 0x28, 0x1b, 0xfb, 0x04,
    0xf0, 0xe1, 0x23, 0xf9, 0x1f, 0xf2, 0x2b, 0x81, 0xf4, 0xfd, 0x3d, 0xfd, 0x02, 0xc8, 0x78, 0x08, 0x12, 0xfc, 0x0c,
    0xea, 0xf8, 0xdf, 0xe7, 0x0e, 0x81, 0x49, 0x31, 0x7f, 0x24, 0x4d, 0xc4, 0x19, 0xf7, 0x34, 0x13, 0xd6, 0xef, 0x2b,
    0x0d, 0xd5, 0xba, 0xde, 0x00, 0xed, 0x7f, 0xdd, 0x03, 0x9c, 0xc2, 0x08, 0x18, 0x10, 0x16, 0x24, 0x56, 0xc0, 0xff,
    0x19, 0xd3, 0x0a, 0x1e, 0xf2, 0xe3, 0xf5, 0x00, 0x0c, 0xf2, 0xf9, 0x0a, 0x38, 0x10, 0x0d, 0xeb, 0x01, 0x7f, 0xff,
    0x09, 0x03, 0xd0, 0xf5, 0xef, 0xee, 0xe1, 0x1c, 0x07, 0x0b, 0xf1, 0x08, 0x39, 0x81, 0xf6, 0x7f, 0x15, 0x03, 0x2f,
    0x04, 0xe8, 0x01, 0xf7, 0x04, 0x09, 0xfd, 0x1a, 0xf4, 0x3e, 0x03, 0x00, 0xf5, 0x43, 0xfe, 0x16, 0x0e, 0x08, 0xec,
    0xf5, 0xfe, 0xf2, 0x0c, 0x81, 0x02, 0x02, 0x02, 0x0c, 0xca, 0xe8, 0x2e, 0x04, 0xf9, 0xfc, 0x07, 0x0d, 0x7f, 0x04,
    0x02, 0x03, 0x03, 0x37, 0xec, 0x13, 0x52, 0xf7, 0xff, 0xda, 0x05, 0x04, 0xb1, 0x3b, 0x1e, 0xfe, 0x32, 0x0b, 0x0e,
    0x81, 0xf5, 0xd2, 0x7f, 0x08, 0x09, 0x43, 0x00, 0xf9, 0x00, 0xcb, 0x1c, 0x04, 0x0f, 0x03, 0x05, 0x33, 0x03, 0x12,
    0x03, 0xf4, 0x0b, 0xfb, 0xf6, 0xf7, 0x05, 0xe6, 0xfb, 0x81, 0x07, 0x5e, 0x0a, 0xf2, 0xfe, 0x08, 0x07, 0x33, 0xbf,
    0x07, 0x22, 0x29, 0x6d, 0x08, 0x17, 0xb6, 0xc1, 0x05, 0x81, 0xd7, 0xfc, 0x14, 0x10, 0x12, 0x1f, 0x81, 0x0a, 0x12,
    0xc7, 0x45, 0xc4, 0xe4, 0x20, 0x0a, 0xe5, 0x72, 0xbd, 0x00, 0xee, 0xe5, 0x26, 0xec, 0xf8, 0xe4, 0xe3, 0x0e, 0x11,
    0x44, 0xe4, 0x7f, 0xee, 0x0c, 0xfb, 0xdf, 0x7a, 0x08, 0xea, 0x17, 0x0c, 0xe2, 0x02, 0xe2, 0x12, 0xfc, 0x33, 0x14,
    0xfc, 0x1d, 0x0a, 0x7f, 0xf5, 0xf7, 0xd5, 0x13, 0xfc, 0xe9, 0x57, 0x0b, 0x1c, 0xf5, 0x0f, 0x02, 0xe6, 0x19, 0x28,
    0x7f, 0xfc, 0x64, 0x0c, 0x18, 0x28, 0xc7, 0xe5, 0xd5, 0x10, 0x31, 0x26, 0x7f, 0xed, 0x0b, 0x0c, 0xe1, 0x4b, 0x0d,
    0xec, 0xf6, 0xfc, 0x09, 0xb9, 0xdf, 0x7f, 0x11, 0x2e, 0x13, 0x0b, 0x8a, 0x30, 0xd2, 0xbf, 0x02, 0x0c, 0x60, 0x07,
    0xf9, 0x4a, 0xcc, 0x05, 0xed, 0xcf, 0x11, 0xed, 0x21, 0x05, 0x81, 0x81, 0x12, 0xdf, 0xab, 0xea, 0xea, 0x0a, 0xfb,
    0x03, 0x0a, 0x31, 0x1e, 0xea, 0xb1, 0x01, 0x4c, 0x24, 0xe3, 0xe7, 0x51, 0x1e, 0x0f, 0xe3, 0x3b, 0x7f, 0xff, 0xff,
    0x18, 0x05, 0xa9, 0x1f, 0xe5, 0xf2, 0xe7, 0xd0, 0x05, 0xfc, 0x10, 0xf8, 0xfb, 0x81, 0xfe, 0xfe, 0xf5, 0x16, 0x26,
    0x05, 0x00, 0x8a, 0xfe, 0x06, 0x7f, 0xed, 0xfe, 0xc8, 0x05, 0x17, 0xef, 0x04, 0xd1, 0x11, 0x39, 0x17, 0x4d, 0xca,
    0xf1, 0x3d, 0x1e, 0xe2, 0x09, 0x0f, 0xde, 0x29, 0x14, 0xe6, 0xfb, 0x17, 0x7f, 0xd8, 0x03, 0xd6, 0xf2, 0xfb, 0xc7,
    0xeb, 0xee, 0x0a, 0x2f, 0x2f, 0x0c, 0x33, 0x14, 0x05, 0xb0, 0x17, 0x7f, 0x02, 0xe1, 0xea, 0xf7, 0x0f, 0x0a, 0x00,
    0x52, 0x81, 0xf6, 0xf2, 0x08, 0x0a, 0x1c, 0x30, 0xfa, 0x7f, 0x14, 0xfe, 0x98, 0x0f, 0x03, 0xf4, 0x1b, 0xdb, 0xd8,
    0x19, 0xfd, 0xe6, 0x91, 0xfb, 0xa3, 0x00, 0x15, 0xfb, 0x01, 0xfe, 0xf3, 0x06, 0xe6, 0x09, 0x07, 0x0f, 0xf3, 0xfe,
    0xde, 0x81, 0x1f, 0x05, 0xd8, 0x10, 0x81, 0x03, 0x11, 0x17, 0x08, 0xcb, 0xf8, 0xd7, 0xee, 0x0d, 0x56, 0xb4, 0x16,
    0x0e, 0xe0, 0x08, 0xd7, 0x0b, 0x0b, 0x06, 0x3f, 0x7f, 0xf7, 0xe8, 0xfb, 0x03, 0x18, 0xf6, 0x00, 0xf2, 0xfc, 0xfa,
    0x7f, 0x03, 0x0f, 0xdf, 0x0f, 0xce, 0xff, 0x0f, 0xf9, 0x04, 0xc0, 0x4f, 0x24, 0x05, 0xd3, 0xde, 0x09, 0xfd, 0x16,
    0x34, 0x0a, 0xf7, 0xfc, 0xed, 0x28, 0x7f, 0xfb, 0xec, 0xfe, 0x02, 0xf9, 0x0a, 0x1e, 0xfe, 0x01, 0x13, 0xf4, 0xf3,
    0xff, 0xfa, 0xfa, 0xf9, 0xd4, 0x7f, 0xfe, 0x12, 0xfd, 0x1b, 0x00, 0xfe, 0x7f, 0x0e, 0xf7, 0x00, 0xf3, 0xec, 0x1a,
    0x07, 0xf7, 0xfe, 0x18, 0x81, 0xe8, 0xfc, 0xb8, 0xe2, 0x07, 0xf2, 0x31, 0x12, 0x01, 0x06, 0x04, 0x02, 0x89, 0x1b,
    0x8e, 0xed, 0xd6, 0xf4, 0x10, 0x7f, 0xdf, 0xf3, 0xf0, 0xfa, 0xf1, 0x24, 0x0d, 0xf3, 0xf0, 0x11, 0xe5, 0xff, 0xf0,
    0x00, 0x05, 0xfd, 0xf8, 0xdb, 0x00, 0x11, 0x20, 0x08, 0x16, 0x81, 0xf7, 0x0a, 0xf6, 0x06, 0x04, 0x06, 0xff, 0xfc,
    0xfa, 0xf4, 0xf9, 0x81, 0x00, 0x1b, 0x00, 0x07, 0x01, 0x22, 0x08, 0xfd, 0xef, 0x1b, 0xee, 0x06, 0x09, 0x08, 0x28,
    0x12, 0xef, 0x13, 0x0f, 0x01, 0x16, 0x7f, 0xeb,
};
const int32_t bias6[48] = {
    10255, 3181, 6941, -699, 10144, 1584, 806,  1450, -966, 3838, 3245, 2887, 630, -157, 134,  5103,
    3547,  4719, 1576, -957, -229,  9047, 3834, 1501, 5155, 130,  4192, 8579, 861, 1693, 2123, 5456,
    7294,  1775, 1734, 9853, 4167,  2233, 1559, 2923, -611, 1517, 1657, 2128, 165, -10,  5521, 1447,
};
const float scales6[48] = {
    0.004327542931622284,  0.012457302277866901,  0.004858636218346221,  0.012549280468269792,  0.0020564938515562105,
    0.010354682563886887,  0.012245245444059676,  0.008714513029323186,  0.007507262163830636,  0.0054140225968271555,
    0.005266430982642452,  0.004144086825321915,  0.013478510583833807,  0.010999420691617285,  0.012973884200705874,
    0.006881338356296659,  0.005871106736608004,  0.004386043568897506,  0.00831576361945607,   0.012231782274376534,
    0.004701620215221922,  0.00335996013892375,   0.0061900066350041045, 0.007879771835565942,  0.004555011283101426,
    0.009865685505018264,  0.004092676813434666,  0.0030332474927137042, 0.008532288040725769,  0.022068267232965635,
    0.008255336755173604,  0.0038219453523244003, 0.004008054700198132,  0.0074395268675728045, 0.009917931009361836,
    0.0021790508956991044, 0.008253081265864326,  0.011884813828240817,  0.029890356907573037,  0.0065964805214607835,
    0.007878322911275598,  0.009404232471384853,  0.010900925319732286,  0.00519546432146699,   0.007370754437603916,
    0.006148260088818393,  0.006670688757237659,  0.0063309993902364295,
};
const int32_t shift6[48] = {
    -7, -6, -7, -6, -8, -6, -6, -6, -7, -7, -7, -7, -6, -6, -6, -7, -7, -7, -6, -6, -7, -8, -7, -6,
    -7, -6, -7, -8, -6, -5, -6, -8, -7, -7, -6, -8, -6, -6, -5, -7, -6, -6, -6, -7, -7, -7, -7, -7,
};
const int32_t multiplier6[48] = {
    1189545943, 1712118588, 1335531754, 1724759974, 1130569451, 1423136735, 1682973719, 1197713551,
    2063580510, 1488195200, 1447625526, 1139117913, 1852472389, 1511748869, 1783117067, 1891527884,
    1613837531, 1205626476, 1142909849, 1681123355, 1292371524, 1847157621, 1701496068, 1082987595,
    1252071968, 1355929491, 1124986436, 1667545444, 1172668739, 1516519777, 1134604844, 2101136678,
    1101725687, 2044961574, 1363110059, 1197945899, 1134294852, 1633436375, 2054049686, 1813226759,
    1082788456, 1292507869, 1498211768, 1428118358, 2026057552, 1690020865, 1833624963, 1740251861,
};
const unsigned char CHWweight7[432] = {
    0x02, 0x9b, 0x06, 0x81, 0x60, 0xab, 0xee, 0xa2, 0xe0, 0x08, 0x7f, 0x0c, 0xb9, 0xdb, 0xb4, 0xeb, 0x36, 0xff, 0x02,
    0xf8, 0x0c, 0xfc, 0x81, 0xed, 0x07, 0xf0, 0x03, 0xf1, 0xda, 0xf1, 0xfa, 0x7f, 0x0b, 0xea, 0xf8, 0xee, 0xec, 0x2d,
    0xf9, 0x3f, 0x81, 0x37, 0xfb, 0x23, 0x08, 0x77, 0x19, 0x78, 0x7f, 0xbe, 0x39, 0x51, 0xa3, 0x64, 0x0a, 0x0f, 0xff,
    0x1a, 0x7f, 0x10, 0x11, 0x05, 0x06, 0x71, 0xfb, 0x81, 0x08, 0xfa, 0x02, 0xad, 0xe8, 0x59, 0xec, 0x08, 0xf1, 0xcc,
    0x7f, 0xe6, 0xe6, 0x0c, 0xe1, 0x08, 0xe3, 0xf9, 0x09, 0x7f, 0xbe, 0xf4, 0xde, 0xec, 0xf8, 0xd7, 0x03, 0xfb, 0x7f,
    0xd7, 0xfa, 0xbf, 0x06, 0x09, 0xf4, 0xdb, 0x16, 0x7f, 0x12, 0xde, 0x10, 0x03, 0x03, 0xf2, 0xfa, 0x0f, 0x7f, 0x12,
    0x01, 0x27, 0x03, 0x04, 0xf3, 0x03, 0x0a, 0x7f, 0x0e, 0xf9, 0xfe, 0xfa, 0xf2, 0x1e, 0x12, 0xed, 0x7f, 0x37, 0x06,
    0x14, 0x1e, 0xd9, 0xde, 0xd9, 0x46, 0x7f, 0x42, 0xe6, 0xfe, 0xe6, 0xd3, 0x81, 0xe3, 0x07, 0x08, 0x08, 0x27, 0x78,
    0x0d, 0xe9, 0xa5, 0xe7, 0xf1, 0xdf, 0xf4, 0x26, 0x7f, 0x23, 0xf7, 0x1b, 0xfb, 0xc9, 0x7f, 0xc0, 0xf6, 0x24, 0xf6,
    0xef, 0xe4, 0xf1, 0x01, 0x7f, 0x0a, 0xee, 0x26, 0xf0, 0x02, 0xbe, 0x00, 0xc4, 0x7f, 0xc8, 0xf3, 0xe6, 0xf6, 0x2b,
    0x7f, 0x0e, 0xf3, 0xd2, 0x07, 0xea, 0x9a, 0xff, 0x2a, 0xf1, 0x29, 0x01, 0x81, 0xfd, 0x09, 0x87, 0x10, 0xfb, 0x91,
    0x16, 0xab, 0x7f, 0x42, 0x06, 0x3e, 0xdb, 0xff, 0x12, 0x03, 0xe4, 0x81, 0xd5, 0x2a, 0x6c, 0x22, 0xea, 0xf6, 0xfa,
    0x06, 0x7f, 0x12, 0xfc, 0x14, 0xe0, 0x18, 0xf1, 0xf7, 0x7f, 0xfd, 0x89, 0x29, 0xeb, 0xd8, 0xff, 0x34, 0xf4, 0xe1,
    0x81, 0xe9, 0x1b, 0x4e, 0x1e, 0x05, 0xc3, 0x14, 0x35, 0x62, 0x81, 0xf8, 0x39, 0xff, 0xff, 0x0b, 0xd5, 0x2a, 0x7f,
    0xae, 0xfe, 0xf5, 0xe5, 0xd5, 0x81, 0xf4, 0x01, 0x14, 0xfd, 0x25, 0x6f, 0x11, 0x25, 0xf5, 0xd3, 0x7f, 0xed, 0x8f,
    0x14, 0x03, 0xe6, 0xef, 0xe1, 0x06, 0xc3, 0x7f, 0xc3, 0xe7, 0xab, 0xf9, 0xf9, 0x62, 0xf3, 0xbc, 0x0c, 0x49, 0x08,
    0x81, 0x0b, 0xf4, 0xe0, 0x00, 0x05, 0x7f, 0xde, 0xec, 0xd8, 0xfe, 0x11, 0xdf, 0x03, 0x46, 0x81, 0x5a, 0x06, 0xc5,
    0x12, 0xef, 0xa6, 0xed, 0xce, 0x7f, 0xc4, 0xf1, 0xe9, 0xf0, 0xff, 0xe5, 0x06, 0x02, 0x7f, 0xd6, 0xf2, 0xe4, 0xf3,
    0xee, 0x02, 0xeb, 0x0d, 0x7f, 0xd6, 0xea, 0xe1, 0xf2, 0x2c, 0x71, 0x06, 0xf6, 0x06, 0xf2, 0xdc, 0x81, 0xfb, 0x2d,
    0x36, 0x2d, 0x2b, 0x7f, 0xee, 0x22, 0xf2, 0x28, 0xf1, 0xd6, 0xed, 0xda, 0x7f, 0xc2, 0xe2, 0xe1, 0xe9, 0x00, 0xc0,
    0x07, 0xe4, 0xc3, 0x81, 0xe7, 0xa1, 0xfa, 0xfc, 0xd5, 0x06, 0x81, 0x2c, 0x57, 0xc3, 0x2a, 0x28, 0x81, 0xd9, 0x73,
    0x09, 0x26, 0x28, 0x54, 0x28, 0x8a, 0xec, 0x81, 0xf8, 0x69, 0x14, 0x71, 0xfa, 0xab, 0xe7, 0xe4, 0xbf, 0x18, 0xea,
    0x60, 0x81, 0xe0, 0x84, 0x1a, 0xf4, 0xfa, 0xe2, 0xfd, 0x7f, 0xfd, 0xf1, 0x00, 0xea,
};
const int32_t offsetBias7[48] = {
    -28009, 11901, -14284, 3984,  7637,  63661,  25014,  6547,  -510,   -579,  -1392,  12271,
    21842,  16545, 29394,  6147,  -839,  -188,   4190,   11818, -9651,  610,   -17370, 5029,
    609,    12096, -2017,  -650,  4386,  13270,  -154,   -3399, -16080, -1339, -699,   -1607,
    -12628, 2666,  2991,   -2729, 45945, -16105, -43847, 442,   10519,  -1647, -23933, 2931,
};
const int32_t offsetRBias7[48] = {
    0, 0, 0, 0, 0, 0, 0, 0, 0, 0, 0, 0, 0, 0, 0, 0, 0, 0, 0, 0, 0, 0, 0, 0,
    0, 0, 0, 0, 0, 0, 0, 0, 0, 0, 0, 0, 0, 0, 0, 0, 0, 0, 0, 0, 0, 0, 0, 0,
};
const float scales7[48] = {
    0.004909357987344265,  0.004060937091708183, 0.0326215885579586,   0.022453544661402702, 0.018011197447776794,
    0.0019242974231019616, 0.01895996928215027,  0.006084217689931393, 0.020743217319250107, 0.013766752555966377,
    0.015123659744858742,  0.02785811759531498,  0.016908707097172737, 0.01590493507683277,  0.014855844900012016,
    0.01601291075348854,   0.011831704527139664, 0.014676546677947044, 0.013534379191696644, 0.018830351531505585,
    0.014527631923556328,  0.017034394666552544, 0.013207738287746906, 0.011946323327720165, 0.017907490953803062,
    0.018201617524027824,  0.012364485301077366, 0.028793469071388245, 0.012483527883887291, 0.002511783968657255,
    0.01333941612392664,   0.010447544045746326, 0.012096870690584183, 0.011979675851762295, 0.025256801396608353,
    0.02045558951795101,   0.006591536104679108, 0.009220011532306671, 0.00718203978613019,  0.01098954863846302,
    0.004673088435083628,  0.01888928934931755,  0.006403903476893902, 0.00847615022212267,  0.008573771454393864,
    0.014289503917098045,  0.009675007313489914, 0.028722232207655907,
};
const int32_t shift7[48] = {
    -7, -7, -4, -5, -5, -9, -5, -7, -5, -6, -6, -5, -5, -5, -6, -5, -6, -6, -6, -5, -6, -5, -6, -6,
    -5, -5, -6, -5, -6, -8, -6, -6, -6, -6, -5, -5, -7, -6, -7, -6, -7, -5, -7, -6, -6, -6, -6, -5,
};
const int32_t multiplier7[48] = {
    1349474048, 1116261888, 1120869248, 1542995840, 1237720064, 2115787392, 1302919168, 1672417024,
    1425463040, 1892088064, 2078579968, 1914395264, 1161957504, 1092978816, 2041771776, 1100398848,
    1626137088, 2017129216, 1860150912, 1294011904, 1996662528, 1170594688, 1815257728, 1641890176,
    1230593408, 1250805632, 1699361920, 1978672128, 1715723008, 1380867840, 1833355392, 1435899520,
    1662581248, 1646474112, 1735634176, 1405697408, 1811867648, 1267188736, 1974184064, 1510392064,
    1284528768, 1298062080, 1760291584, 1164953216, 1178370176, 1963934464, 1329722880, 1973776768,
};
const unsigned char weight8[768] = {
    0x3d, 0x3c, 0x40, 0x53, 0x07, 0x29, 0x7f, 0x14, 0x5d, 0x01, 0xd4, 0x4d, 0x62, 0x0f, 0x3d, 0xf2, 0xe6, 0x1d, 0xc8,
    0x24, 0x07, 0xc9, 0x34, 0xc5, 0xd5, 0x0d, 0xda, 0xd8, 0x11, 0x2d, 0xea, 0xb7, 0xc2, 0x08, 0xe7, 0x0a, 0x10, 0xdf,
    0xf0, 0xf6, 0x11, 0xec, 0x18, 0x08, 0x27, 0x1f, 0x15, 0xee, 0xd3, 0xe6, 0xb1, 0x2d, 0xf4, 0x29, 0xf1, 0xd9, 0xf0,
    0x00, 0x20, 0x4a, 0xdd, 0x3c, 0x07, 0xf7, 0xe3, 0xf7, 0xe0, 0xaa, 0x04, 0x1b, 0x3c, 0x81, 0x01, 0x3f, 0xe0, 0xea,
    0xcc, 0x10, 0x0c, 0x11, 0xd6, 0xcf, 0xfb, 0xda, 0x0f, 0x08, 0xf5, 0xf7, 0x0a, 0xfc, 0xf3, 0xd9, 0xe6, 0x0d, 0xf8,
    0x57, 0x81, 0xd8, 0xff, 0xc9, 0x99, 0xc7, 0x5e, 0xce, 0xe4, 0xdc, 0x4c, 0xf8, 0x61, 0xe4, 0x48, 0xee, 0x4a, 0x39,
    0xda, 0xe1, 0xd0, 0xda, 0x12, 0xd4, 0xe8, 0x0d, 0xac, 0x45, 0xb7, 0x2d, 0x1f, 0xf1, 0xd9, 0x2a, 0x4c, 0xa6, 0xfc,
    0xcc, 0x4d, 0x14, 0xfa, 0x17, 0x35, 0x21, 0xda, 0xd7, 0x03, 0x68, 0xd2, 0x39, 0x1c, 0x17, 0xe6, 0x20, 0x39, 0x43,
    0x41, 0x7f, 0xbc, 0x21, 0x47, 0xd3, 0x13, 0x0c, 0x2a, 0x21, 0xac, 0x22, 0x0d, 0x13, 0xff, 0xf3, 0x0b, 0xed, 0xdb,
    0x09, 0x1b, 0x61, 0xe8, 0x0f, 0xfb, 0xe3, 0xc5, 0xd2, 0x08, 0x8c, 0x96, 0x0c, 0x1a, 0x22, 0x04, 0xa4, 0x30, 0x24,
    0xf8, 0xde, 0x08, 0x39, 0x7e, 0x46, 0x26, 0x3c, 0x4d, 0x62, 0x39, 0xdc, 0xf2, 0x9b, 0x33, 0x3d, 0x2a, 0xe3, 0x06,
    0x23, 0xcc, 0x1b, 0x16, 0xe7, 0x3d, 0x44, 0xc7, 0x7f, 0x06, 0xeb, 0xb7, 0xed, 0x14, 0x04, 0xfd, 0xa3, 0xe1, 0x00,
    0x05, 0x0b, 0xf3, 0x19, 0x27, 0xc0, 0x1f, 0xfd, 0x19, 0x2d, 0xfd, 0x20, 0x35, 0x0f, 0x81, 0x19, 0xe9, 0xd3, 0x17,
    0x0a, 0xfb, 0xf9, 0xe9, 0xd9, 0x31, 0x05, 0x17, 0x14, 0xfc, 0xcf, 0x2a, 0xe7, 0x04, 0xc8, 0x3b, 0x12, 0x26, 0x2d,
    0xf5, 0x1b, 0x07, 0x02, 0xf0, 0xf1, 0xee, 0xe0, 0x01, 0x2f, 0x10, 0x03, 0xf3, 0xe8, 0xdc, 0x09, 0xb1, 0x06, 0xe0,
    0x04, 0xf9, 0xf5, 0x67, 0x32, 0xf5, 0xe0, 0x4b, 0x01, 0x09, 0x44, 0xef, 0x14, 0x27, 0x0d, 0x12, 0x02, 0x09, 0x1c,
    0xd3, 0xd7, 0xf7, 0xf8, 0x7f, 0xd9, 0x47, 0x00, 0xd9, 0x08, 0xf9, 0xd0, 0xfd, 0xfc, 0xed, 0x10, 0xf9, 0xfe, 0x10,
    0xf7, 0x2d, 0x04, 0x0c, 0xf4, 0xe3, 0xe7, 0xfb, 0xee, 0x2e, 0x1b, 0xea, 0x12, 0xe8, 0xdc, 0xea, 0x45, 0x78, 0x09,
    0xfa, 0xf9, 0x36, 0xc8, 0x42, 0x15, 0x11, 0x3d, 0xfc, 0xdc, 0x3d, 0x19, 0x10, 0x15, 0x02, 0x17, 0x02, 0x12, 0x0b,
    0x26, 0x7f, 0xfc, 0x11, 0xb8, 0x27, 0x6e, 0xda, 0x2e, 0x0c, 0x24, 0xd6, 0x16, 0xed, 0x1c, 0x12, 0xbd, 0xfa, 0x0a,
    0x00, 0xfd, 0xcc, 0x37, 0xf3, 0x08, 0x07, 0xfc, 0x0a, 0x02, 0xfc, 0xfb, 0xfa, 0xef, 0xf2, 0x07, 0xff, 0x10, 0x06,
    0xe9, 0x05, 0x16, 0xf7, 0xf8, 0x09, 0x20, 0xf5, 0x07, 0x03, 0x00, 0x0c, 0xef, 0x07, 0x3e, 0xe7, 0xfc, 0x11, 0x14,
    0x8d, 0xf9, 0xfc, 0xe0, 0x7f, 0x0d, 0x05, 0x06, 0xfa, 0x03, 0x00, 0x06, 0x8c, 0xfe, 0xf7, 0xf3, 0xf3, 0xdf, 0x02,
    0x81, 0x08, 0xf7, 0x0e, 0xfc, 0xf5, 0x0b, 0xe0, 0x07, 0x03, 0xa6, 0xeb, 0x04, 0xdc, 0x9c, 0xf5, 0x05, 0xf8, 0xf4,
    0xe6, 0x2d, 0xf7, 0x0d, 0xe8, 0x00, 0xf0, 0xf8, 0x0b, 0xe3, 0xfb, 0xe5, 0x02, 0x05, 0xfa, 0xf1, 0xfc, 0x01, 0x1e,
    0xf6, 0xf2, 0xe2, 0xfb, 0xfa, 0x14, 0x49, 0x38, 0x3a, 0xdc, 0x4c, 0x96, 0x50, 0x09, 0xff, 0x3d, 0x05, 0x81, 0xf7,
    0x8d, 0x2a, 0xc7, 0x9a, 0x1e, 0x0a, 0xeb, 0xa8, 0x21, 0xc3, 0x05, 0xf3, 0x0f, 0xed, 0xce, 0xf4, 0xc8, 0xca, 0xb9,
    0x0d, 0x07, 0xfa, 0xff, 0xfc, 0xfc, 0xc9, 0x0b, 0x02, 0xe3, 0x20, 0x39, 0x4f, 0xde, 0x0c, 0x7a, 0x20, 0x0f, 0xfd,
    0x28, 0xfa, 0x9d, 0xed, 0x4d, 0x02, 0x16, 0x26, 0x0a, 0x1d, 0x97, 0xeb, 0x52, 0x55, 0xb3, 0x3d, 0x37, 0x39, 0xf1,
    0xf8, 0x75, 0x27, 0xab, 0x73, 0xcb, 0xfe, 0x61, 0x9b, 0xe9, 0x10, 0xfa, 0x81, 0xcd, 0x19, 0x04, 0x55, 0x02, 0xdb,
    0xf6, 0xc6, 0xf5, 0xfe, 0x06, 0x04, 0xe4, 0xe4, 0xeb, 0x1a, 0xe4, 0xeb, 0xef, 0xef, 0xd5, 0xf5, 0xf4, 0xe4, 0x11,
    0xf5, 0xf4, 0x0c, 0x0f, 0x0d, 0xf5, 0x02, 0xec, 0xfe, 0x02, 0xe2, 0xda, 0x10, 0xdb, 0xdd, 0xe6, 0x0b, 0x13, 0xeb,
    0x00, 0xec, 0xf7, 0xed, 0xfe, 0xf4, 0xf7, 0xf7, 0x81, 0xfd, 0x0e, 0xfd, 0xe8, 0xf6, 0x10, 0xff, 0x16, 0x6c, 0x48,
    0x21, 0xcd, 0x24, 0x26, 0x49, 0x12, 0x81, 0x96, 0x4a, 0x2e, 0x56, 0x11, 0xe2, 0x04, 0x08, 0xb8, 0x20, 0xdf, 0xaf,
    0x32, 0xfa, 0xda, 0x25, 0xe0, 0xe4, 0x39, 0xa1, 0x0a, 0xfb, 0x5a, 0xec, 0x24, 0xe5, 0x00, 0x3d, 0x1b, 0xf1, 0x0c,
    0xb0, 0xf9, 0xa9, 0x49, 0x31, 0x0a, 0x5a, 0x0f, 0x02, 0xf5, 0x21, 0xf4, 0x07, 0xfd, 0xfb, 0x00, 0x4b, 0xec, 0xff,
    0xfc, 0xa2, 0xfc, 0x00, 0x02, 0xf2, 0xfd, 0xfb, 0x06, 0xfa, 0xe9, 0x09, 0xf9, 0x0a, 0xff, 0xf4, 0x0c, 0x22, 0xf5,
    0x02, 0xe7, 0xe5, 0x03, 0xfe, 0x81, 0xe2, 0xe6, 0x16, 0x09, 0x46, 0x14, 0xf2, 0xfb, 0x01, 0xf6, 0xf0, 0x48, 0x8e,
    0x06, 0x40, 0x2e, 0xd0, 0xf8, 0x81, 0x2d, 0x11, 0xf1, 0x00, 0xd2, 0x27, 0xe2, 0x4e, 0x92, 0x83, 0xec, 0x28, 0x17,
    0x9d, 0xf4, 0xe3, 0xf0, 0x17, 0xbc, 0xd0, 0xe9, 0x30, 0x87, 0xdb, 0x17, 0xc4, 0x08, 0xf9, 0x28, 0x09, 0x12, 0x89,
    0x00, 0x0b, 0x15, 0xd3, 0x8d, 0xa2, 0xfd, 0x21,
};
const int32_t bias8[16] = {
    -20123, 7262, 15848, -13113, -23791, 3241, -17900, -11948, -2766, 12854, -11900, -12067, 12118, -9495, 1984, 16882,
};
const float scales8[16] = {
    0.0027239293185197136, 0.0012860974756244948, 0.001953394736608363, 0.0015298489130911286,
    0.0017628387400974446, 0.002816180760582442,  0.003014699850775991, 0.00351838505719126,
    0.0025481137044158298, 0.0024272518183268044, 0.002385083523899095, 0.0028049847012396735,
    0.0023687913350514686, 0.0018779121960549748, 0.00297996187026809,  0.003131845085731098,
};
const int32_t shift8[16] = {
    -8, -9, -8, -9, -9, -8, -8, -8, -8, -8, -8, -8, -8, -9, -8, -8,
};
const int32_t multiplier8[16] = {
    1497495979, 1414079129, 1073890113, 1682086669, 1938261693, 1548211746, 1657348770, 1934252641,
    1400840323, 1334395799, 1311213534, 1542056647, 1302256808, 2064786296, 1638251363, 1721750044,
};
const unsigned char weight9[768] = {
    0xc6, 0x1e, 0x14, 0xf5, 0x03, 0xe3, 0xef, 0x7f, 0x1b, 0xfb, 0xf6, 0x2e, 0x1d, 0x1e, 0x34, 0xce, 0x35, 0x7f, 0x05,
    0x25, 0x4f, 0xf8, 0xfc, 0xc4, 0xfe, 0x9d, 0xce, 0x1a, 0x82, 0x02, 0xeb, 0x16, 0x30, 0xc0, 0x0d, 0xf1, 0x81, 0xf4,
    0xb1, 0x0b, 0x03, 0x22, 0x03, 0xf0, 0xfc, 0x1c, 0x12, 0xd1, 0xfe, 0xdd, 0x1b, 0x22, 0xd6, 0x03, 0x0b, 0xfc, 0x1a,
    0x04, 0x08, 0x03, 0x0d, 0xda, 0x7f, 0xeb, 0xd1, 0xa4, 0x24, 0xf2, 0xc5, 0xff, 0x2c, 0xdd, 0x7f, 0x0a, 0x0c, 0xa5,
    0x28, 0xae, 0xfa, 0xe4, 0x2a, 0x81, 0x48, 0x02, 0x17, 0x28, 0x1a, 0x2d, 0x1c, 0xc2, 0xd7, 0x14, 0x82, 0x5d, 0xec,
    0xfb, 0x1d, 0xe7, 0x01, 0xea, 0x11, 0xff, 0x34, 0xf5, 0x7f, 0xf4, 0xef, 0x05, 0xfd, 0xf1, 0xd2, 0x05, 0x0f, 0x13,
    0xf9, 0x7f, 0x06, 0xf9, 0xed, 0xaf, 0x23, 0x16, 0xe0, 0x15, 0xf5, 0x9e, 0xf4, 0xf9, 0xfe, 0x89, 0x2d, 0x37, 0x01,
    0xd6, 0x7f, 0xdc, 0x01, 0xdd, 0xfe, 0x2e, 0x0c, 0x40, 0x01, 0xff, 0xe6, 0x3d, 0x81, 0xe4, 0x44, 0x8b, 0x5b, 0x58,
    0xcc, 0x53, 0xa5, 0x34, 0xbe, 0x10, 0x09, 0xf6, 0x95, 0x0f, 0xf3, 0xfe, 0xf7, 0xfb, 0xbc, 0x4b, 0x28, 0xd3, 0xed,
    0xcb, 0x1e, 0x12, 0x25, 0x81, 0xb4, 0x3d, 0x05, 0x1c, 0x0e, 0xc8, 0xf8, 0xd9, 0x2c, 0x04, 0xe4, 0x50, 0x1b, 0x22,
    0x14, 0x81, 0xfd, 0x8e, 0xe7, 0xf7, 0xff, 0xd1, 0x0a, 0x81, 0x2d, 0xb9, 0x4d, 0xbf, 0xf7, 0x0e, 0x1d, 0xdf, 0xf8,
    0xf4, 0xd4, 0xec, 0x18, 0xfc, 0x15, 0x17, 0x1d, 0x81, 0x23, 0xea, 0xdc, 0x16, 0x15, 0xec, 0x47, 0x8f, 0x00, 0xe0,
    0xe8, 0xf4, 0xef, 0xf6, 0xdd, 0x7f, 0xd2, 0xfe, 0x0f, 0x08, 0xbb, 0xda, 0x19, 0xfe, 0x1b, 0xc3, 0xf7, 0x19, 0x37,
    0x96, 0x0e, 0xc5, 0x56, 0xaa, 0x7f, 0xce, 0xc4, 0x21, 0xe3, 0x27, 0x13, 0xe3, 0xde, 0x46, 0xf2, 0xd4, 0x17, 0xdc,
    0x0b, 0x81, 0x0f, 0xee, 0x17, 0xe4, 0xed, 0xd1, 0x22, 0x7c, 0xf7, 0xdc, 0x29, 0xcd, 0xf7, 0x09, 0xed, 0xfb, 0x02,
    0x93, 0x7f, 0xf4, 0x4c, 0x15, 0xb0, 0x81, 0xdf, 0x12, 0xec, 0xe3, 0x32, 0x0b, 0x27, 0x19, 0x22, 0x0e, 0xd2, 0xcf,
    0xfd, 0x57, 0x34, 0xeb, 0x39, 0xe1, 0x7f, 0xd5, 0xa5, 0x11, 0xc2, 0xf5, 0x67, 0xb6, 0xd8, 0x2e, 0xac, 0xeb, 0xfc,
    0xb7, 0x9a, 0x20, 0xca, 0x16, 0xe0, 0x44, 0xfc, 0x7f, 0x00, 0xc1, 0x08, 0xd1, 0x1f, 0xe0, 0xf7, 0xdb, 0x2c, 0xfd,
    0x26, 0xe9, 0x7f, 0xe4, 0xff, 0xf5, 0x0f, 0x0b, 0xc7, 0x01, 0x3b, 0x2e, 0x3a, 0xf4, 0xe2, 0x7f, 0xbe, 0x0a, 0xdb,
    0x02, 0x70, 0x06, 0xdb, 0xec, 0xb3, 0xde, 0x62, 0xf4, 0x2f, 0x81, 0xee, 0x13, 0xb6, 0x22, 0xe9, 0xf1, 0x46, 0x1a,
    0xe3, 0xa6, 0xdb, 0xd0, 0x19, 0x3b, 0xef, 0xf0, 0x81, 0xd5, 0x25, 0xda, 0x06, 0xa3, 0xfc, 0xe5, 0x0e, 0xfa, 0xf2,
    0xf3, 0x28, 0xe6, 0xc9, 0x60, 0xe6, 0x31, 0xeb, 0xd5, 0x54, 0x1b, 0x1a, 0xe8, 0x44, 0x81, 0x46, 0x05, 0xde, 0x86,
    0x07, 0x02, 0xdb, 0xbd, 0xd4, 0xf4, 0xf9, 0x08, 0x14, 0x24, 0x7f, 0xc6, 0xe9, 0x37, 0x13, 0x0d, 0xdc, 0x0c, 0xfb,
    0x22, 0x0c, 0xe7, 0xfb, 0x13, 0xee, 0x1d, 0x7f, 0xe1, 0xfb, 0xfa, 0x7f, 0xed, 0x55, 0x2c, 0x0d, 0x2f, 0x3d, 0x02,
    0x94, 0xe4, 0xf9, 0xeb, 0xd8, 0x89, 0xdb, 0xee, 0xb9, 0x64, 0xe8, 0x7f, 0x11, 0xc8, 0x02, 0x9f, 0xe3, 0xd1, 0x8f,
    0xc7, 0xe4, 0x22, 0xab, 0x63, 0x04, 0xa6, 0xbf, 0x6b, 0xe1, 0xfc, 0xd9, 0x02, 0xe7, 0x24, 0x04, 0x12, 0x08, 0x81,
    0x11, 0xfd, 0x06, 0x43, 0xcd, 0x81, 0xe5, 0x21, 0x3e, 0x97, 0xfb, 0x08, 0xf0, 0xd0, 0xdc, 0x61, 0xf0, 0x2b, 0x00,
    0x74, 0x08, 0x30, 0x14, 0x09, 0xf4, 0xc7, 0x28, 0x3d, 0x12, 0x5b, 0xb3, 0x24, 0xfb, 0x81, 0x08, 0x7c, 0x33, 0xe1,
    0x0f, 0xb9, 0x03, 0xc9, 0x03, 0xe7, 0x7f, 0xfd, 0xf7, 0xa1, 0xd4, 0x67, 0x76, 0x24, 0x14, 0x20, 0x2f, 0x07, 0x7f,
    0x08, 0xd5, 0xf9, 0xec, 0x47, 0xf6, 0xd1, 0xc2, 0x7b, 0x1d, 0x61, 0xcc, 0xf6, 0x34, 0xcd, 0x25, 0xfb, 0x25, 0x1c,
    0xf6, 0x36, 0x81, 0xf6, 0x0d, 0x01, 0x0b, 0xcd, 0xe1, 0xee, 0x02, 0xe1, 0x4d, 0xcc, 0x7f, 0x1a, 0x90, 0xf1, 0xf6,
    0x5d, 0x8f, 0x0a, 0xf6, 0x29, 0x12, 0xf8, 0x1c, 0xe5, 0x00, 0x17, 0x0f, 0x81, 0xf6, 0x0f, 0x2a, 0xde, 0xfb, 0xdc,
    0x16, 0xe5, 0xd4, 0x81, 0x0b, 0x25, 0xfd, 0x17, 0x72, 0xf8, 0xed, 0x00, 0x37, 0x7f, 0xd5, 0xfb, 0xfc, 0xdc, 0x06,
    0xc0, 0xea, 0x04, 0xd7, 0xc9, 0x4a, 0xce, 0xd3, 0xd2, 0xe6, 0x7f, 0xc3, 0xfb, 0x0b, 0x32, 0xdb, 0xed, 0x22, 0xda,
    0x36, 0xf9, 0x00, 0x81, 0xda, 0x1c, 0xed, 0xcf, 0xf9, 0x4b, 0xf4, 0x31, 0xc8, 0x0c, 0x04, 0xf0, 0x5b, 0x06, 0x81,
    0x48, 0xce, 0x13, 0x04, 0x21, 0xa2, 0xef, 0x56, 0x2e, 0xec, 0x9e, 0x20, 0x01, 0xf7, 0xd1, 0x7d, 0x22, 0xf0, 0x7f,
    0x02, 0x08, 0xd8, 0x01, 0x2d, 0xfd, 0xd2, 0x35, 0xfd, 0xf4, 0xd8, 0xf7, 0xcd, 0xf9, 0xf4, 0xe0, 0x07, 0xcf, 0x81,
    0x15, 0x09, 0xbf, 0x85, 0x42, 0xc8, 0xe5, 0xeb, 0x81, 0xc3, 0x36, 0xed, 0x27, 0x0e, 0x84, 0xe2, 0x02, 0x20, 0xcf,
    0xeb, 0xea, 0x13, 0xc1, 0xe3, 0x37, 0xeb, 0xcb, 0x15, 0xae, 0x81, 0xc9, 0x22, 0x00, 0xd8, 0xfb, 0xcf, 0xfa, 0xe0,
    0x17, 0x44, 0xc7, 0x08, 0xa8, 0x2e, 0xaf, 0x7f, 0xfa, 0x19, 0x8a, 0x46, 0x6a, 0xdd, 0xff, 0x81, 0x22, 0x52, 0x44,
    0xf5, 0xdb, 0xd3, 0x18, 0xf3, 0x11, 0xf6, 0x17,
};
const int32_t bias9[48] = {
    5020,  -4177, 3909, 1733, 3026,  10299, 967,  746,   11057, 3793, -968, 4946, -678,  2674,  4806, 6175,
    -3481, 2456,  -185, 6494, -3667, 1642,  6343, 7854,  -200,  1505, 3341, 1657, 5811,  4,     3093, 728,
    1501,  -1992, 3716, 7171, 3761,  1491,  4147, 12933, 7651,  3374, -124, 4691, -6455, -4298, 3786, 4821,
};
const float scales9[48] = {
    0.008415499786071012,  0.010312832792188151,  0.0057581609479999,    0.00898885845839561,   0.005036379047587132,
    0.0041901450529366405, 0.010639051730520968,  0.009259214635426467,  0.0028760818639168174, 0.005557313328743211,
    0.006819577476214621,  0.0033987926312952846, 0.005498288626504958,  0.007787693284918226,  0.004970402707508445,
    0.004474256816055543,  0.007118788169049946,  0.005356816434670285,  0.007540154698787792,  0.00426777683910935,
    0.005869096586956687,  0.00896500613796505,   0.004336466937856913,  0.0034179035442887485, 0.008293300033322154,
    0.005695643432010484,  0.006078391689970494,  0.011377568275529493,  0.003980531108846686,  0.005472423997773046,
    0.005154438979835021,  0.00664858060072863,   0.0062074152433358575, 0.005978538485551067,  0.005031856317001317,
    0.004092644655024413,  0.005220431863554452,  0.00735029205698481,   0.005351302288813731,  0.0022457858456255975,
    0.004131179907805063,  0.005805567201740703,  0.005715186585217556,  0.006504857872165901,  0.0062125768592478404,
    0.0069021338530464785, 0.0036189015602794694, 0.0062085997680130945,
};
const int32_t shift9[48] = {
    -6, -6, -7, -6, -7, -7, -6, -6, -8, -7, -7, -8, -7, -7, -7, -7, -7, -7, -7, -7, -7, -6, -7, -8,
    -6, -7, -7, -6, -7, -7, -7, -7, -7, -7, -7, -7, -7, -7, -7, -8, -7, -7, -7, -7, -7, -7, -8, -7,
};
const int32_t multiplier9[48] = {
    1156617484, 1417384946, 1582791229, 1235419299, 1384389331, 1151778302, 1462220136, 1272576769,
    1581142726, 1527582656, 1874551183, 1868506009, 1511358069, 2140664830, 1366253893, 1229874349,
    1956797592, 1472470489, 2072621942, 1173117565, 1613284985, 1232141061, 1191998955, 1879012345,
    1139822477, 1565606545, 1670815585, 1563721077, 1094160060, 1504248454, 1416841398, 1827547920,
    1706281310, 1643368145, 1383146132, 1124977597, 1434981384, 2020432896, 1470954773, 1234633825,
    1135570086, 1595822161, 1570978526, 1788041717, 1707700124, 1897244107, 1989512173, 1706606909,
};
const unsigned char CHWweight10[432] = {
    0xc4, 0x81, 0xbd, 0x7b, 0x72, 0x64, 0xb3, 0xa7, 0x95, 0x08, 0xdb, 0x08, 0xd2, 0x7f, 0xdb, 0xfc, 0x00, 0xf8, 0x2f,
    0xc6, 0xba, 0x1a, 0x7f, 0xdc, 0xc5, 0x11, 0x46, 0xeb, 0x81, 0x02, 0x96, 0xff, 0x42, 0x14, 0x61, 0x0a, 0x07, 0x9c,
    0xfd, 0x18, 0x7f, 0x24, 0x07, 0xdb, 0x00, 0xf6, 0xab, 0xd4, 0xe5, 0x81, 0xa4, 0xd6, 0xc8, 0xb5, 0x2a, 0x2f, 0xcc,
    0x7f, 0xd8, 0x9a, 0x01, 0xb1, 0xbc, 0x20, 0xb5, 0x07, 0x45, 0x81, 0x33, 0x0e, 0xbe, 0x06, 0x18, 0xf9, 0x06, 0xd9,
    0x81, 0xc5, 0x1e, 0x33, 0x27, 0x0f, 0x81, 0x23, 0x20, 0x92, 0x29, 0xff, 0xa3, 0x07, 0x24, 0xe8, 0x35, 0x81, 0x4a,
    0x97, 0xf7, 0xd6, 0x1e, 0xf8, 0x5f, 0xf2, 0x13, 0x51, 0x15, 0xda, 0x7f, 0xee, 0xc1, 0x41, 0xc9, 0x17, 0x7f, 0xe8,
    0xcc, 0x4c, 0xc2, 0xc8, 0x04, 0x2e, 0xa1, 0xc8, 0x7f, 0xc3, 0xe2, 0x5c, 0xcf, 0xc9, 0xf4, 0x0f, 0x7f, 0x3a, 0x04,
    0xf9, 0xc9, 0x07, 0x7f, 0x17, 0xd9, 0x1e, 0xd9, 0x04, 0x94, 0xff, 0xe3, 0x44, 0xe3, 0x3b, 0x7f, 0xee, 0x43, 0x56,
    0x61, 0xe8, 0x81, 0x09, 0x42, 0xce, 0x87, 0x18, 0x7d, 0xff, 0xda, 0x81, 0xc1, 0xa2, 0x06, 0x54, 0xf3, 0x67, 0x3f,
    0x21, 0x81, 0xf4, 0xe9, 0xe8, 0x2a, 0x04, 0x7d, 0x2f, 0xff, 0xac, 0xfa, 0x7e, 0x46, 0x7f, 0x36, 0xdc, 0x4d, 0xe3,
    0x81, 0xee, 0x71, 0x11, 0x96, 0x1c, 0x59, 0xd3, 0x00, 0xfc, 0x0c, 0xd6, 0x78, 0xc7, 0x33, 0x81, 0x22, 0x04, 0x47,
    0x0f, 0xe0, 0x81, 0xd6, 0x18, 0x3a, 0x0d, 0xf3, 0xf6, 0xcf, 0xd5, 0x7c, 0x03, 0xd5, 0x70, 0x7f, 0xed, 0x35, 0x3d,
    0x81, 0x24, 0x60, 0xcd, 0x9a, 0xf8, 0xe0, 0xf5, 0xd5, 0xd6, 0x7f, 0xd6, 0xd9, 0xbf, 0xc9, 0x19, 0xd2, 0x09, 0xd2,
    0x7f, 0xee, 0x0c, 0xb1, 0x0b, 0x1f, 0x97, 0x1e, 0xce, 0x7f, 0xde, 0x08, 0x0d, 0x07, 0xff, 0xc8, 0x03, 0xec, 0x7f,
    0xec, 0xfc, 0xe7, 0xff, 0x1c, 0x53, 0x35, 0x58, 0xd5, 0x5e, 0x20, 0x7f, 0x18, 0x00, 0xbf, 0x01, 0xe6, 0x7f, 0xea,
    0x1b, 0xde, 0x1d, 0xb6, 0x7f, 0xae, 0xbf, 0x5a, 0xb3, 0xe1, 0x6c, 0xd8, 0x0b, 0x1a, 0x0d, 0x19, 0x81, 0x0e, 0x12,
    0xeb, 0x06, 0xf8, 0x81, 0xfa, 0xa0, 0x15, 0x9c, 0xc1, 0xa9, 0xc3, 0x17, 0x1b, 0x1c, 0xd0, 0x81, 0xc7, 0x28, 0x27,
    0x1c, 0x16, 0x93, 0xf0, 0x81, 0x01, 0x4b, 0xf0, 0x66, 0x0f, 0x40, 0xfd, 0x1b, 0x78, 0x4d, 0x7f, 0x60, 0x73, 0x53,
    0x00, 0x35, 0x0a, 0xca, 0x81, 0xc0, 0x10, 0x44, 0x03, 0x12, 0xda, 0x10, 0x45, 0x81, 0x2a, 0x22, 0xdb, 0x09, 0x26,
    0xc5, 0x11, 0x47, 0x81, 0xfe, 0x3a, 0xc7, 0xfc, 0x3b, 0x00, 0x99, 0x6c, 0xea, 0x81, 0x2d, 0xbd, 0xae, 0xc7, 0x7f,
    0xd3, 0xa5, 0x70, 0xaf, 0xb0, 0x04, 0xbb, 0x0d, 0x18, 0x23, 0x0d, 0x81, 0xf6, 0x49, 0xfe, 0xfc, 0xa5, 0xb3, 0x9d,
    0xd0, 0xba, 0xca, 0x81, 0x89, 0xbb, 0xfc, 0x14, 0xff, 0x98, 0x7f, 0x99, 0x20, 0x13, 0x19, 0x41, 0xd0, 0x3f, 0xd6,
    0xe6, 0xe3, 0xeb, 0x7f, 0xe2, 0x5b, 0x09, 0xad, 0x1f, 0x81, 0xc5, 0xa8, 0xb9, 0x55,
};
const int32_t offsetBias10[48] = {
    -24704, 2755,  6137,   -7911, 5626,  -53285, -15930, -11116, -8465,  -21312, -9172,  27521,
    3345,   -5165, 2301,   79,    52609, -12241, -10778, 5526,   42435,  -10243, -1445,  -1872,
    23477,  -8285, -23453, -1089, 2617,  2548,   46876,  5847,   -96,    510,    -59082, -5423,
    -6750,  81252, -10624, -1232, -7197, -24350, -22573, 422,    -91209, 2735,   5908,   -21948,
};
const int32_t offsetRBias10[48] = {
    0, 0, 0, 0, 0, 0, 0, 0, 0, 0, 0, 0, 0, 0, 0, 0, 0, 0, 0, 0, 0, 0, 0, 0,
    0, 0, 0, 0, 0, 0, 0, 0, 0, 0, 0, 0, 0, 0, 0, 0, 0, 0, 0, 0, 0, 0, 0, 0,
};
const float scales10[48] = {
    0.005019738943305887,  0.02864396062151864,  0.007850823735327835,  0.007677027052272158, 0.011195317336803155,
    0.005852121537590698,  0.00655173936100413,  0.009311700542686369,  0.022201952348131576, 0.005870471600514379,
    0.006011430573461644,  0.015571337779548462, 0.0068426187941338975, 0.007123310169920307, 0.009068419167288077,
    0.009684566994086883,  0.011702944353890443, 0.006362883639944854,  0.008558417367720738, 0.010450581361635862,
    0.0062805424602229015, 0.006376050067082696, 0.01563479202948094,   0.01325281305080766,  0.01012882742880793,
    0.007776059593531858,  0.009940100881640495, 0.012731230598486413,  0.015275230876849738, 0.01520644054266447,
    0.005479035141455426,  0.015213680487160985, 0.007141555109346423,  0.008470194314959744, 0.007086852099654053,
    0.01235393111634725,   0.008420935228384824, 0.003127485730186188,  0.0083215698607011,   0.017147962152189132,
    0.010588257455764331,  0.006776591152013793, 0.006617829068657852,  0.019367352707358936, 0.007131236714382467,
    0.02349625457309003,   0.017111701915811284, 0.006531392727445882,
};
const int32_t shift10[48] = {
    -7, -5, -6, -7, -6, -7, -7, -6, -5, -7, -7, -6, -7, -7, -6, -6, -6, -7, -6, -6, -7, -7, -5, -6,
    -6, -7, -6, -6, -6, -6, -7, -6, -7, -6, -7, -6, -6, -8, -6, -5, -6, -7, -7, -5, -7, -5, -5, -7,
};
const int32_t multiplier10[48] = {
    1379815334, 1968397986, 1079008998, 2110245128, 1538672699, 1608618919, 1800928402, 1279790378,
    1525706548, 1613662946, 1652409454, 2140108369, 1880884732, 1958040590, 1246354040, 1331036752,
    1608440425, 1749016137, 1176259926, 1436316966, 1726382366, 1752635297, 1074414727, 1821452756,
    1392095442, 2137466985, 1366157063, 1749767010, 2099411746, 2089957274, 1506065712, 2090952325,
    1963055721, 1164134642, 1948019072, 1697911364, 1157364525, 1719353463, 1143707853, 1178398986,
    1455239024, 1862735192, 1819095003, 1330914344, 1960219422, 1614650320, 1175907202, 1795335562,
};
const unsigned char weight11[768] = {
    0x4e, 0x5e, 0x14, 0xa5, 0x31, 0x5f, 0xb1, 0xe0, 0xf6, 0x16, 0x2c, 0x52, 0xb2, 0xa5, 0xe8, 0x9f, 0x6a, 0x15, 0xda,
    0x98, 0x7f, 0x00, 0xce, 0xec, 0x2b, 0x01, 0xc5, 0x0c, 0x23, 0x22, 0xfa, 0xe2, 0x24, 0xfb, 0x68, 0xc5, 0x9c, 0x2f,
    0x1a, 0xd6, 0xf3, 0xb4, 0xf9, 0xe6, 0x0f, 0x35, 0xfc, 0xd7, 0xf2, 0x3b, 0x13, 0xdc, 0x36, 0x0f, 0xb4, 0xbc, 0xe4,
    0x17, 0xfe, 0x08, 0x3a, 0x22, 0x4a, 0x51, 0xd9, 0x17, 0xd0, 0x27, 0xf3, 0x00, 0x96, 0x1a, 0xd0, 0x2a, 0x47, 0xb7,
    0x81, 0x03, 0x28, 0xf5, 0xfc, 0xd4, 0x0a, 0x49, 0xbd, 0x14, 0x1b, 0x05, 0xfe, 0xa6, 0xee, 0x64, 0x36, 0x1d, 0xfe,
    0xb5, 0xb3, 0x98, 0xe2, 0x20, 0x3b, 0xda, 0x24, 0xc1, 0x05, 0xa9, 0x7f, 0xe2, 0x2a, 0x28, 0x01, 0xf8, 0x17, 0xe7,
    0xdb, 0x3c, 0x0d, 0x0b, 0xdc, 0xe2, 0xf4, 0xe8, 0x2f, 0x3a, 0x3e, 0xbb, 0x34, 0x20, 0x52, 0xbb, 0x11, 0x5c, 0x12,
    0x34, 0x15, 0x16, 0xe8, 0xd6, 0xbf, 0x25, 0x6d, 0xda, 0xc8, 0xf9, 0x06, 0x40, 0x24, 0xf0, 0x28, 0x0c, 0xdf, 0x21,
    0x37, 0xef, 0x21, 0x2b, 0x06, 0xfe, 0x0e, 0x25, 0x37, 0x0c, 0xad, 0xf0, 0xfc, 0x07, 0xe1, 0xf6, 0x25, 0x53, 0xf1,
    0xee, 0xf9, 0x4e, 0x4b, 0x81, 0xd2, 0x24, 0xc5, 0xff, 0xeb, 0xe8, 0x18, 0xbc, 0xee, 0xcd, 0xb1, 0x05, 0x29, 0x02,
    0xfa, 0x10, 0xff, 0x36, 0x9e, 0x57, 0x13, 0x13, 0x61, 0xf1, 0xfd, 0xee, 0x0d, 0x0d, 0x1a, 0xfc, 0x2a, 0x0d, 0x2a,
    0x81, 0x3b, 0x2d, 0x25, 0x86, 0xd6, 0xe7, 0xe5, 0xb8, 0xfa, 0xf6, 0xee, 0x14, 0x02, 0xe7, 0xea, 0xdd, 0x09, 0x07,
    0x4c, 0x1e, 0xf5, 0xf7, 0xd1, 0x0a, 0xdd, 0xbd, 0xfc, 0xf8, 0x14, 0x5d, 0x19, 0x3e, 0x8d, 0x43, 0xf9, 0x36, 0x55,
    0x74, 0x3b, 0x77, 0xd8, 0x24, 0x18, 0xed, 0x7f, 0xb7, 0xe4, 0xc0, 0x19, 0xa8, 0x02, 0xa5, 0x9f, 0x35, 0xac, 0xf1,
    0x01, 0xb5, 0xd9, 0x2c, 0xec, 0x05, 0x08, 0x19, 0x00, 0x2e, 0x25, 0xfb, 0x55, 0x35, 0x2d, 0x24, 0x26, 0x04, 0x0c,
    0x35, 0xa2, 0xe6, 0x4c, 0xe6, 0xd9, 0xed, 0x01, 0x3e, 0xea, 0xe9, 0x9b, 0x1c, 0xe8, 0x55, 0xfd, 0xef, 0xca, 0x17,
    0x3a, 0xe5, 0x03, 0x02, 0x7f, 0x12, 0xdb, 0x91, 0xf9, 0xde, 0xd7, 0xf2, 0x69, 0x3a, 0xcd, 0x69, 0xae, 0xd3, 0xb5,
    0xe6, 0x1c, 0xc7, 0x27, 0x19, 0xce, 0xc2, 0x0a, 0xcd, 0xf0, 0x35, 0x5f, 0xc4, 0x9e, 0x19, 0xfc, 0x01, 0xf8, 0x13,
    0x37, 0x1d, 0x09, 0xce, 0xca, 0xec, 0x46, 0x4c, 0xee, 0x33, 0x17, 0x20, 0x1e, 0x07, 0x23, 0x24, 0x19, 0x0a, 0x0b,
    0x23, 0xaa, 0x00, 0x00, 0xf4, 0xcd, 0xe8, 0xde, 0xc1, 0x81, 0xc7, 0x11, 0xea, 0xe8, 0x1f, 0x2d, 0x34, 0xc9, 0xf4,
    0xf4, 0xd8, 0xed, 0xdc, 0x42, 0x26, 0x09, 0x25, 0x45, 0xf5, 0xf3, 0xdb, 0x62, 0x51, 0x2c, 0x37, 0xb1, 0xd0, 0xe4,
    0x02, 0x15, 0xfe, 0x7f, 0xf1, 0xc4, 0x32, 0xe8, 0x0a, 0x11, 0x71, 0xc6, 0x09, 0xba, 0xd3, 0x5c, 0xf9, 0x19, 0xe5,
    0xe5, 0xec, 0x48, 0x03, 0x24, 0xc4, 0xfd, 0x34, 0x04, 0x42, 0xf9, 0xef, 0x2d, 0xe2, 0x3b, 0x12, 0x1c, 0xf8, 0x36,
    0xd9, 0xf1, 0xc6, 0x27, 0xeb, 0xe5, 0xdc, 0xea, 0x9e, 0x50, 0x0d, 0x48, 0xcd, 0x10, 0x20, 0xff, 0xd6, 0xdb, 0x17,
    0xc7, 0xec, 0x05, 0x04, 0xd5, 0xbf, 0x0c, 0xed, 0x1a, 0xdf, 0x1b, 0xd5, 0x07, 0x81, 0x55, 0xd7, 0x27, 0xee, 0xd8,
    0x24, 0xfb, 0xfb, 0xeb, 0x15, 0x36, 0x1a, 0x3e, 0xdd, 0x1b, 0x3b, 0xd9, 0x73, 0xeb, 0x7f, 0x37, 0x7e, 0xdf, 0xde,
    0x4f, 0x23, 0xdd, 0x00, 0xc6, 0xc3, 0x00, 0xe3, 0xd0, 0xb6, 0x39, 0xf9, 0x1d, 0xd5, 0xde, 0xb8, 0xf3, 0xbf, 0xab,
    0xa8, 0xd2, 0xdd, 0xf5, 0xac, 0xfd, 0x47, 0xba, 0x1e, 0x0d, 0x6b, 0x2d, 0xdb, 0x48, 0x2b, 0xca, 0x0c, 0x14, 0x20,
    0x7f, 0x16, 0xb6, 0xba, 0xf6, 0xdd, 0xe2, 0xc7, 0xf8, 0xa5, 0x09, 0x2c, 0x30, 0x0f, 0x0f, 0x18, 0xe6, 0xed, 0x12,
    0x69, 0xec, 0xd5, 0xe2, 0x1e, 0xff, 0xf8, 0xf3, 0x30, 0x34, 0xb0, 0xff, 0x4e, 0xcc, 0x1d, 0x52, 0x9e, 0xaa, 0xb1,
    0xd3, 0x09, 0xfa, 0x38, 0x31, 0xfa, 0xe9, 0xe0, 0xef, 0x0c, 0xfb, 0x2c, 0xff, 0x1b, 0xda, 0x4d, 0x17, 0x3d, 0x1a,
    0xf9, 0xf6, 0xbb, 0xd8, 0xf5, 0x17, 0x25, 0x28, 0x0e, 0xb2, 0xa9, 0xee, 0xdc, 0xe4, 0x7f, 0xda, 0x03, 0xed, 0xc6,
    0x25, 0xe8, 0x1d, 0x21, 0x16, 0x31, 0xd7, 0x3e, 0xd7, 0xec, 0xee, 0xf0, 0xec, 0x15, 0xdc, 0x0f, 0xc9, 0x2e, 0x44,
    0xcb, 0x22, 0x27, 0xf6, 0xe5, 0xad, 0x11, 0x39, 0x19, 0xcf, 0xee, 0x13, 0x39, 0x2a, 0x2e, 0xcf, 0xe3, 0x60, 0x42,
    0xcc, 0xff, 0x49, 0xc4, 0x17, 0x08, 0xb5, 0x7f, 0xa4, 0x2c, 0xbe, 0xf5, 0xe2, 0x23, 0x15, 0xeb, 0x05, 0xec, 0xff,
    0xce, 0xcd, 0x44, 0xf1, 0x16, 0x27, 0x0a, 0xf4, 0x1e, 0x0c, 0x7f, 0xe3, 0x16, 0x14, 0x1b, 0x0a, 0x07, 0x09, 0xf7,
    0x26, 0xf0, 0xfd, 0xf9, 0x1c, 0x35, 0x0f, 0x00, 0xfb, 0x09, 0xf0, 0xf2, 0xfc, 0x47, 0xf8, 0x06, 0xeb, 0x1c, 0x5f,
    0xe3, 0xe8, 0x3d, 0xd9, 0xdf, 0x09, 0x08, 0x04, 0xf6, 0xd8, 0x33, 0xda, 0x2b, 0x2b, 0xee, 0xe3, 0xff, 0x4e, 0x2e,
    0xb8, 0xf1, 0x05, 0x51, 0xe9, 0xfa, 0xd9, 0xeb, 0xc1, 0x7f, 0x39, 0x1e, 0xf1, 0xc8, 0x21, 0xdf, 0xc2, 0xbf, 0x0e,
    0xd7, 0x0b, 0xf6, 0xf8, 0x01, 0xd9, 0xcb, 0xf5, 0x06, 0x3b, 0x07, 0x73, 0x10, 0x22, 0x12, 0xc3, 0x11, 0xd8, 0xdd,
    0x4e, 0xf9, 0xe9, 0x0d, 0x1d, 0x3d, 0x9a, 0xd1,
};
const int32_t bias11[16] = {
    -6713, -2446, -1301, -3878, 152, -7273, 1485, 6724, -1454, 5014, 6296, -273, 1578, -6714, -5265, -5242,
};
const float scales11[16] = {
    0.002846558447292433,  0.002097558574233785,  0.002762523178260419,  0.0020109464254651926,
    0.003416663733135984,  0.0024081390632805745, 0.0016293290489915579, 0.005132153993590177,
    0.0011708201471815147, 0.001217777559598961,  0.0020653889754136193, 0.004089803587459643,
    0.0011363983035299948, 0.001822544974417044,  0.0026163324778770256, 0.003928512980024786,
};
const int32_t shift11[16] = {
    -8, -8, -8, -8, -8, -8, -9, -7, -9, -9, -8, -7, -9, -9, -8, -7,
};
const int32_t multiplier11[16] = {
    1564912056, 1153145021, 1518713178, 1105529489, 1878330751, 1323888451, 1791466235, 1410715748,
    1287330366, 1338960587, 1135459597, 1124196650, 1249483149, 2003909392, 1438343991, 1079861425,
};
const unsigned char weight12[768] = {
    0xff, 0x34, 0x15, 0xff, 0xfd, 0xff, 0xf2, 0xfe, 0xfc, 0x57, 0xb7, 0xfd, 0x81, 0xdd, 0xe8, 0x3c, 0xfe, 0xee, 0x7f,
    0x37, 0xe1, 0xff, 0x23, 0x08, 0xbf, 0xf8, 0x62, 0x0f, 0xf6, 0x97, 0x67, 0x06, 0x00, 0x81, 0xd7, 0x05, 0xd3, 0xf9,
    0x32, 0xa9, 0x04, 0x44, 0x2a, 0x1d, 0xe6, 0xbd, 0x03, 0x71, 0xed, 0x7f, 0x31, 0xe5, 0x1b, 0xa4, 0x07, 0x8e, 0x34,
    0xae, 0x9f, 0xd9, 0x81, 0xc7, 0x17, 0xec, 0x14, 0x08, 0x1b, 0x10, 0xff, 0xc4, 0x36, 0xec, 0x0e, 0x4e, 0x95, 0xe8,
    0x7f, 0xbc, 0xee, 0x01, 0x07, 0xef, 0xd2, 0xe6, 0x03, 0x02, 0x2b, 0x05, 0x0d, 0xd6, 0x2d, 0x81, 0x11, 0xfb, 0x05,
    0xf7, 0x14, 0xe3, 0xa6, 0x69, 0xdc, 0x09, 0xfa, 0xbe, 0x81, 0xfd, 0xd4, 0xfd, 0xfb, 0x8f, 0x64, 0xf7, 0x01, 0x3e,
    0xfa, 0x24, 0x15, 0xf9, 0x25, 0xe2, 0x01, 0x2e, 0xb1, 0x7f, 0x1e, 0x0a, 0xda, 0xce, 0x0a, 0x81, 0x0a, 0x50, 0xbe,
    0x2d, 0x8e, 0xd2, 0xf5, 0x39, 0xf9, 0xf4, 0x5b, 0xc9, 0xe8, 0xf7, 0x02, 0xed, 0x13, 0xca, 0xef, 0xfc, 0x0a, 0xeb,
    0x05, 0x06, 0xf7, 0x03, 0x0c, 0x0b, 0x7f, 0xfb, 0x10, 0xed, 0xf6, 0x15, 0x04, 0x03, 0xf0, 0xf4, 0x18, 0x7f, 0x09,
    0x4c, 0x81, 0xfd, 0x15, 0xc5, 0xf3, 0xc1, 0xf9, 0xf6, 0xe3, 0x04, 0x09, 0xec, 0x0a, 0x81, 0xec, 0x18, 0x28, 0xd8,
    0x01, 0xfa, 0x21, 0x2d, 0xf5, 0x0c, 0x81, 0xe4, 0x12, 0x0e, 0x05, 0xe7, 0xfe, 0xf3, 0xf1, 0x18, 0xfd, 0xd2, 0x4e,
    0xdf, 0x0a, 0xfc, 0x30, 0xc8, 0x67, 0x1c, 0x08, 0xca, 0xa1, 0x1a, 0xd0, 0xbb, 0xcf, 0x7f, 0x45, 0xff, 0xe8, 0x81,
    0x07, 0xff, 0xd8, 0x07, 0x42, 0x05, 0x17, 0x10, 0x06, 0xc8, 0xe3, 0xfc, 0xf6, 0x48, 0xc9, 0xde, 0x0f, 0xd0, 0x7f,
    0xea, 0x03, 0x2b, 0x2b, 0x3c, 0x1f, 0xbb, 0xf5, 0x63, 0xf1, 0x81, 0x03, 0xec, 0xc1, 0x36, 0x30, 0xec, 0x02, 0x4f,
    0xe6, 0xef, 0x90, 0xcc, 0xe1, 0xd5, 0xc4, 0xc1, 0x01, 0xc9, 0xe4, 0x10, 0x01, 0xd3, 0x68, 0x0c, 0xc4, 0xe9, 0x06,
    0x7f, 0xe6, 0x19, 0xfa, 0xee, 0xf0, 0x4e, 0xf4, 0x0c, 0xde, 0xe9, 0x7f, 0x0c, 0x08, 0xfa, 0x15, 0xcf, 0x47, 0x16,
    0x81, 0x39, 0xa6, 0xaa, 0xdb, 0x08, 0x3f, 0x72, 0xf2, 0x2b, 0xef, 0x1f, 0x11, 0x20, 0x27, 0xfd, 0x0a, 0xa8, 0x07,
    0xfb, 0x22, 0x81, 0xe2, 0xe3, 0x02, 0xf6, 0x13, 0xf2, 0xef, 0x09, 0x08, 0xf8, 0x48, 0x08, 0xc6, 0xc6, 0x05, 0xe9,
    0xd5, 0xfc, 0xde, 0xff, 0x16, 0x0f, 0x01, 0x81, 0x1d, 0xd1, 0xe0, 0x24, 0xe6, 0xdc, 0xeb, 0xef, 0xe7, 0xa5, 0x0f,
    0x32, 0x3a, 0xf3, 0x7f, 0xf6, 0xeb, 0xc0, 0x14, 0x0f, 0xee, 0x24, 0xff, 0xff, 0x17, 0xe1, 0x7f, 0xfa, 0xf4, 0xfb,
    0xf8, 0xc3, 0x54, 0xf7, 0x24, 0x14, 0xc1, 0x0d, 0x3d, 0xf3, 0x7f, 0x21, 0x01, 0xbb, 0x1c, 0x25, 0xa0, 0xfe, 0xf6,
    0xd5, 0xbc, 0xe9, 0x04, 0x7f, 0xf9, 0xfc, 0x35, 0xfa, 0xe9, 0xf2, 0xea, 0xfb, 0xf9, 0x38, 0x0d, 0x0f, 0xc9, 0xdf,
    0xe1, 0x1f, 0x00, 0xf3, 0x32, 0xe7, 0x07, 0xff, 0xee, 0xf0, 0x1a, 0x7f, 0x0c, 0xb7, 0xf5, 0x02, 0xfb, 0x0b, 0xea,
    0x29, 0xf8, 0xe4, 0xf5, 0x9c, 0xdd, 0x05, 0x81, 0xee, 0xf8, 0xfd, 0xfa, 0x16, 0xe9, 0xe7, 0x03, 0xfe, 0x17, 0xeb,
    0xf8, 0x81, 0x0e, 0xed, 0x51, 0xf1, 0xfb, 0xfe, 0x0a, 0xd0, 0xf7, 0xdc, 0xf6, 0x02, 0xfb, 0xe9, 0x81, 0x0c, 0xde,
    0x0c, 0x04, 0x34, 0xd7, 0xfe, 0x9a, 0xe4, 0x31, 0xe1, 0x94, 0x01, 0xbe, 0x8a, 0xc1, 0x5d, 0xa4, 0xac, 0x7f, 0xf0,
    0x22, 0x91, 0x18, 0xfb, 0x16, 0xea, 0xf5, 0x11, 0x1f, 0x84, 0xfd, 0x0a, 0x7f, 0xee, 0x11, 0x03, 0xeb, 0x21, 0xc6,
    0xd1, 0x02, 0xe4, 0x7f, 0xfc, 0x05, 0xed, 0xff, 0xf3, 0x06, 0xfa, 0xf0, 0xe5, 0x05, 0xe2, 0x06, 0xf9, 0xeb, 0xed,
    0x22, 0xc3, 0x06, 0xef, 0xfe, 0x81, 0xfa, 0xe6, 0x18, 0xf8, 0x13, 0x18, 0xdf, 0xe3, 0xb1, 0x7f, 0xe9, 0x1b, 0x8f,
    0x8c, 0xe8, 0x20, 0xc0, 0xd1, 0x26, 0x64, 0x21, 0xfd, 0xf4, 0x5e, 0xf9, 0xf4, 0xdc, 0x7f, 0x1d, 0x00, 0x06, 0xcf,
    0x07, 0xf9, 0x0d, 0xdd, 0xf9, 0x00, 0xee, 0x21, 0x81, 0x4e, 0x3d, 0xd6, 0x3a, 0x28, 0xc9, 0x18, 0xba, 0x1b, 0xb8,
    0x2e, 0x9e, 0x5f, 0xe3, 0xf4, 0xf9, 0xef, 0xdd, 0x14, 0xfd, 0xf7, 0x09, 0x95, 0x02, 0xad, 0x7f, 0xe6, 0xf2, 0xd3,
    0x0e, 0xda, 0x4c, 0xd0, 0xc5, 0x12, 0x89, 0xca, 0xe2, 0x1e, 0x5f, 0x09, 0x12, 0x81, 0xcc, 0xcc, 0xf7, 0x81, 0x07,
    0x08, 0x09, 0x9a, 0xe3, 0xeb, 0x0a, 0xfc, 0x0a, 0xfa, 0xee, 0xfa, 0x03, 0xfb, 0xfe, 0x08, 0x1a, 0x91, 0x06, 0xed,
    0x34, 0xca, 0x7f, 0xde, 0xea, 0x02, 0xcd, 0x33, 0xda, 0x13, 0xf2, 0x18, 0x39, 0xf3, 0x1f, 0x18, 0x81, 0x22, 0x3b,
    0xde, 0x15, 0x1d, 0xa6, 0x4c, 0x05, 0x58, 0xf6, 0xd8, 0x18, 0x1f, 0xf2, 0x04, 0xfa, 0xf9, 0x15, 0x65, 0xec, 0x48,
    0x81, 0xfe, 0xfa, 0xc7, 0xb7, 0xe4, 0x3a, 0x3f, 0xd3, 0x17, 0x81, 0xb5, 0xef, 0xfe, 0xb6, 0xe9, 0x09, 0x7a, 0x54,
    0x36, 0xc7, 0x28, 0x2b, 0xb4, 0xbf, 0x01, 0x83, 0xe5, 0xf2, 0x2e, 0xa8, 0xff, 0x18, 0x81, 0xf7, 0x7d, 0x0b, 0xed,
    0x09, 0x0e, 0x1b, 0xcb, 0xf0, 0xe9, 0xf8, 0x28, 0xf9, 0x0b, 0x81, 0x00, 0x03, 0x0c, 0x18, 0xf4, 0xe8, 0xb9, 0xda,
    0x21, 0x81, 0xc3, 0x1e, 0xfa, 0x2e, 0x00, 0x08, 0xbd, 0xfa, 0xc8, 0x04, 0x19, 0x0e, 0x66, 0xf0, 0xfc, 0x1b, 0xb1,
    0x7f, 0x05, 0xea, 0xf7, 0x09, 0x93, 0x62, 0xf5,
};
const int32_t bias12[48] = {
    -497, 216,   2859,  8691, 1664,  208,   -1221, 1235,  -1170, 585,   -1145, 1860,  -13,   -636,  -708,  -349,
    6178, 920,   -4093, 2177, -865,  -1293, -56,   -1975, 104,   216,   -816,  -1179, -224,  1483,  271,   -1257,
    -68,  -2760, -1737, 330,  -1411, 1163,  -872,  840,   -445,  -1613, 1556,  -5791, -3552, -1723, -4033, -1736,
};
const float scales12[48] = {
    0.008876792696670275,  0.007303281324476844,  0.006220063724850809, 0.003935529015526259,  0.00961703076626167,
    0.009230000800357135,  0.0070110568519381475, 0.00819508971736137,  0.005288554693476911,  0.01334785109932732,
    0.007228609371301666,  0.00971655988794587,   0.03076618470051019,  0.006228004266765789,  0.009016275129278281,
    0.007556359173904954,  0.00524150170136256,   0.006499973005067662, 0.008143953062356863,  0.004582037002912313,
    0.011336988596151558,  0.008010970731679,     0.007044347998489233, 0.008634596330607138,  0.006616267564102346,
    0.00961466351550298,   0.005993418104475888,  0.012305663257328353, 0.010105586380299555,  0.010728184720805724,
    0.0038341524855509384, 0.007952153455993297,  0.0268734613984514,   0.011808443256983395,  0.00479721450494641,
    0.011127786175866215,  0.004980658834517982,  0.006806963281879401, 0.0048265809444216256, 0.010228447316001282,
    0.006925608005217169,  0.005369364308614803,  0.006123321766516136, 0.004666690552790477,  0.006178863102667666,
    0.012697480537431239,  0.006665601339154587,  0.005833540139357909,
};
const int32_t shift12[48] = {
    -6, -7, -7, -7, -6, -6, -7, -6, -7, -6, -7, -6, -5, -7, -6, -7, -7, -7, -6, -7, -6, -6, -7, -6,
    -7, -6, -7, -6, -6, -6, -8, -6, -5, -6, -7, -6, -7, -7, -7, -6, -7, -7, -7, -7, -7, -6, -7, -7,
};
const int32_t multiplier12[48] = {
    1220017098, 2007510684, 1709758098, 1081789979, 1321754644, 1268561651, 1927184633, 1126324554,
    1453706845, 1834514686, 1986985014, 1335433822, 2114236114, 1711940777, 1239187418, 2077076194,
    1440773017, 1786698975, 1119296386, 1259500741, 1558143848, 1101019434, 1936335634, 1186729883,
    1818665780, 1321429292, 1647458224, 1691277480, 1388901216, 1474470481, 2107847620, 1092935649,
    1846730205, 1622940083, 1318648282, 1529391286, 1369073076, 1871083820, 1326720468, 1405787095,
    1903696633, 1475919623, 1683165871, 1282770132, 1698432957, 1745128437, 1832226545, 1603511304,
};
const unsigned char CHWweight13[2352] = {
    0xff, 0xf9, 0x0b, 0x10, 0x08, 0xfc, 0xff, 0xf9, 0xf8, 0x05, 0x13, 0x06, 0xf6, 0xf5, 0x01, 0xfa, 0xde, 0xd5, 0xd3,
    0xf1, 0xfb, 0x07, 0x04, 0xbe, 0x81, 0x97, 0xe2, 0x0a, 0x0a, 0x08, 0xd3, 0x9e, 0xac, 0xe4, 0x0c, 0xfb, 0xfe, 0x00,
    0xec, 0xe6, 0xfe, 0x07, 0x01, 0xfc, 0xfc, 0x03, 0x02, 0xfb, 0x02, 0x05, 0x08, 0xfc, 0xf4, 0xfa, 0x00, 0x03, 0x03,
    0x05, 0xfb, 0xfe, 0x02, 0x02, 0x05, 0xfd, 0xf7, 0x22, 0x48, 0x33, 0x06, 0xfb, 0xf6, 0xfc, 0x45, 0x7f, 0x64, 0x19,
    0xf4, 0xfd, 0x02, 0x2d, 0x5a, 0x4c, 0x14, 0x00, 0x03, 0x01, 0x06, 0x11, 0x0f, 0x05, 0x04, 0xfd, 0x02, 0xff, 0xf7,
    0x01, 0x01, 0xfd, 0x04, 0x08, 0xfa, 0xf6, 0xfb, 0x01, 0xfd, 0x06, 0x09, 0xfc, 0xf1, 0x02, 0x05, 0x07, 0xf9, 0x02,
    0x20, 0x3b, 0x2e, 0x0e, 0x01, 0xf7, 0xf9, 0x44, 0x7f, 0x63, 0x16, 0xf4, 0xfb, 0x03, 0x30, 0x67, 0x4a, 0x11, 0xfb,
    0xfb, 0x04, 0x08, 0x1b, 0x1d, 0x00, 0x03, 0x07, 0x01, 0xfb, 0xf6, 0xf7, 0xfe, 0x07, 0x04, 0x03, 0xfa, 0xfb, 0xf6,
    0x04, 0x07, 0x09, 0x05, 0xff, 0xf8, 0xff, 0x02, 0x06, 0xfb, 0xfd, 0x18, 0x3b, 0x22, 0xff, 0xfc, 0xf8, 0xf7, 0x39,
    0x7f, 0x61, 0x17, 0xf9, 0xfe, 0xf8, 0x27, 0x60, 0x45, 0x12, 0xf9, 0x04, 0xfb, 0x08, 0x10, 0x0f, 0xfa, 0xff, 0x00,
    0x08, 0xfe, 0xf3, 0xfd, 0x0a, 0xfd, 0x00, 0x02, 0x00, 0xf9, 0xfb, 0x01, 0xff, 0x05, 0xfe, 0xfa, 0xfc, 0x03, 0xfb,
    0x02, 0xff, 0xfd, 0x1d, 0x45, 0x2c, 0x0b, 0x02, 0xf7, 0xff, 0x42, 0x7f, 0x6c, 0x1b, 0xf5, 0xfd, 0xf6, 0x2d, 0x67,
    0x52, 0x19, 0xf8, 0xff, 0x00, 0x0a, 0x1a, 0x12, 0x07, 0x03, 0xfe, 0x01, 0x00, 0xf9, 0x02, 0xff, 0xfc, 0x01, 0x09,
    0xfc, 0xf8, 0xfc, 0x00, 0x00, 0x02, 0xff, 0xf5, 0xfe, 0x06, 0x00, 0x00, 0xfd, 0xfa, 0x1c, 0x3f, 0x2a, 0x06, 0x00,
    0xf8, 0xff, 0x38, 0x7f, 0x5d, 0x14, 0xfd, 0xff, 0xff, 0x32, 0x5a, 0x4b, 0x15, 0xfb, 0x01, 0xf9, 0x08, 0x13, 0x15,
    0x03, 0xfd, 0xfd, 0x05, 0xfb, 0xfc, 0x00, 0xfe, 0xff, 0x03, 0x04, 0xfe, 0xf4, 0xfe, 0x01, 0x01, 0x04, 0x04, 0xf8,
    0xfc, 0xfe, 0x03, 0x05, 0xfd, 0xfb, 0x1f, 0x48, 0x32, 0x09, 0x00, 0xf6, 0xfa, 0x47, 0x7f, 0x65, 0x16, 0xf9, 0xfb,
    0xff, 0x31, 0x5e, 0x4f, 0x15, 0xfa, 0x02, 0x03, 0x05, 0x11, 0x15, 0x07, 0xfe, 0xff, 0x00, 0x02, 0xfb, 0xfd, 0xff,
    0x01, 0x01, 0xf6, 0x06, 0x0e, 0x06, 0xfc, 0xff, 0xfe, 0xfc, 0x03, 0xff, 0x02, 0xf8, 0xfc, 0x05, 0x05, 0xdb, 0xb9,
    0xc2, 0xf5, 0x00, 0x08, 0x04, 0xc6, 0x81, 0x95, 0xe8, 0x08, 0x03, 0xfe, 0xe1, 0xb2, 0xb7, 0xe3, 0x03, 0xff, 0x02,
    0xfc, 0xf2, 0xf1, 0xfd, 0xfd, 0xfe, 0x00, 0x03, 0x00, 0x04, 0x01, 0x00, 0xff, 0x00, 0x01, 0xf5, 0xfa, 0x03, 0xfe,
    0x07, 0xfb, 0xf7, 0xff, 0x00, 0xfe, 0x01, 0xfa, 0xf9, 0x24, 0x4a, 0x3b, 0x0c, 0xfb, 0xfb, 0x01, 0x47, 0x7f, 0x69,
    0x19, 0xf8, 0xf8, 0x04, 0x2f, 0x53, 0x46, 0x15, 0xfe, 0xff, 0xfd, 0x0a, 0x08, 0x0c, 0x0a, 0x05, 0x00, 0x02, 0xf9,
    0xf8, 0x00, 0xfc, 0x00, 0x01, 0x03, 0xfc, 0xfd, 0xfd, 0x05, 0xfe, 0x04, 0xfc, 0xff, 0x00, 0x02, 0x00, 0x01, 0xfb,
    0xf5, 0x22, 0x44, 0x33, 0x05, 0xfc, 0xfb, 0xf9, 0x3d, 0x7f, 0x68, 0x13, 0xfb, 0xfa, 0xfd, 0x2e, 0x67, 0x5b, 0x14,
    0xfc, 0x02, 0x03, 0x06, 0x12, 0x12, 0x04, 0x01, 0x03, 0x05, 0xfb, 0xf8, 0xfb, 0x01, 0x01, 0x01, 0x01, 0xfb, 0xf7,
    0x00, 0x00, 0x01, 0x05, 0xfe, 0xfd, 0xfa, 0xfd, 0x01, 0x01, 0x01, 0xfc, 0x1a, 0x39, 0x25, 0x04, 0xff, 0xfe, 0xf8,
    0x31, 0x7f, 0x5e, 0x08, 0xf9, 0x01, 0xff, 0x21, 0x5b, 0x3e, 0x19, 0xfc, 0x02, 0x01, 0x02, 0x10, 0x13, 0x08, 0x00,
    0x00, 0x01, 0xfe, 0xf9, 0xfd, 0x02, 0xff, 0x00, 0x04, 0xfd, 0xff, 0x00, 0xff, 0x00, 0x02, 0xfe, 0xfa, 0xfb, 0x01,
    0xfd, 0x03, 0xfd, 0xfd, 0x1c, 0x36, 0x26, 0x0b, 0xfa, 0xfb, 0xfc, 0x38, 0x7f, 0x56, 0x0e, 0xfb, 0xff, 0x03, 0x29,
    0x57, 0x3f, 0x11, 0x01, 0xfd, 0xfe, 0x05, 0x12, 0x16, 0xff, 0xfd, 0xfe, 0x04, 0xfe, 0xfa, 0x02, 0xff, 0xff, 0x00,
    0x06, 0xfa, 0xfb, 0xfd, 0x08, 0xfb, 0xfe, 0xfb, 0xfd, 0x02, 0x04, 0xfc, 0x01, 0xf8, 0xfc, 0x2f, 0x3e, 0x21, 0x03,
    0x02, 0xfe, 0xf6, 0x52, 0x7f, 0x4d, 0x09, 0xfe, 0xf6, 0xf8, 0x37, 0x65, 0x47, 0x10, 0x00, 0x01, 0xf8, 0x08, 0x18,
    0x18, 0x06, 0xfe, 0xff, 0x06, 0x00, 0xfd, 0x02, 0xfc, 0xfd, 0x00, 0x09, 0xfc, 0xf7, 0xfc, 0xff, 0x01, 0x00, 0x01,
    0xf8, 0xf8, 0xfa, 0xfc, 0x00, 0xfe, 0xfc, 0x15, 0x3a, 0x2b, 0x0a, 0xfc, 0xfb, 0xfe, 0x3f, 0x7f, 0x6a, 0x16, 0xfa,
    0x01, 0xfd, 0x37, 0x66, 0x58, 0x1f, 0xfe, 0x01, 0xfd, 0x07, 0x12, 0x1b, 0x0e, 0x02, 0xff, 0x01, 0xfc, 0xfb, 0xfc,
    0xfe, 0xfb, 0xff, 0x03, 0x00, 0xf8, 0xf0, 0x02, 0x03, 0x07, 0xff, 0xf0, 0xf2, 0xf7, 0xfe, 0x07, 0x03, 0x07, 0x17,
    0x28, 0x24, 0x13, 0xfe, 0xf4, 0x07, 0x4b, 0x7f, 0x69, 0x17, 0xfa, 0xf7, 0xf9, 0x3f, 0x71, 0x5d, 0x19, 0xf9, 0x02,
    0xfa, 0x0e, 0x1f, 0x20, 0x0d, 0xfb, 0x02, 0x06, 0xfd, 0xf5, 0xf8, 0x00, 0x00, 0xfc, 0xfb, 0x04, 0x08, 0x04, 0xfe,
    0xf9, 0xfb, 0x06, 0x00, 0xfd, 0xfc, 0xfe, 0x05, 0x01, 0x00, 0xe4, 0xc2, 0xcc, 0xf4, 0xfe, 0x0a, 0xff, 0xba, 0x81,
    0x9e, 0xe2, 0x06, 0xff, 0xff, 0xce, 0x9f, 0xb2, 0xe7, 0x05, 0x01, 0x02, 0x00, 0xe6, 0xe0, 0xfb, 0x04, 0x00, 0x02,
    0x03, 0x04, 0x02, 0xff, 0x00, 0xfa, 0x04, 0xfe, 0x00, 0xfc, 0xfe, 0xfe, 0x06, 0xff, 0xfa, 0xfd, 0x03, 0x04, 0x08,
    0xfd, 0xf9, 0x1f, 0x3f, 0x2b, 0x03, 0x04, 0xf7, 0xf6, 0x3a, 0x7f, 0x61, 0x09, 0xf5, 0xfe, 0xff, 0x29, 0x52, 0x3c,
    0x17, 0xfb, 0x02, 0x0c, 0xff, 0x08, 0x0c, 0x04, 0x04, 0x05, 0x01, 0xfe, 0xf5, 0xfc, 0x01, 0x02, 0xfd, 0x01, 0xfb,
    0xf5, 0xfe, 0xfa, 0x03, 0x04, 0x00, 0x01, 0x02, 0x05, 0x00, 0x00, 0xfe, 0x03, 0x28, 0x45, 0x37, 0x0d, 0xff, 0xf7,
    0xfd, 0x49, 0x7f, 0x5f, 0x16, 0xf6, 0xff, 0xff, 0x33, 0x61, 0x4c, 0x18, 0xff, 0xfe, 0x06, 0x06, 0x11, 0x14, 0x06,
    0x02, 0x01, 0x02, 0x01, 0xfa, 0xfb, 0x02, 0xfe, 0x00, 0x03, 0x01, 0xfc, 0xf7, 0x01, 0x00, 0x02, 0x09, 0xfc, 0xee,
    0xf7, 0x07, 0x0d, 0x00, 0xf9, 0x1b, 0x36, 0x2e, 0x0d, 0xfd, 0xf4, 0xf6, 0x3c, 0x7f, 0x64, 0x15, 0xf7, 0xfc, 0xfd,
    0x2a, 0x61, 0x56, 0x12, 0xff, 0x06, 0xf9, 0x02, 0x13, 0x17, 0x03, 0x00, 0xfd, 0x01, 0xff, 0xf9, 0xf9, 0xfe, 0xff,
    0xff, 0x03, 0x00, 0x07, 0x06, 0x01, 0xfe, 0xff, 0xfe, 0x01, 0x0f, 0x04, 0xf8, 0xfc, 0x00, 0xfd, 0xe6, 0xdd, 0xda,
    0xee, 0x06, 0x10, 0xfd, 0xb7, 0x81, 0xa1, 0xf0, 0x07, 0x03, 0xfd, 0xcb, 0xa0, 0xa7, 0xe3, 0x01, 0xfe, 0x00, 0xf5,
    0xe6, 0xf0, 0xf0, 0x03, 0x04, 0xff, 0xfb, 0x0f, 0xff, 0xfd, 0xfe, 0x04, 0x09, 0xf7, 0xf2, 0xf9, 0x02, 0x09, 0x02,
    0x0d, 0xff, 0xf4, 0xf6, 0x05, 0x05, 0xff, 0xfd, 0x21, 0x44, 0x34, 0x0f, 0xfb, 0x01, 0xfc, 0x35, 0x7f, 0x7a, 0x28,
    0xf4, 0xf9, 0xf5, 0x1f, 0x61, 0x60, 0x19, 0xfe, 0xfe, 0x07, 0x07, 0x0a, 0x12, 0x0b, 0xfb, 0x05, 0x02, 0x03, 0xf9,
    0xf7, 0x03, 0x03, 0x06, 0x09, 0x01, 0xf5, 0xf4, 0x0b, 0x08, 0x05, 0x09, 0xf9, 0xee, 0xf6, 0xff, 0x07, 0xf7, 0xfb,
    0x25, 0x31, 0x2e, 0x0f, 0xf9, 0xf3, 0xfb, 0x47, 0x7f, 0x69, 0x1d, 0xfb, 0xfc, 0xf8, 0x37, 0x6e, 0x63, 0x17, 0xf4,
    0x05, 0xf8, 0x0a, 0x1e, 0x1b, 0x02, 0xfb, 0xfe, 0x09, 0xfa, 0xf4, 0xff, 0xfd, 0x02, 0x04, 0x09, 0xfd, 0xf6, 0xfb,
    0xff, 0x02, 0x05, 0x07, 0xfa, 0xf4, 0x05, 0x07, 0xff, 0xfc, 0x00, 0x1d, 0x29, 0x1e, 0x0e, 0x02, 0xf3, 0xfa, 0x47,
    0x7f, 0x5d, 0x14, 0xfc, 0xf5, 0x03, 0x3a, 0x73, 0x5a, 0x17, 0xfa, 0xfd, 0xfe, 0x0a, 0x1c, 0x24, 0x07, 0x00, 0xff,
    0xff, 0x01, 0x01, 0x02, 0x00, 0xf9, 0xfe, 0xff, 0x02, 0x09, 0x03, 0x02, 0xfa, 0xfd, 0x07, 0x0e, 0xfc, 0x03, 0x00,
    0x00, 0xfe, 0xff, 0xda, 0xbc, 0xc6, 0xf9, 0xfe, 0x0e, 0xff, 0xaa, 0x81, 0x8e, 0xe2, 0x07, 0x08, 0x00, 0xca, 0x99,
    0x92, 0xe1, 0x07, 0xf8, 0xff, 0xf9, 0xf3, 0xe6, 0xee, 0xfc, 0xfd, 0x01, 0x04, 0x0c, 0x08, 0xf9, 0xff, 0x01, 0x00,
    0x03, 0x06, 0x03, 0xfb, 0x02, 0xfb, 0xfc, 0x09, 0x10, 0x0a, 0xfe, 0xfe, 0xff, 0xff, 0xe6, 0xd7, 0xda, 0xf6, 0xfa,
    0x0f, 0xff, 0xbd, 0x81, 0xa2, 0xe6, 0x05, 0x0b, 0x03, 0xc2, 0x90, 0xa0, 0xe2, 0x05, 0x00, 0x03, 0xf4, 0xde, 0xd8,
    0xf5, 0x02, 0xff, 0x00, 0xfb, 0x07, 0x07, 0xfd, 0xfa, 0xff, 0x05, 0xfe, 0xf9, 0xfb, 0x01, 0xff, 0x01, 0xfd, 0x01,
    0x06, 0x06, 0xfd, 0x02, 0xfe, 0xfc, 0x29, 0x4e, 0x3b, 0x0b, 0xfe, 0xfc, 0x03, 0x42, 0x7f, 0x5a, 0x1a, 0xfb, 0xfa,
    0x06, 0x24, 0x4a, 0x3a, 0x14, 0xfd, 0x01, 0x01, 0x04, 0x07, 0x0f, 0x04, 0x04, 0x00, 0xff, 0xfc, 0xf9, 0x01, 0x01,
    0xfd, 0x02, 0x00, 0x00, 0x04, 0xfc, 0xfb, 0x03, 0x00, 0x03, 0x09, 0x00, 0x01, 0x04, 0xfa, 0xfe, 0xfa, 0xe9, 0xc2,
    0xd8, 0xf2, 0xf9, 0x06, 0x03, 0xc9, 0x81, 0x9e, 0xf2, 0x07, 0x07, 0x07, 0xd5, 0xa1, 0xb1, 0xe6, 0x08, 0x02, 0x03,
    0xf1, 0xed, 0xe8, 0xf9, 0x06, 0xff, 0xfa, 0xff, 0x08, 0xfe, 0x07, 0x01, 0x05, 0x0b, 0xf7, 0xf4, 0xf4, 0x00, 0x01,
    0x03, 0xfc, 0x02, 0xfd, 0x02, 0x06, 0x09, 0xfd, 0xfc, 0x30, 0x33, 0x33, 0x17, 0x03, 0xf5, 0xf6, 0x3a, 0x7f, 0x67,
    0x0f, 0xef, 0xfc, 0xf6, 0x26, 0x6b, 0x57, 0x0c, 0xf2, 0xfb, 0x06, 0x13, 0x10, 0x13, 0x0b, 0xfd, 0x02, 0x05, 0x01,
    0xf6, 0x01, 0x03, 0x04, 0xf6, 0xff, 0x05, 0x0b, 0x03, 0xfb, 0xf9, 0xf8, 0xfb, 0x0c, 0x01, 0xf6, 0xff, 0xff, 0x04,
    0xfb, 0xdf, 0xc6, 0xca, 0xff, 0xff, 0x0b, 0xff, 0xb4, 0x81, 0x97, 0xe2, 0x0f, 0x09, 0x03, 0xd0, 0x90, 0x98, 0xde,
    0x01, 0xf9, 0x03, 0x05, 0xf0, 0xe1, 0xf4, 0xfe, 0x02, 0xf6, 0x0a, 0x07, 0x0d, 0x02, 0xfb, 0x03, 0x00, 0xfb, 0xf7,
    0xff, 0x01, 0xfe, 0x03, 0xfb, 0xfe, 0xfc, 0xff, 0x01, 0x01, 0x03, 0xfd, 0x1e, 0x3f, 0x2b, 0x0a, 0x00, 0xf7, 0xfe,
    0x37, 0x7f, 0x62, 0x0e, 0xf9, 0xf9, 0xfe, 0x2a, 0x5c, 0x46, 0x13, 0xfe, 0x00, 0xfc, 0x06, 0x0e, 0x10, 0x07, 0xfe,
    0xff, 0x06, 0xff, 0xf5, 0xff, 0x01, 0x01, 0xff, 0xfd, 0x05, 0x02, 0x04, 0x05, 0xfe, 0x00, 0xf7, 0x01, 0xf4, 0xfe,
    0xff, 0x01, 0x00, 0x04, 0xd8, 0xb5, 0xcd, 0xf5, 0x02, 0x03, 0x03, 0xbe, 0x81, 0x94, 0xe3, 0x02, 0x01, 0xff, 0xd4,
    0x99, 0xab, 0xf1, 0x06, 0x05, 0xfe, 0x01, 0xe1, 0xe3, 0xfc, 0x08, 0x03, 0xf9, 0x05, 0xfa, 0x01, 0x03, 0xfa, 0x04,
    0xfc, 0xff, 0x07, 0x02, 0xf9, 0x01, 0xf9, 0x03, 0xfe, 0xf8, 0xf5, 0xf7, 0xfe, 0x0b, 0x0b, 0xd9, 0xb9, 0xbe, 0xfe,
    0x04, 0x0d, 0xf8, 0xb6, 0x81, 0xa9, 0xdc, 0x04, 0x02, 0xfb, 0xd1, 0xa9, 0xc0, 0xdc, 0xfc, 0x02, 0x01, 0xfd, 0xf4,
    0xf2, 0xfc, 0xff, 0xfa, 0xfc, 0x0d, 0x08, 0x06, 0xfe, 0xfc, 0xfd, 0x04, 0xff, 0xfc, 0x00, 0xff, 0x03, 0x01, 0x00,
    0xfe, 0xf3, 0xfc, 0x02, 0x01, 0xfa, 0xfc, 0x21, 0x36, 0x24, 0x07, 0xfd, 0xfc, 0x03, 0x4c, 0x7f, 0x4f, 0x0e, 0xfc,
    0xf7, 0x02, 0x3e, 0x69, 0x47, 0x07, 0x00, 0xfd, 0xf9, 0x07, 0x27, 0x14, 0xfa, 0xff, 0x08, 0x03, 0xfb, 0xfa, 0x01,
    0x01, 0x04, 0xfd, 0x0a, 0x02, 0xf5, 0xff, 0x05, 0x02, 0x01, 0x00, 0xf2, 0xf2, 0x02, 0x04, 0x02, 0xff, 0xfb, 0x0e,
    0x29, 0x24, 0xfe, 0xfe, 0xfb, 0xf3, 0x34, 0x7f, 0x56, 0x04, 0xf3, 0xff, 0xfe, 0x32, 0x6e, 0x4a, 0x17, 0xff, 0xf5,
    0x09, 0x10, 0x21, 0x23, 0x0e, 0xfc, 0xfe, 0xfe, 0x08, 0x04, 0x08, 0xfc, 0xf5, 0x03, 0xfd, 0x07, 0x09, 0x03, 0xff,
    0x0c, 0x02, 0x0d, 0x02, 0xf8, 0xfc, 0xfc, 0x00, 0x05, 0x00, 0xdd, 0xbb, 0xc1, 0xf6, 0xfc, 0x02, 0xf7, 0xbf, 0x81,
    0x9d, 0xe3, 0xfc, 0x05, 0xfd, 0xd5, 0x97, 0xb3, 0xed, 0x03, 0xfc, 0x08, 0x02, 0xe7, 0xdf, 0xf8, 0xff, 0xfb, 0x00,
    0xfe, 0xff, 0xff, 0x01, 0x04, 0xf9, 0x05, 0xfd, 0xf9, 0x02, 0x09, 0xfc, 0x03, 0xf7, 0xfd, 0xff, 0xff, 0xf6, 0x00,
    0xfc, 0xfc, 0x1e, 0x43, 0x2a, 0x08, 0xff, 0xfd, 0x09, 0x3d, 0x7f, 0x5c, 0x19, 0xfd, 0x04, 0xfa, 0x27, 0x57, 0x4f,
    0x16, 0xfa, 0x01, 0xf6, 0x04, 0x09, 0x15, 0x08, 0x00, 0xfb, 0x02, 0x00, 0xfe, 0x01, 0xfe, 0xfd, 0xff, 0xfc, 0xfb,
    0x03, 0x00, 0xfe, 0x08, 0x01, 0x16, 0x00, 0xe8, 0xf9, 0x04, 0xff, 0x11, 0x17, 0xe2, 0xa2, 0xc4, 0xfd, 0x02, 0x00,
    0xf5, 0xb1, 0x81, 0x89, 0xd4, 0x00, 0xf8, 0xe5, 0xc2, 0xae, 0xa9, 0xd8, 0xf6, 0xf8, 0xf9, 0xf3, 0xf5, 0xec, 0xf1,
    0x04, 0xff, 0x00, 0xff, 0x03, 0x0b, 0xfe, 0xfb, 0x07, 0xfd, 0x00, 0x06, 0x09, 0xfc, 0x06, 0xfa, 0x02, 0xfe, 0xfe,
    0x05, 0xfe, 0x04, 0x09, 0xfc, 0xc4, 0xb7, 0xc5, 0xe1, 0xfe, 0x0b, 0xeb, 0xa0, 0x8d, 0x81, 0xc7, 0xfc, 0x02, 0xfb,
    0xbb, 0xaf, 0xa0, 0xd2, 0x06, 0xf7, 0xf4, 0xf9, 0xea, 0xee, 0xfe, 0xf7, 0x00, 0x02, 0x06, 0x05, 0x06, 0x08, 0x07,
    0xfb, 0x0b, 0x03, 0x10, 0x09, 0x07, 0xfb, 0x02, 0x05, 0x02, 0xec, 0xef, 0x0b, 0x05, 0xff, 0xfa, 0xdd, 0xb2, 0xba,
    0xf0, 0x03, 0x06, 0xe8, 0x9f, 0x8a, 0x81, 0xb7, 0x03, 0xfd, 0xf6, 0xb5, 0x8c, 0x93, 0xc2, 0xf9, 0xf3, 0xfa, 0xfd,
    0xdb, 0xe1, 0xfd, 0xf7, 0x00, 0x06, 0x0b, 0x00, 0x0a, 0x00, 0xfb, 0xf9, 0x04, 0x00, 0x01, 0x06, 0xfe, 0x04, 0x03,
    0xff, 0xfe, 0xfa, 0xf9, 0xfc, 0xfc, 0x02, 0xf8, 0xcc, 0xc9, 0xc5, 0xe3, 0xff, 0x07, 0xfc, 0xa6, 0x81, 0x8d, 0xcf,
    0x05, 0xf4, 0xfa, 0xcc, 0x8f, 0xa0, 0xe6, 0x06, 0xff, 0xfe, 0x08, 0xdd, 0xd5, 0xfa, 0xfe, 0x02, 0x04, 0x00, 0x01,
    0x05, 0x01, 0xff, 0xfd, 0xfe, 0x02, 0x02, 0xf7, 0xfb, 0x01, 0xfe, 0xf4, 0xfa, 0xf5, 0xec, 0xf7, 0x00, 0x0f, 0x05,
    0xce, 0xb2, 0xb6, 0xfb, 0x09, 0x04, 0x07, 0xa5, 0x81, 0x95, 0xdb, 0x0a, 0x0b, 0xfa, 0xb8, 0xa3, 0x9f, 0xda, 0x0d,
    0xfd, 0x05, 0xf0, 0xe3, 0xd1, 0xeb, 0x01, 0x03, 0xff, 0x03, 0x03, 0xfe, 0xfc, 0xfc, 0xfb, 0xfd, 0xfd, 0xf5, 0xf8,
    0x03, 0x07, 0xfe, 0xf7, 0xea, 0x09, 0x0d, 0xfe, 0xf6, 0x03, 0x05, 0x30, 0x5c, 0x51, 0x1c, 0xf2, 0xf8, 0x0f, 0x49,
    0x7f, 0x77, 0x37, 0xf8, 0x06, 0x06, 0x47, 0x52, 0x3c, 0x19, 0x0d, 0x07, 0xf7, 0x0b, 0x04, 0x15, 0xf7, 0x07, 0x00,
    0x03, 0xf5, 0xf6, 0xee, 0x02, 0xeb, 0x03, 0xf2, 0x04, 0x07, 0x01, 0xff, 0x03, 0x07, 0xff, 0xea, 0xed, 0xfb, 0xec,
    0xfc, 0x02, 0x01, 0xc3, 0xa7, 0xa6, 0xf6, 0x05, 0x06, 0xed, 0xb3, 0x8f, 0x91, 0xd9, 0x07, 0x07, 0x0c, 0xb8, 0x81,
    0x90, 0xe4, 0x10, 0x03, 0x0b, 0xf2, 0xce, 0xcd, 0x02, 0x04, 0x06, 0x00, 0xf7, 0x02, 0x02, 0x01, 0x03, 0x03, 0x02,
    0xfa, 0xf0, 0xf5, 0x02, 0xfc, 0x0c, 0x08, 0xfa, 0xea, 0xf0, 0xf2, 0x06, 0xfc, 0xf1, 0x1a, 0x2e, 0x2f, 0x13, 0x07,
    0xf8, 0x10, 0x3d, 0x7f, 0x5e, 0x26, 0x01, 0xf9, 0xf9, 0x2c, 0x6f, 0x4f, 0x15, 0xf8, 0x00, 0xed, 0x04, 0x1f, 0x1d,
    0xf5, 0xf4, 0x07, 0xfc, 0xfa, 0xf7, 0xfa, 0x04, 0xff, 0x01, 0x05, 0xf7, 0xef, 0xf7, 0x03, 0x03, 0xfd, 0x08, 0xff,
    0x0c, 0x14, 0x0a, 0x05, 0xfe, 0xf5, 0x47, 0x6e, 0x51, 0x11, 0xf9, 0xf5, 0xfb, 0x4d, 0x7f, 0x65, 0x25, 0x02, 0x00,
    0xfc, 0x2d, 0x54, 0x43, 0x1d, 0xf8, 0x01, 0x03, 0xfc, 0x08, 0x11, 0x04, 0xf9, 0xf8, 0xfb, 0xff, 0xfa, 0xf7, 0xfc,
    0x00, 0xfd, 0x05, 0x01, 0x00, 0xfe, 0xf8, 0xfa, 0x00, 0x06, 0x07, 0xf8, 0x07, 0x03, 0x09, 0x04, 0xff, 0x20, 0x2d,
    0x1f, 0x11, 0x0f, 0xf1, 0xfe, 0x43, 0x7f, 0x6e, 0x21, 0x08, 0x03, 0x0c, 0x35, 0x5f, 0x53, 0x26, 0x06, 0x07, 0xfb,
    0x05, 0x1a, 0x23, 0x07, 0xfa, 0xfe, 0xf8, 0xfe, 0xfd, 0xf7, 0x03, 0xfe, 0x00, 0x05, 0xfd, 0xf8, 0xfe, 0x02, 0x04,
    0xfb, 0x07, 0xfd, 0xf6, 0xfc, 0xff, 0x0d, 0x00, 0xf9, 0x1c, 0x37, 0x32, 0x13, 0xfa, 0xf4, 0xf3, 0x43, 0x7f, 0x68,
    0x21, 0xf3, 0x04, 0x01, 0x2f, 0x60, 0x55, 0x12, 0xfb, 0xfb, 0x00, 0x08, 0x0d, 0x1c, 0x04, 0xfb, 0xfa, 0xfc, 0xfe,
    0xfc, 0xfc, 0x02, 0xfc, 0x03, 0x01, 0x03, 0x0c, 0x05, 0xfb, 0xfe, 0x04, 0x00, 0xec, 0xeb, 0xf7, 0x00, 0x06, 0x05,
    0xfc, 0xc3, 0xa7, 0xc3, 0xf2, 0x00, 0xfa, 0xe9, 0xa1, 0x81, 0x8a, 0xcd, 0xf8, 0x01, 0x08, 0xce, 0x9a, 0x9c, 0xf6,
    0x0e, 0x06, 0x06, 0x0a, 0xcc, 0xdd, 0x0d, 0x0a, 0x02, 0xfb, 0x04, 0xfc, 0x01, 0x02, 0xf7,
};
const int32_t offsetBias13[48] = {
    -67207,  91653,   91577,   76630,   92422,   84639,  93037,   -59039, 89229,  93180,  78161,  77481,
    89004,   90728,   94838,   -77859,  77483,   96644,  84804,   -70914, 97818,  95306,  95637,  -95500,
    -76848,  87129,   -76441,  91712,   -86489,  81239,  -93091,  -83478, 88365,  83187,  -90586, 82486,
    -102995, -109013, -128076, -105479, -113708, 104224, -118920, 80923,  104467, 104565, 88921,  -118136,
};
const int32_t offsetRBias13[48] = {
    0, 0, 0, 0, 0, 0, 0, 0, 0, 0, 0, 0, 0, 0, 0, 0, 0, 0, 0, 0, 0, 0, 0, 0,
    0, 0, 0, 0, 0, 0, 0, 0, 0, 0, 0, 0, 0, 0, 0, 0, 0, 0, 0, 0, 0, 0, 0, 0,
};
const float scales13[48] = {
    0.0040309252217411995, 0.003467799862846732,  0.003312597516924143,  0.0032006825786083937, 0.003062367904931307,
    0.0037570337299257517, 0.003830213798210025,  0.0031669444870203733, 0.004588381387293339,  0.0029281091410666704,
    0.004850716330111027,  0.003783628810197115,  0.0016171449096873403, 0.0061298091895878315, 0.003210396971553564,
    0.004691179376095533,  0.0036066644825041294, 0.0033505603205412626, 0.0055529652163386345, 0.0038779317401349545,
    0.0038983856793493032, 0.00402472959831357,   0.004310016520321369,  0.0038492411840707064, 0.004356812685728073,
    0.004042602144181728,  0.005842816084623337,  0.006449305452406406,  0.0035802191123366356, 0.0034322128631174564,
    0.006119742523878813,  0.004831884987652302,  0.001876533729955554,  0.010407841764390469,  0.0057308305986225605,
    0.004176428075879812,  0.004615216050297022,  0.0046745711006224155, 0.005401033442467451,  0.0028289728797972202,
    0.0031285646837204695, 0.004491157364100218,  0.0037794571835547686, 0.012900694273412228,  0.0075474814511835575,
    0.009365883655846119,  0.0077409506775438786, 0.006051219999790192,
};
const int32_t shift13[48] = {
    -7, -8, -8, -8, -8, -8, -8, -8, -7, -8, -7, -8, -9, -7, -8, -7, -8, -8, -7, -8, -8, -7, -7, -8,
    -7, -7, -7, -7, -8, -8, -7, -7, -9, -6, -7, -7, -7, -7, -7, -8, -8, -7, -8, -6, -7, -6, -7, -7,
};
const int32_t multiplier13[48] = {
    1108012288, 1906443136, 1821119744, 1759593856, 1683554560, 2065451136, 2105682304, 1741046144,
    1261244672, 1609745024, 1333354752, 2080071936, 1778069632, 1684949120, 1764934400, 1289501568,
    1982784768, 1841990016, 1526387456, 2131915520, 2143160192, 1106309248, 1184728320, 2116142720,
    1197591552, 1111222016, 1606061056, 1772771584, 1968246272, 1886878976, 1682182016, 1328178432,
    2063270656, 1430442880, 1575278720, 1148007808, 1268620928, 1284936320, 1484624768, 1555244288,
    1719946624, 1234519936, 2077778560, 1773057920, 2074635904, 1287237248, 2127816320, 1663346688,
};
const unsigned char weight14[1152] = {
    0x31, 0xa2, 0x2c, 0xfb, 0xe5, 0xb4, 0xef, 0xdf, 0xdd, 0xf7, 0x10, 0x29, 0x6e, 0x27, 0xee, 0x18, 0x21, 0xa0, 0x69,
    0xd7, 0xea, 0x0d, 0x42, 0xbb, 0x15, 0x19, 0x20, 0xf5, 0x0d, 0x0d, 0xe5, 0x02, 0x81, 0x19, 0xda, 0x1b, 0xcf, 0x08,
    0xf7, 0x2a, 0x4f, 0x09, 0xe8, 0xfb, 0xd4, 0x0e, 0xf8, 0xb5, 0x1f, 0xeb, 0xcd, 0xd0, 0x3d, 0x13, 0x1c, 0xa9, 0x35,
    0xf3, 0x00, 0x1e, 0xe2, 0x09, 0x03, 0x42, 0x0f, 0x92, 0x97, 0x35, 0xc7, 0x42, 0x11, 0x36, 0x0a, 0x30, 0x53, 0x1e,
    0xf9, 0xf3, 0x04, 0xfb, 0x0f, 0xef, 0x45, 0x03, 0xb8, 0xe4, 0x81, 0x23, 0x17, 0x13, 0xef, 0xd0, 0x07, 0xfe, 0x67,
    0x28, 0x0d, 0x7f, 0xd2, 0xf6, 0xef, 0xf2, 0x43, 0x0e, 0xf1, 0x78, 0x04, 0x09, 0xfb, 0xf0, 0xcc, 0x17, 0xef, 0xd0,
    0xef, 0xfd, 0xf2, 0x31, 0x0f, 0xd7, 0xf6, 0x13, 0x21, 0x06, 0xff, 0x12, 0x02, 0xea, 0xfb, 0x04, 0x1b, 0x04, 0xf6,
    0xfe, 0xf6, 0x10, 0x04, 0xfd, 0x09, 0x02, 0x03, 0x0f, 0xff, 0xb7, 0x59, 0x35, 0x0c, 0x7f, 0x0e, 0xc0, 0x0d, 0x03,
    0xd7, 0xb4, 0xab, 0x16, 0xf5, 0xd1, 0xac, 0xad, 0x6b, 0xe1, 0xef, 0xda, 0xd3, 0x1f, 0xfb, 0x25, 0x96, 0x9e, 0xfb,
    0xd6, 0xf4, 0xe7, 0xb4, 0x75, 0xd5, 0xf0, 0x0b, 0xe9, 0xf3, 0xba, 0xda, 0xe0, 0xcb, 0xb7, 0xf0, 0xf7, 0x50, 0xfc,
    0xfb, 0x05, 0xb7, 0xd0, 0xc8, 0x04, 0xd1, 0x90, 0x25, 0xf7, 0x2a, 0xf5, 0xd2, 0x1e, 0xc0, 0x18, 0xc1, 0x3c, 0x2d,
    0xe1, 0x14, 0xb3, 0x1c, 0x16, 0x7f, 0x20, 0x0e, 0xc0, 0xfa, 0xf6, 0xfa, 0xe2, 0x06, 0xa7, 0x22, 0xf4, 0x1d, 0x05,
    0xf9, 0xfc, 0x2d, 0xcf, 0x03, 0x23, 0xfa, 0xea, 0xc6, 0x09, 0xec, 0xe2, 0x31, 0x08, 0x57, 0x3c, 0xe3, 0xf3, 0xee,
    0x81, 0x0f, 0xf3, 0x0e, 0x14, 0xd2, 0xc8, 0xe3, 0xd7, 0xbe, 0xdf, 0x01, 0xf6, 0xce, 0xcb, 0xed, 0xfa, 0xe6, 0xf2,
    0x1b, 0x1b, 0xfa, 0x12, 0x26, 0xc6, 0xd0, 0x0a, 0x32, 0x45, 0x1b, 0x0f, 0x06, 0x2b, 0x32, 0x0b, 0xe0, 0xf7, 0x21,
    0xf8, 0xfd, 0x19, 0x3c, 0xba, 0xe5, 0x13, 0x43, 0x0a, 0x50, 0xc0, 0x03, 0x25, 0xdd, 0xf6, 0xe0, 0x06, 0xd3, 0x08,
    0x00, 0x34, 0xf1, 0xe5, 0xcc, 0xa7, 0x07, 0xfd, 0x12, 0x7f, 0xf4, 0xe0, 0x2d, 0xd7, 0xed, 0x10, 0xf2, 0xda, 0x03,
    0x13, 0xe8, 0xf9, 0x05, 0x15, 0xe5, 0x03, 0x03, 0xda, 0x00, 0xdd, 0x1e, 0xf5, 0xd7, 0xeb, 0x3e, 0xf9, 0x7f, 0xbc,
    0xe3, 0xe0, 0xad, 0x0a, 0x63, 0xca, 0xe3, 0xd4, 0x02, 0x57, 0x29, 0x04, 0xc1, 0x42, 0x1c, 0xec, 0x3f, 0xef, 0xc5,
    0x25, 0x40, 0x34, 0xce, 0xd2, 0x28, 0xd8, 0x23, 0x52, 0xfb, 0x05, 0x5a, 0x1a, 0x4f, 0x37, 0x0d, 0x0a, 0xc4, 0x22,
    0x07, 0x4a, 0xa6, 0x15, 0xcf, 0x18, 0xbe, 0xd8, 0x23, 0x0a, 0x0b, 0xcf, 0xdf, 0xd8, 0x6b, 0x22, 0x7a, 0xc7, 0xf7,
    0xd8, 0xbc, 0x0b, 0xeb, 0xe8, 0x3a, 0xe9, 0xc4, 0xeb, 0x7f, 0xf1, 0xba, 0x05, 0xb9, 0x02, 0x47, 0x11, 0x0a, 0x13,
    0x2b, 0x17, 0xfc, 0xfc, 0xfc, 0xea, 0x08, 0x2b, 0xa7, 0xca, 0x33, 0xeb, 0x01, 0xf5, 0x21, 0x1a, 0x15, 0x2f, 0xf4,
    0xe3, 0x30, 0x3f, 0x02, 0x81, 0x32, 0xc9, 0xe0, 0x1c, 0x16, 0x22, 0xd2, 0x1e, 0x0b, 0x2b, 0xce, 0x06, 0x35, 0xce,
    0x33, 0x2f, 0x0f, 0x1b, 0xf3, 0x28, 0x2b, 0x32, 0xd1, 0x28, 0x42, 0x04, 0x13, 0x14, 0xe4, 0x18, 0xeb, 0xe4, 0x03,
    0xb8, 0x2b, 0x1b, 0xd4, 0x13, 0x19, 0x03, 0xeb, 0x46, 0x15, 0x1f, 0x16, 0x08, 0x1c, 0xdd, 0xba, 0xd4, 0x12, 0x81,
    0x0a, 0xa1, 0x0a, 0x07, 0xfd, 0xe3, 0x27, 0x13, 0xb6, 0x09, 0x3c, 0x03, 0x2f, 0x17, 0x32, 0x02, 0x14, 0xc7, 0x0f,
    0x11, 0x0d, 0x01, 0xda, 0x0f, 0x16, 0xfc, 0xf6, 0xf8, 0x25, 0xf1, 0xbf, 0x3f, 0xf7, 0x10, 0xe2, 0xba, 0x14, 0xf3,
    0xfe, 0x00, 0x7f, 0x19, 0x0a, 0x00, 0x01, 0xef, 0x12, 0xfa, 0x05, 0xdd, 0xfa, 0xbd, 0xd1, 0xe6, 0x0d, 0x03, 0x06,
    0x16, 0xfc, 0xf0, 0xe8, 0xf6, 0xf3, 0xff, 0x01, 0x05, 0x06, 0x12, 0xdf, 0x01, 0x2b, 0x18, 0x1a, 0xec, 0xfa, 0xfe,
    0x06, 0x0c, 0x1b, 0x05, 0xf2, 0x0f, 0xf1, 0xf0, 0x3b, 0xdc, 0x0c, 0xab, 0xd9, 0xf5, 0xf9, 0x7f, 0x07, 0xfc, 0xaa,
    0x09, 0xf9, 0xef, 0xe2, 0xfb, 0xbc, 0xd0, 0x19, 0x19, 0xcd, 0x44, 0xf1, 0xec, 0xcd, 0x2d, 0x0f, 0xfb, 0x53, 0x33,
    0xba, 0xec, 0x2f, 0x08, 0x0e, 0x0d, 0xf9, 0x03, 0x1d, 0x3c, 0xf6, 0xfb, 0xfe, 0xf1, 0x16, 0x18, 0x01, 0xf7, 0xe9,
    0xf6, 0xf0, 0xf0, 0xf5, 0x04, 0xdc, 0x19, 0x04, 0xff, 0xfe, 0xf0, 0xf8, 0xff, 0xf6, 0x08, 0xde, 0xf4, 0xff, 0xe6,
    0x09, 0x2d, 0xff, 0x0f, 0x17, 0x0e, 0x05, 0x7f, 0xff, 0xf1, 0xfe, 0x06, 0x04, 0x08, 0x0c, 0x01, 0x0a, 0x0a, 0xf9,
    0x08, 0xf5, 0x0f, 0x07, 0x08, 0xfa, 0x1b, 0xfb, 0x1e, 0xe3, 0xbf, 0xeb, 0xf4, 0x52, 0xbe, 0x2c, 0xda, 0x1b, 0x3a,
    0xfe, 0x4d, 0xec, 0xe0, 0xc9, 0x16, 0x19, 0x81, 0x25, 0x04, 0xfe, 0xe1, 0x06, 0xf9, 0x00, 0xe0, 0xeb, 0xfc, 0x43,
    0x33, 0x0a, 0xf0, 0xe2, 0xc7, 0x0f, 0x38, 0xcf, 0x1c, 0xd9, 0xfa, 0x2c, 0x00, 0x99, 0xef, 0x50, 0xde, 0x68, 0x20,
    0x1b, 0xe3, 0x3e, 0x96, 0xc9, 0x0b, 0x50, 0x0e, 0xf0, 0x05, 0x42, 0x09, 0xdd, 0xdd, 0x09, 0xf6, 0xf4, 0x21, 0x4f,
    0x19, 0xe3, 0x1a, 0x07, 0x4f, 0xf9, 0xd0, 0x4d, 0x0b, 0xe1, 0xf7, 0x39, 0xd5, 0x1f, 0x9a, 0xfb, 0x7f, 0xe5, 0x93,
    0x17, 0x0a, 0x1d, 0xec, 0x17, 0xfa, 0x00, 0xf5, 0xa1, 0x81, 0x00, 0x0e, 0x03, 0x10, 0xe8, 0x5c, 0x24, 0x41, 0xb9,
    0xdb, 0x0b, 0xc7, 0xed, 0x30, 0xfa, 0xea, 0x6a, 0xfe, 0x23, 0xf8, 0xf4, 0x83, 0xaa, 0x10, 0x44, 0x42, 0x15, 0x16,
    0x1d, 0x04, 0x08, 0x0d, 0x2c, 0xc2, 0xd7, 0x07, 0xf2, 0xf5, 0x01, 0x13, 0x3a, 0xd1, 0x54, 0x04, 0x2a, 0xc8, 0xc3,
    0x38, 0xed, 0xe8, 0x28, 0x2b, 0xe6, 0xff, 0x1f, 0xba, 0xe5, 0xd8, 0xee, 0xfb, 0x81, 0x01, 0x0c, 0xd5, 0x0d, 0x0b,
    0xed, 0x47, 0xe3, 0xf1, 0xf7, 0x3d, 0xd6, 0x09, 0x03, 0x12, 0x00, 0xf2, 0xeb, 0x05, 0xe7, 0x18, 0x25, 0xef, 0x23,
    0x15, 0x50, 0x31, 0x0b, 0x1f, 0x0c, 0xf3, 0xd9, 0x0a, 0xfa, 0x0c, 0x26, 0x81, 0xb1, 0xb9, 0x03, 0x26, 0x5f, 0xf5,
    0x1b, 0x27, 0xf5, 0xc0, 0xe5, 0xf8, 0xe6, 0x45, 0x03, 0xe1, 0xf4, 0xd8, 0x24, 0xe2, 0xdf, 0x13, 0xf6, 0x2d, 0xb3,
    0xd8, 0xdd, 0xe9, 0x0f, 0x56, 0xf8, 0x15, 0xd3, 0xcc, 0x03, 0xfc, 0xe5, 0x27, 0xe7, 0x20, 0x0d, 0x3d, 0x03, 0xf0,
    0xfc, 0xf4, 0x03, 0xae, 0x5d, 0x29, 0xc1, 0x06, 0x13, 0x3e, 0x1d, 0x81, 0xfa, 0xe8, 0x2c, 0xce, 0xe0, 0x00, 0x0b,
    0xd6, 0xf3, 0x29, 0x39, 0xf9, 0x06, 0xee, 0x0f, 0xa8, 0xf0, 0x0c, 0xcf, 0xee, 0xed, 0x26, 0x1a, 0x1c, 0xf6, 0xe6,
    0xf3, 0x2e, 0xea, 0xe1, 0xf0, 0x08, 0xfc, 0x24, 0xf3, 0x08, 0x60, 0xd0, 0x81, 0x06, 0x19, 0xb3, 0xf1, 0xbf, 0x50,
    0x0e, 0xf6, 0x3c, 0xc6, 0xde, 0x53, 0xed, 0xe8, 0xee, 0x30, 0x19, 0xc3, 0x5d, 0xbb, 0xed, 0x0c, 0xd0, 0xc8, 0x2a,
    0x4c, 0x15, 0xe7, 0x1f, 0xf0, 0xed, 0x9e, 0x20, 0x3b, 0x16, 0x37, 0xf8, 0xe7, 0x36, 0x03, 0x45, 0x18, 0xfb, 0xbb,
    0xee, 0xf0, 0x09, 0x13, 0xcb, 0xf4, 0x0b, 0x16, 0xfc, 0x0b, 0x01, 0xf8, 0xf0, 0xec, 0xea, 0x15, 0x10, 0x7f, 0x04,
    0x14, 0x00, 0xe2, 0x09, 0xef, 0xfa, 0x18, 0xf6, 0xf4, 0x18, 0x2a, 0x04, 0x11, 0x09, 0xee, 0xd7, 0xff, 0x03, 0x03,
    0x1c, 0xf3, 0xff, 0xf6, 0x11, 0xf5, 0xf5, 0x07, 0xd9, 0x04, 0xe8, 0x14, 0xf9, 0x37, 0xc7, 0x53, 0x17, 0xfa, 0x19,
    0xd7, 0xfe, 0xc6, 0x7f, 0xea, 0xda, 0x1c, 0x22, 0x10, 0xf4, 0xfe, 0x06, 0xfe, 0x17, 0x0e, 0xf9, 0x28, 0x0a, 0x12,
    0xf1, 0xd9, 0x15, 0x3a, 0xfc, 0xf5, 0xd5, 0x08, 0xdf, 0x1e, 0xd3, 0x0f, 0xf5, 0xf5, 0x1a, 0x42, 0xf1, 0x05, 0xfb,
    0xcd, 0xeb, 0x1d, 0xd8, 0x15, 0x07, 0xe7, 0xfe, 0xef, 0xfc, 0xca, 0xf4, 0x28, 0x07, 0xb1, 0x0f, 0xf7, 0xd1, 0xf2,
    0xcb, 0x39, 0xdb, 0x14, 0xfb, 0xec, 0xd3, 0x35, 0x01, 0xe5, 0xe5, 0xec, 0x19, 0xff, 0x2b, 0x7f, 0x10, 0xf6, 0x0f,
    0xe4, 0x06, 0xe5, 0xfd, 0x2a, 0xf4, 0xdd, 0xe9, 0xfe, 0x01, 0x10, 0xd7,
};
const int32_t bias14[24] = {
    41,   -7174, -4093, 5818,   13799, 9478, -1541, -10915, 11660, -20665, 734,    4692,
    3270, -4093, 12073, -16105, 5079,  6501, 17158, 11028,  1810,  -5681,  -14196, 4874,
};
const float scales14[24] = {
    0.002256291393400997,  0.001972138281968303,  0.0025228563129043448, 0.0019166528463787046, 0.0025663900697293156,
    0.002646234422835362,  0.0026158068698950016, 0.002036551582184972,  0.002550262135060749,  0.001825965505848815,
    0.002501198116104658,  0.0041967390893089575, 0.0019151901585387255, 0.004058640523678953,  0.0015929799060569816,
    0.0021757577974789604, 0.0023536588336363897, 0.002916205451861861,  0.002285986994776568,  0.0025713277913740444,
    0.002264665085970476,  0.003917261717805796,  0.002709429829260049,  0.0032251542906157967,
};
const int32_t shift14[24] = {
    -8, -8, -8, -9, -8, -8, -8, -8, -8, -9, -8, -7, -9, -7, -9, -8, -8, -8, -8, -8, -8, -7, -8, -8,
};
const int32_t multiplier14[24] = {
    1240409311, 1084194486, 1386954926, 2107382091, 1410887862, 1454782759, 1438055035, 1119606073,
    1402021436, 2007670306, 1375048206, 1153590857, 2105773849, 1115630612, 1751499930, 1196135499,
    1293937628, 1603200902, 1256734641, 1413602403, 1245012798, 1076768702, 1489524801, 1773047322,
};
const unsigned char weight15[3456] = {
    0x45, 0xe1, 0xea, 0x18, 0x0d, 0x3b, 0x3a, 0x19, 0xe4, 0x01, 0xff, 0x32, 0xe5, 0xd9, 0xfd, 0x4d, 0xc4, 0xec, 0xf8,
    0x60, 0xb5, 0x23, 0x7f, 0x38, 0xd9, 0x7f, 0xe3, 0xdb, 0x1b, 0xfc, 0xde, 0xb3, 0xfd, 0x33, 0xcc, 0x0f, 0x43, 0xda,
    0x27, 0x15, 0x22, 0xe9, 0x48, 0x4f, 0x10, 0x3b, 0x19, 0xc9, 0x17, 0x06, 0xe5, 0x0c, 0x09, 0x21, 0x1b, 0x5a, 0x1d,
    0x09, 0x00, 0xe5, 0x16, 0x1c, 0xeb, 0x36, 0xaf, 0xcd, 0xd3, 0x02, 0x32, 0x19, 0x81, 0x0a, 0x62, 0xf5, 0xfe, 0x09,
    0xf5, 0x20, 0xf8, 0xd1, 0x52, 0x01, 0xf6, 0x12, 0xd6, 0x05, 0x07, 0x0b, 0x02, 0xfb, 0xf5, 0x16, 0xf5, 0x12, 0xfb,
    0x81, 0x93, 0x25, 0xff, 0xef, 0x3d, 0x37, 0x11, 0x0c, 0xee, 0xf0, 0xe4, 0x07, 0xbf, 0xfe, 0x09, 0x10, 0x07, 0xfe,
    0x0a, 0xff, 0x1c, 0x2e, 0x04, 0x7f, 0x2b, 0x37, 0xd4, 0x79, 0x19, 0x24, 0x81, 0x2c, 0xbe, 0x43, 0x0e, 0x68, 0xe0,
    0xba, 0x86, 0xd5, 0x25, 0xa2, 0xaf, 0xb1, 0xa8, 0xaf, 0xa4, 0x15, 0x19, 0x88, 0xfc, 0xd5, 0x3a, 0x7f, 0x6f, 0xfd,
    0xc4, 0xe0, 0xe5, 0xc0, 0x47, 0x13, 0xca, 0x30, 0x0e, 0xdb, 0x5c, 0x2e, 0xd6, 0xbf, 0xf8, 0xf8, 0x07, 0xe0, 0xf0,
    0xe4, 0x12, 0xf5, 0xc9, 0x05, 0x14, 0xb4, 0x14, 0x0b, 0xd6, 0xfc, 0x14, 0x7f, 0x06, 0xda, 0x01, 0xdf, 0xc2, 0xce,
    0x14, 0x1e, 0x2a, 0x00, 0xe1, 0xcb, 0x12, 0x13, 0xfc, 0x7f, 0x3c, 0xf4, 0x07, 0x16, 0xb3, 0x2e, 0xcf, 0xaa, 0xe0,
    0xec, 0xfd, 0x23, 0xda, 0x64, 0xb8, 0x1c, 0xef, 0xea, 0xdd, 0xe0, 0xc2, 0x11, 0xb8, 0xff, 0xd6, 0x03, 0xeb, 0xc9,
    0x7f, 0xe6, 0xf2, 0x37, 0x22, 0x95, 0xf0, 0x52, 0xea, 0x09, 0x19, 0x07, 0x0d, 0x3e, 0x04, 0xe3, 0xcc, 0x7f, 0x2c,
    0x1f, 0xe5, 0x24, 0xd9, 0xe3, 0xf1, 0xe8, 0x1f, 0xcc, 0xe2, 0xe7, 0xe7, 0xf9, 0xff, 0xfc, 0xfe, 0xfe, 0x2c, 0xf2,
    0x0a, 0xee, 0x0a, 0x04, 0x03, 0x5a, 0xca, 0x4d, 0xde, 0x05, 0xf2, 0xe7, 0xff, 0x20, 0x2b, 0xf5, 0x25, 0x81, 0xf9,
    0x20, 0x23, 0xee, 0xdd, 0xeb, 0x04, 0xc0, 0x26, 0x29, 0x06, 0xd3, 0x0b, 0xd6, 0x23, 0x17, 0xac, 0xf2, 0xe8, 0x81,
    0xed, 0x2c, 0x06, 0x05, 0xcd, 0xc3, 0x34, 0xe1, 0x0a, 0x06, 0xce, 0xd8, 0xee, 0xe1, 0xfa, 0x18, 0xfc, 0x03, 0x1a,
    0x32, 0x01, 0xeb, 0x23, 0x7f, 0xf9, 0x06, 0xde, 0xe0, 0xea, 0xbf, 0xfd, 0x1c, 0xd1, 0x19, 0xea, 0xda, 0xd5, 0xa9,
    0xe5, 0x81, 0xa3, 0x5c, 0xf7, 0xfd, 0x4e, 0x0c, 0xcf, 0x9c, 0x1b, 0xd7, 0x15, 0x42, 0xe1, 0xa0, 0x78, 0xe7, 0x9b,
    0x1e, 0x05, 0x0d, 0x2f, 0xfa, 0x15, 0x22, 0xcf, 0x0c, 0xeb, 0xfe, 0x0d, 0xfb, 0xeb, 0xf4, 0xfe, 0x05, 0x0c, 0xfd,
    0x26, 0x14, 0x00, 0x7f, 0x44, 0x10, 0x1f, 0x08, 0x72, 0x33, 0xe5, 0x2d, 0x50, 0xd3, 0x05, 0xeb, 0x81, 0x2d, 0xd4,
    0x02, 0x84, 0xf4, 0xfd, 0x0e, 0x49, 0xf4, 0xa4, 0x21, 0x13, 0x09, 0x04, 0xd2, 0xfe, 0xf5, 0xeb, 0x20, 0x2d, 0xd7,
    0xce, 0x02, 0x9d, 0xfa, 0xe2, 0xcb, 0xf4, 0x2f, 0x3c, 0xcf, 0xd2, 0x16, 0x81, 0x19, 0x1b, 0x12, 0x7f, 0xe2, 0xe9,
    0xe6, 0x06, 0x03, 0xea, 0xdf, 0xf5, 0x2d, 0x35, 0xde, 0x11, 0x1b, 0x30, 0xfe, 0x01, 0xfa, 0x08, 0x01, 0x08, 0x0c,
    0xf3, 0xdc, 0xe6, 0xc0, 0x21, 0xf3, 0xd5, 0xf8, 0x37, 0xc9, 0xfc, 0x31, 0x81, 0xf6, 0xfd, 0x44, 0xe5, 0xe3, 0x01,
    0xef, 0xe2, 0xd9, 0xf2, 0x19, 0xe8, 0xc2, 0x01, 0x0e, 0xba, 0xf6, 0x37, 0xd9, 0xd6, 0xf5, 0x3a, 0xfc, 0x57, 0x07,
    0x3d, 0x30, 0xcc, 0xf9, 0xcc, 0xd8, 0x0d, 0x81, 0x66, 0x13, 0xe9, 0xce, 0xdd, 0xeb, 0xba, 0x15, 0xd8, 0x66, 0xdd,
    0x44, 0x5c, 0xf1, 0x32, 0x1b, 0xdc, 0xee, 0xf7, 0x7d, 0x81, 0x15, 0xaf, 0x1e, 0x37, 0x00, 0xfb, 0xd6, 0x07, 0x20,
    0xf3, 0xc0, 0xf1, 0xe4, 0xe4, 0xee, 0x41, 0x0e, 0x60, 0x04, 0xf1, 0x7f, 0x25, 0xe0, 0xfd, 0xbe, 0xf9, 0xe7, 0xff,
    0x10, 0x29, 0x2c, 0x9e, 0x0c, 0xf8, 0xb5, 0x53, 0xa8, 0xeb, 0xd0, 0xfb, 0x02, 0x21, 0x46, 0x68, 0xfe, 0x07, 0x38,
    0x7f, 0xb9, 0xcd, 0x98, 0xb1, 0x15, 0x30, 0x4f, 0xcd, 0xc9, 0x15, 0x23, 0xf5, 0x7f, 0x40, 0xcb, 0xde, 0xd4, 0xa7,
    0xa7, 0x40, 0x3e, 0xa3, 0xdc, 0xf1, 0x23, 0x4b, 0x61, 0x84, 0xee, 0xf3, 0x0a, 0xff, 0x12, 0x3c, 0x48, 0xf8, 0xe1,
    0xf2, 0xb6, 0xf6, 0x02, 0xb5, 0xf3, 0xd2, 0x81, 0x10, 0x1f, 0x37, 0xf9, 0xed, 0xba, 0x7e, 0xd3, 0xda, 0x0b, 0x21,
    0xd8, 0x15, 0x22, 0x08, 0x13, 0x20, 0x07, 0xee, 0xbd, 0xd3, 0xfb, 0x06, 0x81, 0xe2, 0x28, 0x17, 0x0c, 0xb3, 0xaa,
    0x62, 0xe8, 0xcb, 0xff, 0xe2, 0xac, 0x10, 0x31, 0x07, 0x43, 0x27, 0x48, 0x16, 0x38, 0x70, 0xbe, 0x7a, 0xec, 0x27,
    0x5d, 0x81, 0x23, 0x28, 0x9c, 0xd5, 0xdc, 0x01, 0xfa, 0x26, 0x06, 0x03, 0x00, 0xed, 0xe7, 0xf3, 0xf7, 0xe2, 0x0f,
    0x0a, 0x7f, 0x03, 0x04, 0x11, 0xfa, 0xed, 0x1a, 0xfa, 0x15, 0x11, 0x08, 0xe5, 0xee, 0x4a, 0x31, 0x14, 0x0a, 0xbe,
    0xe0, 0x16, 0x12, 0x23, 0x81, 0x09, 0xe2, 0xe4, 0x17, 0xd8, 0x42, 0x14, 0x2c, 0xff, 0xfc, 0x07, 0xf6, 0x06, 0xe5,
    0x24, 0xb1, 0xe7, 0xfe, 0x13, 0xe1, 0x0e, 0x02, 0xe7, 0xe6, 0xa7, 0xcc, 0xe1, 0x81, 0xe9, 0x0a, 0x11, 0x0e, 0x1a,
    0xcc, 0x57, 0x0d, 0x07, 0x2a, 0x81, 0x2e, 0x18, 0xfc, 0xed, 0x0a, 0xf6, 0x53, 0xfe, 0xe2, 0xbe, 0x08, 0x05, 0x1d,
    0xfa, 0x2e, 0x1d, 0xf1, 0x03, 0x10, 0x17, 0xf6, 0x2c, 0x09, 0x03, 0x43, 0xbb, 0x19, 0x52, 0x2a, 0xce, 0xbd, 0x4f,
    0xef, 0xe9, 0x1b, 0x17, 0x21, 0xe8, 0xfd, 0x81, 0x18, 0x0a, 0x6a, 0x6d, 0x0c, 0xb4, 0xc6, 0xfe, 0x03, 0x04, 0xdb,
    0x35, 0x0f, 0x0f, 0x27, 0xef, 0x00, 0xfc, 0x12, 0x21, 0xd5, 0xf2, 0x81, 0xf6, 0x06, 0x01, 0x19, 0x0a, 0xc8, 0x62,
    0xf1, 0xfe, 0x3e, 0xe5, 0xde, 0x01, 0xd6, 0x57, 0x0b, 0xf8, 0x0b, 0x1a, 0x09, 0xce, 0x05, 0x07, 0xf2, 0xfa, 0x07,
    0xf6, 0xef, 0xed, 0x81, 0xb6, 0x93, 0x98, 0xca, 0xd6, 0x81, 0x2d, 0x1b, 0x07, 0x36, 0xd4, 0x88, 0x09, 0x00, 0x0f,
    0x16, 0xc7, 0x28, 0x54, 0xad, 0x00, 0xfc, 0xf7, 0xcb, 0xef, 0xbb, 0x40, 0xff, 0x0b, 0x3c, 0x0c, 0xe9, 0xea, 0x18,
    0x18, 0xf2, 0xd8, 0x3b, 0x44, 0xd2, 0x59, 0xdb, 0xc0, 0x98, 0xea, 0x94, 0x81, 0xf4, 0x24, 0xf4, 0x1e, 0xe2, 0xec,
    0x61, 0xe9, 0x3c, 0x15, 0xb2, 0x13, 0x30, 0xd2, 0x6b, 0x1a, 0x0a, 0xfa, 0x5d, 0x81, 0xc4, 0xf2, 0xc2, 0xb6, 0x25,
    0x2e, 0xe5, 0x23, 0xc3, 0xf1, 0xdf, 0xa0, 0x3e, 0x7b, 0x18, 0x99, 0x23, 0xde, 0x42, 0xd3, 0xc9, 0xd3, 0xf1, 0x1e,
    0xf7, 0xdd, 0xb9, 0x7f, 0x61, 0x02, 0xe4, 0xe3, 0x08, 0xcf, 0x7b, 0xe4, 0x6e, 0xe6, 0xf7, 0x22, 0xda, 0x22, 0xfc,
    0x70, 0x7f, 0x07, 0xf5, 0x9f, 0xa4, 0xfd, 0xde, 0xb0, 0x0b, 0xf9, 0xa0, 0x55, 0x5b, 0xe2, 0xff, 0xe6, 0x45, 0x2f,
    0xf9, 0x1a, 0x05, 0x0b, 0xaa, 0xad, 0xbd, 0x1c, 0xe6, 0x81, 0x99, 0xfe, 0xc4, 0x95, 0x2d, 0xdd, 0xd0, 0xaf, 0xd1,
    0x85, 0x7f, 0xcd, 0x0e, 0xae, 0x17, 0x2a, 0x2b, 0x48, 0x11, 0x65, 0xc9, 0x11, 0x6e, 0x97, 0xca, 0xf8, 0xbc, 0x04,
    0xef, 0x19, 0x19, 0x19, 0x13, 0xec, 0x07, 0x81, 0x0c, 0xcc, 0x00, 0xfc, 0x26, 0x09, 0x1b, 0xea, 0xda, 0x00, 0xeb,
    0xb0, 0x07, 0xfe, 0x22, 0x15, 0x0f, 0x1e, 0xfe, 0xcd, 0x2d, 0x2c, 0x2e, 0x04, 0x5c, 0x38, 0x81, 0x2a, 0xd3, 0xd0,
    0x34, 0xe1, 0xc2, 0xf6, 0x4c, 0xd3, 0x6b, 0xac, 0x63, 0xa9, 0x08, 0xf0, 0xd4, 0xc8, 0xe7, 0xc1, 0xc5, 0xb6, 0xf2,
    0x86, 0xb9, 0xce, 0x25, 0xac, 0xfd, 0xe4, 0x16, 0xa1, 0x4a, 0xfc, 0x02, 0x7f, 0x1b, 0xca, 0xd0, 0x1d, 0x48, 0xe3,
    0x7f, 0xf9, 0xe2, 0xdf, 0x03, 0xe1, 0xf7, 0x37, 0xda, 0xc4, 0xdf, 0xb6, 0xb3, 0xde, 0xd9, 0xa0, 0x12, 0x00, 0xb2,
    0xdb, 0x11, 0x4d, 0xd4, 0xf3, 0x38, 0xf0, 0xdf, 0x49, 0x19, 0x05, 0x85, 0xb4, 0x00, 0xd2, 0x19, 0xf2, 0x36, 0xe1,
    0x07, 0x23, 0x2d, 0xd0, 0x7f, 0x53, 0x4b, 0x17, 0xe7, 0x07, 0xe5, 0x03, 0x90, 0xbc, 0x81, 0x33, 0xdb, 0x1b, 0x71,
    0x8b, 0xda, 0x04, 0x77, 0x0a, 0xa1, 0xfc, 0xc5, 0x27, 0x13, 0xb4, 0x1b, 0xe9, 0xf6, 0x10, 0x48, 0xc1, 0xbd, 0x0f,
